{
  "version": "1.0",
  "truncation": null,
  "padding": null,
  "added_tokens": [
    {
      "id": 0,
      "content": "<s>",
      "single_word": false,
      "lstrip": false,
      "rstrip": false,
      "normalized": false,
      "special": true
    },
    {
      "id": 1,
      "content": "</s>",
      "single_word": false,
      "lstrip": false,
      "rstrip": false,
      "normalized": false,
      "special": true
    },
    {
      "id": 2,
      "content": "<pad>",
      "single_word": false,
      "lstrip": false,
      "rstrip": false,
      "normalized": false,
      "special": true
    },
    {
      "id": 3,
      "content": "<unk>",
      "single_word": false,
      "lstrip": false,
      "rstrip": false,
      "normalized": false,
      "special": true
    }
  ],
  "normalizer": null,
  "pre_tokenizer": {
    "type": "Whitespace"
  },
  "post_processor": null,
  "decoder": null,
  "model": {
    "type": "BPE",
    "dropout": null,
    "unk_token": null,
    "continuing_subword_prefix": null,
    "end_of_word_suffix": null,
    "fuse_unk": false,
    "byte_fallback": false,
    "ignore_merges": false,
    "vocab": {
      "<s>": 0,
      "</s>": 1,
      "<pad>": 2,
      "<unk>": 3,
      "!": 4,
      "\"": 5,
      "$": 6,
      "%": 7,
      "&": 8,
      "'": 9,
      "(": 10,
      ")": 11,
      "*": 12,
      "+": 13,
      ",": 14,
      "-": 15,
      ".": 16,
      "/": 17,
      "0": 18,
      "1": 19,
      "2": 20,
      "3": 21,
      "4": 22,
      "5": 23,
      "6": 24,
      "7": 25,
      "8": 26,
      "9": 27,
      ":": 28,
      ";": 29,
      "<": 30,
      "=": 31,
      ">": 32,
      "?": 33,
      "@": 34,
      "A": 35,
      "B": 36,
      "C": 37,
      "D": 38,
      "E": 39,
      "F": 40,
      "G": 41,
      "H": 42,
      "I": 43,
      "J": 44,
      "K": 45,
      "L": 46,
      "M": 47,
      "N": 48,
      "O": 49,
      "P": 50,
      "Q": 51,
      "R": 52,
      "S": 53,
      "T": 54,
      "U": 55,
      "V": 56,
      "W": 57,
      "X": 58,
      "Y": 59,
      "Z": 60,
      "[": 61,
      "\\": 62,
      "]": 63,
      "^": 64,
      "_": 65,
      "`": 66,
      "a": 67,
      "b": 68,
      "c": 69,
      "d": 70,
      "e": 71,
      "f": 72,
      "g": 73,
      "h": 74,
      "i": 75,
      "j": 76,
      "k": 77,
      "l": 78,
      "m": 79,
      "n": 80,
      "o": 81,
      "p": 82,
      "q": 83,
      "r": 84,
      "s": 85,
      "t": 86,
      "u": 87,
      "v": 88,
      "w": 89,
      "x": 90,
      "y": 91,
      "z": 92,
      "{": 93,
      "}": 94,
      "¡": 95,
      "¢": 96,
      "£": 97,
      "§": 98,
      "©": 99,
      "ª": 100,
      "«": 101,
      "­": 102,
      "°": 103,
      "±": 104,
      "²": 105,
      "³": 106,
      "´": 107,
      "µ": 108,
      "·": 109,
      "¸": 110,
      "¹": 111,
      "º": 112,
      "»": 113,
      "¼": 114,
      "½": 115,
      "¾": 116,
      "À": 117,
      "Á": 118,
      "Â": 119,
      "Ä": 120,
      "Å": 121,
      "Ç": 122,
      "È": 123,
      "É": 124,
      "Ê": 125,
      "Ë": 126,
      "Ì": 127,
      "Í": 128,
      "Î": 129,
      "Ï": 130,
      "Ð": 131,
      "Ñ": 132,
      "Ò": 133,
      "Ó": 134,
      "Ô": 135,
      "Ö": 136,
      "Ø": 137,
      "Ù": 138,
      "Ú": 139,
      "Ü": 140,
      "Ý": 141,
      "ß": 142,
      "à": 143,
      "á": 144,
      "â": 145,
      "ã": 146,
      "ä": 147,
      "å": 148,
      "æ": 149,
      "ç": 150,
      "è": 151,
      "é": 152,
      "ê": 153,
      "ë": 154,
      "ì": 155,
      "í": 156,
      "î": 157,
      "ï": 158,
      "ð": 159,
      "ñ": 160,
      "ò": 161,
      "ó": 162,
      "ô": 163,
      "õ": 164,
      "ö": 165,
      "÷": 166,
      "ø": 167,
      "ù": 168,
      "ú": 169,
      "û": 170,
      "ü": 171,
      "ý": 172,
      "þ": 173,
      "ā": 174,
      "ă": 175,
      "ą": 176,
      "Ć": 177,
      "ć": 178,
      "ĉ": 179,
      "Č": 180,
      "č": 181,
      "ď": 182,
      "Đ": 183,
      "đ": 184,
      "ē": 185,
      "ė": 186,
      "ę": 187,
      "ě": 188,
      "ğ": 189,
      "Ģ": 190,
      "ī": 191,
      "į": 192,
      "İ": 193,
      "ı": 194,
      "ķ": 195,
      "ĺ": 196,
      "Ľ": 197,
      "ľ": 198,
      "Ł": 199,
      "ł": 200,
      "ń": 201,
      "ņ": 202,
      "ň": 203,
      "ō": 204,
      "Ő": 205,
      "ő": 206,
      "œ": 207,
      "ŕ": 208,
      "Ř": 209,
      "ř": 210,
      "Ś": 211,
      "ś": 212,
      "Ş": 213,
      "ş": 214,
      "Š": 215,
      "š": 216,
      "Ţ": 217,
      "ţ": 218,
      "ť": 219,
      "ū": 220,
      "ů": 221,
      "ų": 222,
      "ŵ": 223,
      "ź": 224,
      "Ż": 225,
      "ż": 226,
      "Ž": 227,
      "ž": 228,
      "ǎ": 229,
      "ǐ": 230,
      "ș": 231,
      "ʻ": 232,
      "ʼ": 233,
      "˗": 234,
      "˚": 235,
      "Α": 236,
      "Β": 237,
      "Ε": 238,
      "Ι": 239,
      "Κ": 240,
      "Μ": 241,
      "Ν": 242,
      "Ο": 243,
      "Π": 244,
      "Ρ": 245,
      "Τ": 246,
      "Υ": 247,
      "ά": 248,
      "έ": 249,
      "ή": 250,
      "ί": 251,
      "α": 252,
      "β": 253,
      "γ": 254,
      "δ": 255,
      "ε": 256,
      "ζ": 257,
      "η": 258,
      "ι": 259,
      "κ": 260,
      "λ": 261,
      "μ": 262,
      "ν": 263,
      "ξ": 264,
      "ο": 265,
      "π": 266,
      "ρ": 267,
      "ς": 268,
      "σ": 269,
      "τ": 270,
      "υ": 271,
      "φ": 272,
      "χ": 273,
      "ω": 274,
      "ό": 275,
      "ύ": 276,
      "ώ": 277,
      "Є": 278,
      "А": 279,
      "Д": 280,
      "М": 281,
      "Н": 282,
      "О": 283,
      "П": 284,
      "Т": 285,
      "У": 286,
      "а": 287,
      "б": 288,
      "в": 289,
      "г": 290,
      "д": 291,
      "е": 292,
      "ж": 293,
      "з": 294,
      "и": 295,
      "й": 296,
      "к": 297,
      "л": 298,
      "м": 299,
      "н": 300,
      "о": 301,
      "п": 302,
      "р": 303,
      "с": 304,
      "т": 305,
      "у": 306,
      "ч": 307,
      "ш": 308,
      "ъ": 309,
      "ы": 310,
      "ь": 311,
      "ю": 312,
      "я": 313,
      "є": 314,
      "і": 315,
      "ї": 316,
      "ܧ": 317,
      "​": 318,
      "–": 319,
      "—": 320,
      "―": 321,
      "‘": 322,
      "’": 323,
      "“": 324,
      "”": 325,
      "•": 326,
      "…": 327,
      "€": 328,
      "−": 329,
      "≤": 330,
      "┌": 331,
      "舃": 332,
      "�": 333,
      "on": 334,
      "re": 335,
      "in": 336,
      "he": 337,
      "en": 338,
      "an": 339,
      "at": 340,
      "er": 341,
      "al": 342,
      "to": 343,
      "ion": 344,
      "is": 345,
      "the": 346,
      "or": 347,
      "de": 348,
      "it": 349,
      "es": 350,
      "ro": 351,
      "di": 352,
      "la": 353,
      "ent": 354,
      "le": 355,
      "ar": 356,
      "ic": 357,
      "st": 358,
      "un": 359,
      "om": 360,
      "si": 361,
      "il": 362,
      "se": 363,
      "th": 364,
      "of": 365,
      "con": 366,
      "am": 367,
      "ione": 368,
      "and": 369,
      "po": 370,
      "li": 371,
      "del": 372,
      "ti": 373,
      "ri": 374,
      "te": 375,
      "as": 376,
      "ve": 377,
      "pe": 378,
      "pro": 379,
      "ing": 380,
      "che": 381,
      "are": 382,
      "so": 383,
      "per": 384,
      "no": 385,
      "qu": 386,
      "ou": 387,
      "ra": 388,
      "su": 389,
      "ne": 390,
      "be": 391,
      "ci": 392,
      "ta": 393,
      "zione": 394,
      "for": 395,
      "do": 396,
      "com": 397,
      "co": 398,
      "lo": 399,
      "ut": 400,
      "ce": 401,
      "uro": 402,
      "mo": 403,
      "ment": 404,
      "that": 405,
      "vo": 406,
      "me": 407,
      "ch": 408,
      "ma": 409,
      "pre": 410,
      "ter": 411,
      "ly": 412,
      "vi": 413,
      "urope": 414,
      "ver": 415,
      "ation": 416,
      "ed": 417,
      "por": 418,
      "gi": 419,
      "ati": 420,
      "we": 421,
      "ac": 422,
      "ato": 423,
      "im": 424,
      "ha": 425,
      "gli": 426,
      "mis": 427,
      "ur": 428,
      "ale": 429,
      "ente": 430,
      "Com": 431,
      "ono": 432,
      "miss": 433,
      "par": 434,
      "wh": 435,
      "bi": 436,
      "port": 437,
      "pi": 438,
      "ques": 439,
      "ate": 440,
      "et": 441,
      "ag": 442,
      "ento": 443,
      "ab": 444,
      "za": 445,
      "sid": 446,
      "zi": 447,
      "us": 448,
      "all": 449,
      "ali": 450,
      "della": 451,
      "ad": 452,
      "ff": 453,
      "go": 454,
      "non": 455,
      "ld": 456,
      "ari": 457,
      "zion": 458,
      "ul": 459,
      "ess": 460,
      "tr": 461,
      "da": 462,
      "Commiss": 463,
      "this": 464,
      "mi": 465,
      "du": 466,
      "ct": 467,
      "pos": 468,
      "pa": 469,
      "res": 470,
      "amo": 471,
      "mb": 472,
      "nel": 473,
      "una": 474,
      "ith": 475,
      "Europe": 476,
      "ap": 477,
      "ich": 478,
      "gh": 479,
      "ica": 480,
      "Un": 481,
      "ità": 482,
      "not": 483,
      "gn": 484,
      "with": 485,
      "ris": 486,
      "dis": 487,
      "ould": 488,
      "ill": 489,
      "resid": 490,
      "have": 491,
      "The": 492,
      "Presid": 493,
      "iti": 494,
      "ca": 495,
      "ten": 496,
      "europe": 497,
      "man": 498,
      "cor": 499,
      "dell": 500,
      "ir": 501,
      "pol": 502,
      "dei": 503,
      "our": 504,
      "fin": 505,
      "pres": 506,
      "zioni": 507,
      "ico": 508,
      "gu": 509,
      "cont": 510,
      "ity": 511,
      "gr": 512,
      "which": 513,
      "up": 514,
      "European": 515,
      "azione": 516,
      "str": 517,
      "sul": 518,
      "sa": 519,
      "ano": 520,
      "ke": 521,
      "enti": 522,
      "alla": 523,
      "ex": 524,
      "sh": 525,
      "pri": 526,
      "ere": 527,
      "St": 528,
      "chi": 529,
      "cu": 530,
      "ust": 531,
      "va": 532,
      "min": 533,
      "Par": 534,
      "by": 535,
      "ble": 536,
      "op": 537,
      "will": 538,
      "lu": 539,
      "ata": 540,
      "In": 541,
      "tto": 542,
      "rit": 543,
      "mer": 544,
      "ici": 545,
      "end": 546,
      "inter": 547,
      "att": 548,
      "ure": 549,
      "amente": 550,
      "delle": 551,
      "sono": 552,
      "has": 553,
      "ist": 554,
      "mento": 555,
      "one": 556,
      "el": 557,
      "ant": 558,
      "Mr": 559,
      "ven": 560,
      "em": 561,
      "Commission": 562,
      "fo": 563,
      "anno": 564,
      "ori": 565,
      "ther": 566,
      "der": 567,
      "ions": 568,
      "polit": 569,
      "part": 570,
      "itu": 571,
      "tre": 572,
      "00": 573,
      "come": 574,
      "can": 575,
      "tra": 576,
      "ggi": 577,
      "wor": 578,
      "ser": 579,
      "cess": 580,
      "mber": 581,
      "cre": 582,
      "out": 583,
      "reg": 584,
      "ge": 585,
      "tut": 586,
      "bil": 587,
      "import": 588,
      "pl": 589,
      "ament": 590,
      "col": 591,
      "ght": 592,
      "cer": 593,
      "ted": 594,
      "ai": 595,
      "Con": 596,
      "leg": 597,
      "questo": 598,
      "più": 599,
      "vol": 600,
      "europea": 601,
      "ho": 602,
      "nu": 603,
      "ces": 604,
      "fa": 605,
      "pr": 606,
      "anto": 607,
      "gen": 608,
      "ard": 609,
      "oro": 610,
      "ol": 611,
      "tri": 612,
      "Commissione": 613,
      "if": 614,
      "econ": 615,
      "pu": 616,
      "sta": 617,
      "Unione": 618,
      "dire": 619,
      "esse": 620,
      "mon": 621,
      "gnor": 622,
      "soci": 623,
      "sia": 624,
      "would": 625,
      "anche": 626,
      "vis": 627,
      "also": 628,
      "ric": 629,
      "tro": 630,
      "use": 631,
      "uto": 632,
      "quest": 633,
      "coun": 634,
      "Si": 635,
      "esi": 636,
      "lar": 637,
      "ine": 638,
      "enza": 639,
      "spe": 640,
      "present": 641,
      "there": 642,
      "Th": 643,
      "mente": 644,
      "rom": 645,
      "amento": 646,
      "tti": 647,
      "but": 648,
      "should": 649,
      "lamento": 650,
      "La": 651,
      "lazione": 652,
      "ates": 653,
      "ante": 654,
      "ple": 655,
      "act": 656,
      "ini": 657,
      "Presidente": 658,
      "President": 659,
      "econom": 660,
      "ally": 661,
      "ario": 662,
      "pon": 663,
      "glio": 664,
      "mit": 665,
      "mat": 666,
      "ans": 667,
      "from": 668,
      "revo": 669,
      "We": 670,
      "zza": 671,
      "ves": 672,
      "ire": 673,
      "Me": 674,
      "bl": 675,
      "possi": 676,
      "dere": 677,
      "must": 678,
      "ioni": 679,
      "biamo": 680,
      "very": 681,
      "get": 682,
      "alle": 683,
      "ia": 684,
      "tt": 685,
      "oc": 686,
      "ren": 687,
      "cis": 688,
      "essere": 689,
      "ron": 690,
      "liament": 691,
      "anti": 692,
      "inte": 693,
      "fi": 694,
      "av": 695,
      "ations": 696,
      "work": 697,
      "nost": 698,
      "ando": 699,
      "ob": 700,
      "bu": 701,
      "deve": 702,
      "ree": 703,
      "Member": 704,
      "ass": 705,
      "It": 706,
      "been": 707,
      "eff": 708,
      "form": 709,
      "ili": 710,
      "Co": 711,
      "ments": 712,
      "ber": 713,
      "rel": 714,
      "proble": 715,
      "na": 716,
      "fer": 717,
      "whe": 718,
      "propo": 719,
      "tor": 720,
      "Union": 721,
      "aff": 722,
      "ome": 723,
      "Parlamento": 724,
      "ult": 725,
      "oper": 726,
      "Parliament": 727,
      "zz": 728,
      "more": 729,
      "its": 730,
      "cti": 731,
      "comun": 732,
      "200": 733,
      "iche": 734,
      "ance": 735,
      "ous": 736,
      "indi": 737,
      "atto": 738,
      "mar": 739,
      "report": 740,
      "bile": 741,
      "ens": 742,
      "you": 743,
      "und": 744,
      "onorevo": 745,
      "ambi": 746,
      "Signor": 747,
      "Stati": 748,
      "cui": 749,
      "now": 750,
      "ché": 751,
      "ll": 752,
      "est": 753,
      "cit": 754,
      "atti": 755,
      "ice": 756,
      "sol": 757,
      "fore": 758,
      "necess": 759,
      "memb": 760,
      "disc": 761,
      "mol": 762,
      "able": 763,
      "ary": 764,
      "was": 765,
      "ste": 766,
      "sed": 767,
      "ani": 768,
      "bbe": 769,
      "appro": 770,
      "lav": 771,
      "od": 772,
      "ni": 773,
      "contro": 774,
      "relazione": 775,
      "anzi": 776,
      "ction": 777,
      "ene": 778,
      "rap": 779,
      "EU": 780,
      "degli": 781,
      "int": 782,
      "like": 783,
      "sider": 784,
      "States": 785,
      "dirit": 786,
      "wa": 787,
      "siglio": 788,
      "questa": 789,
      "sup": 790,
      "ative": 791,
      "cil": 792,
      "llo": 793,
      "Consiglio": 794,
      "who": 795,
      "ical": 796,
      "inci": 797,
      "diff": 798,
      "eren": 799,
      "Coun": 800,
      "their": 801,
      "ba": 802,
      "ear": 803,
      "id": 804,
      "right": 805,
      "Council": 806,
      "ers": 807,
      "stru": 808,
      "Euro": 809,
      "uman": 810,
      "ele": 811,
      "gra": 812,
      "Il": 813,
      "decis": 814,
      "europeo": 815,
      "ame": 816,
      "anci": 817,
      "ze": 818,
      "uppo": 819,
      "membri": 820,
      "nella": 821,
      "need": 822,
      "qual": 823,
      "ctive": 824,
      "king": 825,
      "pare": 826,
      "au": 827,
      "ition": 828,
      "fon": 829,
      "ura": 830,
      "other": 831,
      "men": 832,
      "situ": 833,
      "parte": 834,
      "dal": 835,
      "cy": 836,
      "quanto": 837,
      "clu": 838,
      "This": 839,
      "eve": 840,
      "abil": 841,
      "inst": 842,
      "paesi": 843,
      "val": 844,
      "these": 845,
      "ado": 846,
      "fic": 847,
      "ational": 848,
      "politica": 849,
      "ded": 850,
      "quel": 851,
      "cent": 852,
      "respon": 853,
      "gram": 854,
      "time": 855,
      "vil": 856,
      "they": 857,
      "pla": 858,
      "ated": 859,
      "ese": 860,
      "fe": 861,
      "moc": 862,
      "car": 863,
      "ish": 864,
      "gover": 865,
      "je": 866,
      "lare": 867,
      "deb": 868,
      "os": 869,
      "ite": 870,
      "cause": 871,
      "cur": 872,
      "ru": 873,
      "dov": 874,
      "sulla": 875,
      "tries": 876,
      "ong": 877,
      "vent": 878,
      "ito": 879,
      "way": 880,
      "Europa": 881,
      "countries": 882,
      "propos": 883,
      "onorevole": 884,
      "hanno": 885,
      "program": 886,
      "gno": 887,
      "ord": 888,
      "bet": 889,
      "new": 890,
      "guar": 891,
      "nuo": 892,
      "some": 893,
      "far": 894,
      "tutti": 895,
      "cost": 896,
      "accor": 897,
      "what": 898,
      "discus": 899,
      "than": 900,
      "reat": 901,
      "cle": 902,
      "Qu": 903,
      "tta": 904,
      "rat": 905,
      "princi": 906,
      "my": 907,
      "ms": 908,
      "nazion": 909,
      "cas": 910,
      "sione": 911,
      "etti": 912,
      "anza": 913,
      "about": 914,
      "loro": 915,
      "tà": 916,
      "Per": 917,
      "pen": 918,
      "sen": 919,
      "ople": 920,
      "ities": 921,
      "esso": 922,
      "cun": 923,
      "fut": 924,
      "ore": 925,
      "tem": 926,
      "important": 927,
      "contin": 928,
      "pers": 929,
      "tere": 930,
      "ful": 931,
      "ution": 932,
      "national": 933,
      "pt": 934,
      "produ": 935,
      "speci": 936,
      "over": 937,
      "democ": 938,
      "segu": 939,
      "icy": 940,
      "nell": 941,
      "fatto": 942,
      "menti": 943,
      "year": 944,
      "modo": 945,
      "tras": 946,
      "ener": 947,
      "day": 948,
      "via": 949,
      "vere": 950,
      "under": 951,
      "lop": 952,
      "prote": 953,
      "consider": 954,
      "sis": 955,
      "concer": 956,
      "any": 957,
      "people": 958,
      "age": 959,
      "vit": 960,
      "agree": 961,
      "ose": 962,
      "tain": 963,
      "only": 964,
      "svil": 965,
      "tale": 966,
      "almente": 967,
      "ow": 968,
      "sp": 969,
      "aga": 970,
      "into": 971,
      "tanto": 972,
      "fir": 973,
      "nei": 974,
      "support": 975,
      "thing": 976,
      "fr": 977,
      "gro": 978,
      "compe": 979,
      "propri": 980,
      "mun": 981,
      "policy": 982,
      "sost": 983,
      "issu": 984,
      "trans": 985,
      "ence": 986,
      "orre": 987,
      "acce": 988,
      "cooper": 989,
      "azioni": 990,
      "sc": 991,
      "continu": 992,
      "bo": 993,
      "stato": 994,
      "pun": 995,
      "proce": 996,
      "mark": 997,
      "ts": 998,
      "because": 999,
      "proposal": 1000,
      "peri": 1001,
      "atori": 1002,
      "medi": 1003,
      "molto": 1004,
      "ding": 1005,
      "esto": 1006,
      "dur": 1007,
      "amenti": 1008,
      "org": 1009,
      "attu": 1010,
      "gener": 1011,
      "put": 1012,
      "lavoro": 1013,
      "gy": 1014,
      "dalla": 1015,
      "forma": 1016,
      "develop": 1017,
      "aria": 1018,
      "liber": 1019,
      "colle": 1020,
      "secon": 1021,
      "ular": 1022,
      "sic": 1023,
      "19": 1024,
      "cesso": 1025,
      "alcun": 1026,
      "comp": 1027,
      "sub": 1028,
      "20": 1029,
      "maggi": 1030,
      "them": 1031,
      "clear": 1032,
      "diritti": 1033,
      "take": 1034,
      "legis": 1035,
      "posi": 1036,
      "cato": 1037,
      "fine": 1038,
      "ving": 1039,
      "just": 1040,
      "esta": 1041,
      "point": 1042,
      "line": 1043,
      "conf": 1044,
      "ring": 1045,
      "ga": 1046,
      "abbiamo": 1047,
      "pio": 1048,
      "sel": 1049,
      "mu": 1050,
      "finanzi": 1051,
      "cts": 1052,
      "perché": 1053,
      "tad": 1054,
      "rest": 1055,
      "hi": 1056,
      "such": 1057,
      "uno": 1058,
      "zia": 1059,
      "cittad": 1060,
      "bbiamo": 1061,
      "contri": 1062,
      "ade": 1063,
      "zio": 1064,
      "ved": 1065,
      "termin": 1066,
      "ress": 1067,
      "serv": 1068,
      "orrei": 1069,
      "ced": 1070,
      "utto": 1071,
      "ck": 1072,
      "ting": 1073,
      "wever": 1074,
      "sure": 1075,
      "atta": 1076,
      "partic": 1077,
      "sign": 1078,
      "allo": 1079,
      "most": 1080,
      "setto": 1081,
      "mitte": 1082,
      "uti": 1083,
      "say": 1084,
      "particular": 1085,
      "live": 1086,
      "crit": 1087,
      "As": 1088,
      "strate": 1089,
      "ora": 1090,
      "make": 1091,
      "eri": 1092,
      "alis": 1093,
      "commiss": 1094,
      "suo": 1095,
      "order": 1096,
      "ween": 1097,
      "ino": 1098,
      "Non": 1099,
      "proposta": 1100,
      "vie": 1101,
      "ink": 1102,
      "between": 1103,
      "aggi": 1104,
      "ating": 1105,
      "rispe": 1106,
      "those": 1107,
      "partico": 1108,
      "blic": 1109,
      "nor": 1110,
      "endo": 1111,
      "Re": 1112,
      "que": 1113,
      "sti": 1114,
      "gar": 1115,
      "bas": 1116,
      "mittee": 1117,
      "being": 1118,
      "sem": 1119,
      "try": 1120,
      "ancor": 1121,
      "pub": 1122,
      "market": 1123,
      "solo": 1124,
      "sviluppo": 1125,
      "riguar": 1126,
      "Se": 1127,
      "sy": 1128,
      "consu": 1129,
      "ina": 1130,
      "stand": 1131,
      "chan": 1132,
      "indu": 1133,
      "fact": 1134,
      "cittadini": 1135,
      "importante": 1136,
      "know": 1137,
      "tal": 1138,
      "rights": 1139,
      "gia": 1140,
      "sci": 1141,
      "cl": 1142,
      "economic": 1143,
      "ativa": 1144,
      "beli": 1145,
      "ghi": 1146,
      "favo": 1147,
      "opport": 1148,
      "aspe": 1149,
      "pren": 1150,
      "dovre": 1151,
      "obi": 1152,
      "ast": 1153,
      "therefore": 1154,
      "when": 1155,
      "era": 1156,
      "due": 1157,
      "siste": 1158,
      "cris": 1159,
      "read": 1160,
      "diver": 1161,
      "nego": 1162,
      "rego": 1163,
      "Commissario": 1164,
      "appl": 1165,
      "sotto": 1166,
      "fac": 1167,
      "sar": 1168,
      "occu": 1169,
      "anni": 1170,
      "were": 1171,
      "mio": 1172,
      "political": 1173,
      "bene": 1174,
      "ancora": 1175,
      "inf": 1176,
      "ulti": 1177,
      "plo": 1178,
      "ute": 1179,
      "eria": 1180,
      "zzazione": 1181,
      "inten": 1182,
      "many": 1183,
      "made": 1184,
      "gran": 1185,
      "sua": 1186,
      "gere": 1187,
      "può": 1188,
      "dall": 1189,
      "Ho": 1190,
      "bilità": 1191,
      "ichi": 1192,
      "rà": 1193,
      "Al": 1194,
      "citi": 1195,
      "obietti": 1196,
      "state": 1197,
      "accordo": 1198,
      "fare": 1199,
      "ach": 1200,
      "auto": 1201,
      "met": 1202,
      "Le": 1203,
      "ards": 1204,
      "tutto": 1205,
      "xt": 1206,
      "questione": 1207,
      "legisl": 1208,
      "first": 1209,
      "fond": 1210,
      "vel": 1211,
      "An": 1212,
      "tur": 1213,
      "altri": 1214,
      "commissione": 1215,
      "believe": 1216,
      "sicure": 1217,
      "procedu": 1218,
      "inclu": 1219,
      "luzione": 1220,
      "view": 1221,
      "human": 1222,
      "govern": 1223,
      "see": 1224,
      "Commissioner": 1225,
      "corre": 1226,
      "stem": 1227,
      "ures": 1228,
      "ural": 1229,
      "art": 1230,
      "cap": 1231,
      "sicurezza": 1232,
      "fund": 1233,
      "incre": 1234,
      "ide": 1235,
      "già": 1236,
      "pubbl": 1237,
      "ific": 1238,
      "here": 1239,
      "her": 1240,
      "emend": 1241,
      "impe": 1242,
      "pend": 1243,
      "giu": 1244,
      "età": 1245,
      "ciò": 1246,
      "quali": 1247,
      "tavia": 1248,
      "dom": 1249,
      "cos": 1250,
      "prima": 1251,
      "social": 1252,
      "tori": 1253,
      "ud": 1254,
      "ffor": 1255,
      "plement": 1256,
      "real": 1257,
      "public": 1258,
      "gni": 1259,
      "main": 1260,
      "rou": 1261,
      "oltre": 1262,
      "seri": 1263,
      "posizione": 1264,
      "where": 1265,
      "defin": 1266,
      "led": 1267,
      "ning": 1268,
      "system": 1269,
      "occupa": 1270,
      "against": 1271,
      "mil": 1272,
      "ov": 1273,
      "situazione": 1274,
      "compet": 1275,
      "suc": 1276,
      "cio": 1277,
      "mercato": 1278,
      "meas": 1279,
      "opportun": 1280,
      "bility": 1281,
      "debate": 1282,
      "ned": 1283,
      "great": 1284,
      "condi": 1285,
      "chiar": 1286,
      "dobbiamo": 1287,
      "diretti": 1288,
      "ran": 1289,
      "rappor": 1290,
      "requ": 1291,
      "icazione": 1292,
      "199": 1293,
      "ogo": 1294,
      "tazione": 1295,
      "off": 1296,
      "inform": 1297,
      "livello": 1298,
      "signor": 1299,
      "prog": 1300,
      "tw": 1301,
      "essi": 1302,
      "particolare": 1303,
      "citiz": 1304,
      "think": 1305,
      "ner": 1306,
      "inves": 1307,
      "less": 1308,
      "lab": 1309,
      "valu": 1310,
      "punto": 1311,
      "want": 1312,
      "alth": 1313,
      "euro": 1314,
      "nostro": 1315,
      "paese": 1316,
      "nazionale": 1317,
      "sosten": 1318,
      "ken": 1319,
      "olo": 1320,
      "settore": 1321,
      "altro": 1322,
      "gruppo": 1323,
      "bilanci": 1324,
      "red": 1325,
      "That": 1326,
      "mom": 1327,
      "well": 1328,
      "rappresent": 1329,
      "tempo": 1330,
      "quindi": 1331,
      "noi": 1332,
      "arie": 1333,
      "future": 1334,
      "ctor": 1335,
      "There": 1336,
      "effe": 1337,
      "migli": 1338,
      "questi": 1339,
      "lob": 1340,
      "too": 1341,
      "atore": 1342,
      "possible": 1343,
      "ip": 1344,
      "abilità": 1345,
      "parti": 1346,
      "good": 1347,
      "favore": 1348,
      "add": 1349,
      "provi": 1350,
      "even": 1351,
      "stri": 1352,
      "munity": 1353,
      "agli": 1354,
      "Committee": 1355,
      "positi": 1356,
      "invol": 1357,
      "development": 1358,
      "ssi": 1359,
      "nat": 1360,
      "clus": 1361,
      "region": 1362,
      "issue": 1363,
      "his": 1364,
      "amend": 1365,
      "rimin": 1366,
      "democrat": 1367,
      "sin": 1368,
      "differen": 1369,
      "tare": 1370,
      "dies": 1371,
      "intro": 1372,
      "care": 1373,
      "um": 1374,
      "long": 1375,
      "country": 1376,
      "dra": 1377,
      "ask": 1378,
      "ban": 1379,
      "years": 1380,
      "nostra": 1381,
      "ploy": 1382,
      "ty": 1383,
      "question": 1384,
      "colleghi": 1385,
      "ger": 1386,
      "dev": 1387,
      "cal": 1388,
      "person": 1389,
      "prior": 1390,
      "richi": 1391,
      "gent": 1392,
      "ita": 1393,
      "level": 1394,
      "ise": 1395,
      "rico": 1396,
      "ot": 1397,
      "oggi": 1398,
      "ough": 1399,
      "pli": 1400,
      "stata": 1401,
      "cted": 1402,
      "senza": 1403,
      "semb": 1404,
      "situation": 1405,
      "svol": 1406,
      "ready": 1407,
      "tali": 1408,
      "istr": 1409,
      "inizi": 1410,
      "two": 1411,
      "soli": 1412,
      "den": 1413,
      "viron": 1414,
      "citizens": 1415,
      "ices": 1416,
      "cannot": 1417,
      "teri": 1418,
      "meno": 1419,
      "had": 1420,
      "don": 1421,
      "exam": 1422,
      "vironment": 1423,
      "solution": 1424,
      "vità": 1425,
      "opin": 1426,
      "limit": 1427,
      "atten": 1428,
      "sull": 1429,
      "same": 1430,
      "ply": 1431,
      "quale": 1432,
      "cour": 1433,
      "does": 1434,
      "measures": 1435,
      "gono": 1436,
      "servi": 1437,
      "ancial": 1438,
      "ffici": 1439,
      "ulation": 1440,
      "possibile": 1441,
      "istitu": 1442,
      "rough": 1443,
      "ordin": 1444,
      "assi": 1445,
      "sal": 1446,
      "own": 1447,
      "cons": 1448,
      "sing": 1449,
      "omen": 1450,
      "every": 1451,
      "cia": 1452,
      "esem": 1453,
      "pect": 1454,
      "then": 1455,
      "pes": 1456,
      "fis": 1457,
      "diritto": 1458,
      "ency": 1459,
      "paren": 1460,
      "caso": 1461,
      "des": 1462,
      "mes": 1463,
      "bud": 1464,
      "rag": 1465,
      "area": 1466,
      "ety": 1467,
      "air": 1468,
      "regard": 1469,
      "chia": 1470,
      "bero": 1471,
      "certain": 1472,
      "could": 1473,
      "centr": 1474,
      "glob": 1475,
      "direttiva": 1476,
      "fun": 1477,
      "base": 1478,
      "gin": 1479,
      "Ma": 1480,
      "fondament": 1481,
      "materia": 1482,
      "bbero": 1483,
      "così": 1484,
      "problema": 1485,
      "budget": 1486,
      "ject": 1487,
      "said": 1488,
      "ks": 1489,
      "discussione": 1490,
      "today": 1491,
      "sion": 1492,
      "mor": 1493,
      "agreement": 1494,
      "comple": 1495,
      "sare": 1496,
      "cir": 1497,
      "curren": 1498,
      "nelle": 1499,
      "through": 1500,
      "De": 1501,
      "So": 1502,
      "feren": 1503,
      "bili": 1504,
      "essa": 1505,
      "ship": 1506,
      "riguarda": 1507,
      "rispetto": 1508,
      "vote": 1509,
      "siamo": 1510,
      "tratta": 1511,
      "implement": 1512,
      "much": 1513,
      "interest": 1514,
      "corso": 1515,
      "employ": 1516,
      "matter": 1517,
      "vorrei": 1518,
      "europei": 1519,
      "iso": 1520,
      "volta": 1521,
      "commer": 1522,
      "cam": 1523,
      "fu": 1524,
      "chie": 1525,
      "already": 1526,
      "resul": 1527,
      "sarà": 1528,
      "last": 1529,
      "hap": 1530,
      "set": 1531,
      "io": 1532,
      "did": 1533,
      "dit": 1534,
      "financial": 1535,
      "pur": 1536,
      "ges": 1537,
      "entr": 1538,
      "role": 1539,
      "nazionali": 1540,
      "bilancio": 1541,
      "responsi": 1542,
      "bon": 1543,
      "how": 1544,
      "stat": 1545,
      "equ": 1546,
      "hope": 1547,
      "tura": 1548,
      "misure": 1549,
      "within": 1550,
      "processo": 1551,
      "comunit": 1552,
      "fav": 1553,
      "Ci": 1554,
      "fron": 1555,
      "UE": 1556,
      "thor": 1557,
      "taken": 1558,
      "alcuni": 1559,
      "sui": 1560,
      "teur": 1561,
      "Mrs": 1562,
      "vamente": 1563,
      "process": 1564,
      "popo": 1565,
      "comune": 1566,
      "still": 1567,
      "Pro": 1568,
      "cult": 1569,
      "ak": 1570,
      "fra": 1571,
      "democra": 1572,
      "isce": 1573,
      "place": 1574,
      "legal": 1575,
      "rapporteur": 1576,
      "reas": 1577,
      "siano": 1578,
      "ativo": 1579,
      "presid": 1580,
      "ror": 1581,
      "devono": 1582,
      "world": 1583,
      "esempio": 1584,
      "instit": 1585,
      "ater": 1586,
      "onorevoli": 1587,
      "sulle": 1588,
      "law": 1589,
      "environment": 1590,
      "lavor": 1591,
      "common": 1592,
      "contribu": 1593,
      "your": 1594,
      "quando": 1595,
      "occupazione": 1596,
      "potre": 1597,
      "costitu": 1598,
      "case": 1599,
      "lazioni": 1600,
      "agrico": 1601,
      "garanti": 1602,
      "moti": 1603,
      "group": 1604,
      "However": 1605,
      "impro": 1606,
      "Ch": 1607,
      "dif": 1608,
      "adott": 1609,
      "both": 1610,
      "ness": 1611,
      "position": 1612,
      "ensure": 1613,
      "Community": 1614,
      "sistema": 1615,
      "utions": 1616,
      "cla": 1617,
      "vero": 1618,
      "verso": 1619,
      "ismo": 1620,
      "organi": 1621,
      "sociale": 1622,
      "course": 1623,
      "bre": 1624,
      "sto": 1625,
      "industri": 1626,
      "giust": 1627,
      "cooperation": 1628,
      "san": 1629,
      "ack": 1630,
      "sempre": 1631,
      "Tur": 1632,
      "imento": 1633,
      "secondo": 1634,
      "compi": 1635,
      "solid": 1636,
      "ase": 1637,
      "self": 1638,
      "sector": 1639,
      "vic": 1640,
      "concern": 1641,
      "land": 1642,
      "wer": 1643,
      "ouse": 1644,
      "ogni": 1645,
      "problemi": 1646,
      "10": 1647,
      "proprio": 1648,
      "reason": 1649,
      "action": 1650,
      "af": 1651,
      "promo": 1652,
      "riso": 1653,
      "ressi": 1654,
      "tratt": 1655,
      "urther": 1656,
      "No": 1657,
      "inno": 1658,
      "van": 1659,
      "gior": 1660,
      "nolo": 1661,
      "als": 1662,
      "vari": 1663,
      "Nel": 1664,
      "anim": 1665,
      "ester": 1666,
      "integr": 1667,
      "arsi": 1668,
      "hal": 1669,
      "mand": 1670,
      "ited": 1671,
      "strut": 1672,
      "nal": 1673,
      "proget": 1674,
      "applic": 1675,
      "nostri": 1676,
      "numer": 1677,
      "international": 1678,
      "abili": 1679,
      "raggi": 1680,
      "consegu": 1681,
      "icolo": 1682,
      "labor": 1683,
      "decision": 1684,
      "stati": 1685,
      "curity": 1686,
      "quad": 1687,
      "number": 1688,
      "programma": 1689,
      "gest": 1690,
      "momento": 1691,
      "prese": 1692,
      "alizz": 1693,
      "reed": 1694,
      "control": 1695,
      "dello": 1696,
      "vare": 1697,
      "stra": 1698,
      "sim": 1699,
      "clo": 1700,
      "large": 1701,
      "informa": 1702,
      "hel": 1703,
      "ds": 1704,
      "respons": 1705,
      "altre": 1706,
      "high": 1707,
      "affron": 1708,
      "current": 1709,
      "cosa": 1710,
      "ec": 1711,
      "ss": 1712,
      "ringra": 1713,
      "cooperazione": 1714,
      "benef": 1715,
      "wn": 1716,
      "Wh": 1717,
      "grat": 1718,
      "lament": 1719,
      "pass": 1720,
      "bia": 1721,
      "may": 1722,
      "miglior": 1723,
      "risult": 1724,
      "viol": 1725,
      "terror": 1726,
      "futuro": 1727,
      "ort": 1728,
      "cento": 1729,
      "table": 1730,
      "pra": 1731,
      "call": 1732,
      "lead": 1733,
      "why": 1734,
      "prodo": 1735,
      "desider": 1736,
      "organ": 1737,
      "cial": 1738,
      "jor": 1739,
      "imp": 1740,
      "ben": 1741,
      "quello": 1742,
      "Mad": 1743,
      "author": 1744,
      "tenere": 1745,
      "pted": 1746,
      "ism": 1747,
      "affer": 1748,
      "energy": 1749,
      "achi": 1750,
      "major": 1751,
      "queste": 1752,
      "achieve": 1753,
      "luogo": 1754,
      "tenza": 1755,
      "Mi": 1756,
      "Tut": 1757,
      "necessario": 1758,
      "half": 1759,
      "garantire": 1760,
      "engo": 1761,
      "contr": 1762,
      "attutto": 1763,
      "tutte": 1764,
      "Min": 1765,
      "introdu": 1766,
      "pic": 1767,
      "information": 1768,
      "means": 1769,
      "Rus": 1770,
      "wel": 1771,
      "iamo": 1772,
      "sopr": 1773,
      "inoltre": 1774,
      "mend": 1775,
      "utili": 1776,
      "gentle": 1777,
      "docu": 1778,
      "problem": 1779,
      "necessary": 1780,
      "persone": 1781,
      "example": 1782,
      "gentlemen": 1783,
      "orse": 1784,
      "conclus": 1785,
      "proposte": 1786,
      "wing": 1787,
      "maggior": 1788,
      "ue": 1789,
      "Gro": 1790,
      "soprattutto": 1791,
      "Stato": 1792,
      "initi": 1793,
      "comb": 1794,
      "without": 1795,
      "pens": 1796,
      "sour": 1797,
      "open": 1798,
      "ace": 1799,
      "cli": 1800,
      "quadro": 1801,
      "governo": 1802,
      "tato": 1803,
      "ind": 1804,
      "specific": 1805,
      "acti": 1806,
      "diffic": 1807,
      "ppo": 1808,
      "protection": 1809,
      "Sono": 1810,
      "obje": 1811,
      "interno": 1812,
      "let": 1813,
      "posta": 1814,
      "If": 1815,
      "dial": 1816,
      "lun": 1817,
      "problems": 1818,
      "directive": 1819,
      "however": 1820,
      "risoluzione": 1821,
      "prof": 1822,
      "raggiun": 1823,
      "med": 1824,
      "House": 1825,
      "Lis": 1826,
      "vin": 1827,
      "ules": 1828,
      "signific": 1829,
      "tec": 1830,
      "Tr": 1831,
      "ised": 1832,
      "compro": 1833,
      "text": 1834,
      "diamo": 1835,
      "internazionale": 1836,
      "cing": 1837,
      "respect": 1838,
      "cres": 1839,
      "ambito": 1840,
      "politiche": 1841,
      "help": 1842,
      "grande": 1843,
      "dest": 1844,
      "asi": 1845,
      "negoti": 1846,
      "cessi": 1847,
      "dovrebbe": 1848,
      "Lisbon": 1849,
      "sco": 1850,
      "primo": 1851,
      "redu": 1852,
      "umani": 1853,
      "ei": 1854,
      "moni": 1855,
      "change": 1856,
      "health": 1857,
      "caus": 1858,
      "particularly": 1859,
      "cin": 1860,
      "Madam": 1861,
      "mmo": 1862,
      "ately": 1863,
      "negozi": 1864,
      "give": 1865,
      "soste": 1866,
      "before": 1867,
      "emendamenti": 1868,
      "issues": 1869,
      "establ": 1870,
      "represent": 1871,
      "ential": 1872,
      "deal": 1873,
      "ator": 1874,
      "deput": 1875,
      "biso": 1876,
      "sostegno": 1877,
      "since": 1878,
      "concor": 1879,
      "servizi": 1880,
      "security": 1881,
      "remo": 1882,
      "access": 1883,
      "struct": 1884,
      "enzi": 1885,
      "pag": 1886,
      "congrat": 1887,
      "cambi": 1888,
      "arch": 1889,
      "molti": 1890,
      "suffici": 1891,
      "effetti": 1892,
      "ativi": 1893,
      "jo": 1894,
      "follo": 1895,
      "stitu": 1896,
      "determin": 1897,
      "les": 1898,
      "coordin": 1899,
      "economica": 1900,
      "senso": 1901,
      "nome": 1902,
      "evi": 1903,
      "given": 1904,
      "vidu": 1905,
      "obiettivo": 1906,
      "zo": 1907,
      "sottoline": 1908,
      "individu": 1909,
      "resolution": 1910,
      "sce": 1911,
      "areas": 1912,
      "lig": 1913,
      "tech": 1914,
      "vista": 1915,
      "Vorrei": 1916,
      "amb": 1917,
      "durre": 1918,
      "mondo": 1919,
      "ild": 1920,
      "ridi": 1921,
      "Signora": 1922,
      "iché": 1923,
      "dichiar": 1924,
      "stesso": 1925,
      "illion": 1926,
      "member": 1927,
      "merito": 1928,
      "possibilità": 1929,
      "Treat": 1930,
      "troppo": 1931,
      "detto": 1932,
      "dai": 1933,
      "Treaty": 1934,
      "cono": 1935,
      "importanza": 1936,
      "fam": 1937,
      "ruolo": 1938,
      "ign": 1939,
      "sur": 1940,
      "amework": 1941,
      "key": 1942,
      "effici": 1943,
      "Fin": 1944,
      "Group": 1945,
      "employment": 1946,
      "dib": 1947,
      "investi": 1948,
      "further": 1949,
      "ricer": 1950,
      "maggiore": 1951,
      "loo": 1952,
      "women": 1953,
      "adegu": 1954,
      "occas": 1955,
      "segn": 1956,
      "meet": 1957,
      "vers": 1958,
      "lei": 1959,
      "loc": 1960,
      "og": 1961,
      "ability": 1962,
      "conclu": 1963,
      "deci": 1964,
      "effica": 1965,
      "pas": 1966,
      "cus": 1967,
      "esa": 1968,
      "allow": 1969,
      "inde": 1970,
      "tuttavia": 1971,
      "conto": 1972,
      "decisione": 1973,
      "terri": 1974,
      "require": 1975,
      "obiettivi": 1976,
      "whether": 1977,
      "crisi": 1978,
      "cita": 1979,
      "amendments": 1980,
      "imprese": 1981,
      "tion": 1982,
      "zzi": 1983,
      "possono": 1984,
      "necessità": 1985,
      "thank": 1986,
      "commit": 1987,
      "attività": 1988,
      "ways": 1989,
      "again": 1990,
      "vato": 1991,
      "lit": 1992,
      "ladies": 1993,
      "Is": 1994,
      "Russia": 1995,
      "Inter": 1996,
      "favour": 1997,
      "mia": 1998,
      "possiamo": 1999,
      "procedure": 2000,
      "pot": 2001,
      "hen": 2002,
      "mere": 2003,
      "enze": 2004,
      "Questo": 2005,
      "cell": 2006,
      "vanta": 2007,
      "ggio": 2008,
      "pertanto": 2009,
      "prossi": 2010,
      "migr": 2011,
      "rità": 2012,
      "accoun": 2013,
      "expres": 2014,
      "zzo": 2015,
      "reco": 2016,
      "United": 2017,
      "quella": 2018,
      "On": 2019,
      "Members": 2020,
      "spi": 2021,
      "ishe": 2022,
      "mettere": 2023,
      "ward": 2024,
      "rifer": 2025,
      "after": 2026,
      "porre": 2027,
      "proposals": 2028,
      "For": 2029,
      "lea": 2030,
      "uc": 2031,
      "vention": 2032,
      "ft": 2033,
      "competiti": 2034,
      "vita": 2035,
      "programme": 2036,
      "Tuttavia": 2037,
      "forn": 2038,
      "ricono": 2039,
      "sources": 2040,
      "going": 2041,
      "però": 2042,
      "pay": 2043,
      "condizioni": 2044,
      "behalf": 2045,
      "ranno": 2046,
      "ances": 2047,
      "messo": 2048,
      "ling": 2049,
      "terms": 2050,
      "uni": 2051,
      "serious": 2052,
      "innov": 2053,
      "basis": 2054,
      "nuovo": 2055,
      "donne": 2056,
      "fully": 2057,
      "giuridi": 2058,
      "contra": 2059,
      "traspor": 2060,
      "anze": 2061,
      "responsabilità": 2062,
      "qui": 2063,
      "dopo": 2064,
      "trade": 2065,
      "pract": 2066,
      "done": 2067,
      "dare": 2068,
      "rebbe": 2069,
      "pover": 2070,
      "sarebbe": 2071,
      "dio": 2072,
      "next": 2073,
      "ird": 2074,
      "unt": 2075,
      "Au": 2076,
      "numero": 2077,
      "negli": 2078,
      "effor": 2079,
      "avere": 2080,
      "different": 2081,
      "grado": 2082,
      "services": 2083,
      "plan": 2084,
      "alizzazione": 2085,
      "conce": 2086,
      "rac": 2087,
      "assic": 2088,
      "questioni": 2089,
      "società": 2090,
      "effective": 2091,
      "ann": 2092,
      "lan": 2093,
      "wards": 2094,
      "appe": 2095,
      "ctions": 2096,
      "prodotti": 2097,
      "ention": 2098,
      "rules": 2099,
      "kes": 2100,
      "second": 2101,
      "crisis": 2102,
      "libertà": 2103,
      "aid": 2104,
      "isation": 2105,
      "confron": 2106,
      "norm": 2107,
      "relatore": 2108,
      "adopted": 2109,
      "quality": 2110,
      "offer": 2111,
      "hand": 2112,
      "fle": 2113,
      "framework": 2114,
      "DE": 2115,
      "har": 2116,
      "mers": 2117,
      "ister": 2118,
      "road": 2119,
      "net": 2120,
      "better": 2121,
      "precis": 2122,
      "controllo": 2123,
      "legislation": 2124,
      "dalle": 2125,
      "erà": 2126,
      "possa": 2127,
      "ona": 2128,
      "autorità": 2129,
      "regolamento": 2130,
      "low": 2131,
      "viene": 2132,
      "parteci": 2133,
      "mone": 2134,
      "soltanto": 2135,
      "pubblica": 2136,
      "mai": 2137,
      "12": 2138,
      "mostr": 2139,
      "tic": 2140,
      "unque": 2141,
      "reform": 2142,
      "norme": 2143,
      "needs": 2144,
      "attenzione": 2145,
      "wish": 2146,
      "Presidenza": 2147,
      "prendere": 2148,
      "raffor": 2149,
      "used": 2150,
      "Come": 2151,
      "grazione": 2152,
      "continue": 2153,
      "eli": 2154,
      "nostre": 2155,
      "pace": 2156,
      "sper": 2157,
      "rice": 2158,
      "pien": 2159,
      "concre": 2160,
      "strategia": 2161,
      "But": 2162,
      "15": 2163,
      "princip": 2164,
      "rischi": 2165,
      "solu": 2166,
      "event": 2167,
      "ries": 2168,
      "government": 2169,
      "emendamento": 2170,
      "What": 2171,
      "idea": 2172,
      "making": 2173,
      "aper": 2174,
      "Dob": 2175,
      "Dobbiamo": 2176,
      "Ne": 2177,
      "step": 2178,
      "sor": 2179,
      "deputati": 2180,
      "opinion": 2181,
      "vole": 2182,
      "appropri": 2183,
      "whole": 2184,
      "relazioni": 2185,
      "institutions": 2186,
      "nonché": 2187,
      "ricerca": 2188,
      "ditions": 2189,
      "progress": 2190,
      "ambiente": 2191,
      "generale": 2192,
      "Tratt": 2193,
      "itari": 2194,
      "side": 2195,
      "reedom": 2196,
      "cou": 2197,
      "ringrazi": 2198,
      "posto": 2199,
      "giun": 2200,
      "matori": 2201,
      "dibatti": 2202,
      "super": 2203,
      "voted": 2204,
      "acqu": 2205,
      "selves": 2206,
      "tute": 2207,
      "sm": 2208,
      "back": 2209,
      "aggio": 2210,
      "politici": 2211,
      "dibattito": 2212,
      "war": 2213,
      "risorse": 2214,
      "espres": 2215,
      "State": 2216,
      "gio": 2217,
      "play": 2218,
      "anz": 2219,
      "crimin": 2220,
      "ption": 2221,
      "stry": 2222,
      "sie": 2223,
      "entire": 2224,
      "qualità": 2225,
      "force": 2226,
      "ry": 2227,
      "data": 2228,
      "vious": 2229,
      "lotta": 2230,
      "2000": 2231,
      "recent": 2232,
      "ctives": 2233,
      "Li": 2234,
      "working": 2235,
      "consul": 2236,
      "bal": 2237,
      "nuovi": 2238,
      "compl": 2239,
      "job": 2240,
      "concerned": 2241,
      "agen": 2242,
      "rafforz": 2243,
      "agric": 2244,
      "agricult": 2245,
      "bus": 2246,
      "prepar": 2247,
      "interv": 2248,
      "sive": 2249,
      "rapi": 2250,
      "tamente": 2251,
      "tax": 2252,
      "principio": 2253,
      "giorno": 2254,
      "discrimin": 2255,
      "aver": 2256,
      "forward": 2257,
      "fondi": 2258,
      "vece": 2259,
      "Ar": 2260,
      "dia": 2261,
      "ung": 2262,
      "result": 2263,
      "uso": 2264,
      "capac": 2265,
      "zie": 2266,
      "improve": 2267,
      "aiuti": 2268,
      "000": 2269,
      "approach": 2270,
      "down": 2271,
      "estre": 2272,
      "discuss": 2273,
      "At": 2274,
      "ual": 2275,
      "three": 2276,
      "posti": 2277,
      "attuale": 2278,
      "peci": 2279,
      "welcome": 2280,
      "commun": 2281,
      "taking": 2282,
      "EC": 2283,
      "orient": 2284,
      "towards": 2285,
      "protezione": 2286,
      "emer": 2287,
      "attra": 2288,
      "ministr": 2289,
      "few": 2290,
      "ep": 2291,
      "free": 2292,
      "milioni": 2293,
      "vision": 2294,
      "regi": 2295,
      "ines": 2296,
      "dato": 2297,
      "amental": 2298,
      "natur": 2299,
      "guarante": 2300,
      "specif": 2301,
      "child": 2302,
      "rece": 2303,
      "11": 2304,
      "cro": 2305,
      "guard": 2306,
      "Fr": 2307,
      "something": 2308,
      "conditions": 2309,
      "gue": 2310,
      "bring": 2311,
      "gether": 2312,
      "remain": 2313,
      "rog": 2314,
      "stu": 2315,
      "tent": 2316,
      "To": 2317,
      "principle": 2318,
      "rese": 2319,
      "priv": 2320,
      "venzione": 2321,
      "iness": 2322,
      "eld": 2323,
      "consumatori": 2324,
      "ero": 2325,
      "ane": 2326,
      "colleg": 2327,
      "lev": 2328,
      "freedom": 2329,
      "regulation": 2330,
      "pris": 2331,
      "anda": 2332,
      "ttare": 2333,
      "small": 2334,
      "lic": 2335,
      "mentare": 2336,
      "uom": 2337,
      "odo": 2338,
      "ddis": 2339,
      "ulteri": 2340,
      "fort": 2341,
      "uppi": 2342,
      "oli": 2343,
      "airs": 2344,
      "atives": 2345,
      "ased": 2346,
      "resources": 2347,
      "Pol": 2348,
      "based": 2349,
      "pure": 2350,
      "gre": 2351,
      "coming": 2352,
      "venire": 2353,
      "evid": 2354,
      "assis": 2355,
      "bisogno": 2356,
      "riguardo": 2357,
      "bri": 2358,
      "parere": 2359,
      "abbia": 2360,
      "affin": 2361,
      "ana": 2362,
      "ank": 2363,
      "including": 2364,
      "Ger": 2365,
      "parlament": 2366,
      "ile": 2367,
      "desidero": 2368,
      "subject": 2369,
      "together": 2370,
      "vio": 2371,
      "pone": 2372,
      "ists": 2373,
      "democratic": 2374,
      "prat": 2375,
      "vano": 2376,
      "transport": 2377,
      "invece": 2378,
      "arri": 2379,
      "emiss": 2380,
      "difficult": 2381,
      "articolo": 2382,
      "affrontare": 2383,
      "né": 2384,
      "shall": 2385,
      "nuova": 2386,
      "ession": 2387,
      "appo": 2388,
      "minist": 2389,
      "stit": 2390,
      "proposed": 2391,
      "zionale": 2392,
      "gliamo": 2393,
      "13": 2394,
      "europee": 2395,
      "understand": 2396,
      "forme": 2397,
      "rati": 2398,
      "log": 2399,
      "pat": 2400,
      "dice": 2401,
      "poiché": 2402,
      "visione": 2403,
      "politico": 2404,
      "success": 2405,
      "progetto": 2406,
      "revole": 2407,
      "importance": 2408,
      "Presidency": 2409,
      "sape": 2410,
      "parag": 2411,
      "vig": 2412,
      "Vi": 2413,
      "opportunity": 2414,
      "establish": 2415,
      "visto": 2416,
      "soddis": 2417,
      "motivo": 2418,
      "really": 2419,
      "rec": 2420,
      "million": 2421,
      "light": 2422,
      "associ": 2423,
      "move": 2424,
      "third": 2425,
      "post": 2426,
      "authorities": 2427,
      "ordine": 2428,
      "interes": 2429,
      "afferm": 2430,
      "provide": 2431,
      "affinché": 2432,
      "Ri": 2433,
      "sue": 2434,
      "esti": 2435,
      "risposta": 2436,
      "ily": 2437,
      "icies": 2438,
      "dimostr": 2439,
      "positive": 2440,
      "Ver": 2441,
      "ltre": 2442,
      "impegno": 2443,
      "dan": 2444,
      "conten": 2445,
      "increase": 2446,
      "pesca": 2447,
      "pecially": 2448,
      "especially": 2449,
      "Bar": 2450,
      "regul": 2451,
      "policies": 2452,
      "strong": 2453,
      "obb": 2454,
      "peace": 2455,
      "sequ": 2456,
      "diversi": 2457,
      "alità": 2458,
      "rius": 2459,
      "saf": 2460,
      "Secon": 2461,
      "Trattato": 2462,
      "ricord": 2463,
      "energia": 2464,
      "note": 2465,
      "muo": 2466,
      "potrebbe": 2467,
      "arg": 2468,
      "mani": 2469,
      "fondamentale": 2470,
      "alcune": 2471,
      "regioni": 2472,
      "bur": 2473,
      "agricol": 2474,
      "funzion": 2475,
      "ave": 2476,
      "during": 2477,
      "border": 2478,
      "credo": 2479,
      "industry": 2480,
      "fied": 2481,
      "safety": 2482,
      "neg": 2483,
      "general": 2484,
      "testo": 2485,
      "aw": 2486,
      "presente": 2487,
      "account": 2488,
      "soluzione": 2489,
      "rispon": 2490,
      "desi": 2491,
      "dic": 2492,
      "activ": 2493,
      "ragione": 2494,
      "rg": 2495,
      "stain": 2496,
      "ton": 2497,
      "picco": 2498,
      "espri": 2499,
      "quo": 2500,
      "occ": 2501,
      "dati": 2502,
      "clearly": 2503,
      "essenzi": 2504,
      "nuove": 2505,
      "uta": 2506,
      "sfor": 2507,
      "Rom": 2508,
      "responsibility": 2509,
      "tar": 2510,
      "find": 2511,
      "capit": 2512,
      "ents": 2513,
      "aspetti": 2514,
      "commerci": 2515,
      "strategy": 2516,
      "applicazione": 2517,
      "term": 2518,
      "opportunità": 2519,
      "look": 2520,
      "tito": 2521,
      "suoi": 2522,
      "negotiations": 2523,
      "products": 2524,
      "greater": 2525,
      "assu": 2526,
      "itself": 2527,
      "become": 2528,
      "Uniti": 2529,
      "environmental": 2530,
      "another": 2531,
      "least": 2532,
      "power": 2533,
      "bio": 2534,
      "reng": 2535,
      "candid": 2536,
      "aro": 2537,
      "fondamentali": 2538,
      "negoziati": 2539,
      "quite": 2540,
      "approv": 2541,
      "informazioni": 2542,
      "utilizz": 2543,
      "occup": 2544,
      "porta": 2545,
      "streng": 2546,
      "convin": 2547,
      "business": 2548,
      "votato": 2549,
      "Abbiamo": 2550,
      "ped": 2551,
      "eser": 2552,
      "partner": 2553,
      "rather": 2554,
      "prospe": 2555,
      "lavoratori": 2556,
      "procedura": 2557,
      "iscono": 2558,
      "mondi": 2559,
      "Ciò": 2560,
      "ambient": 2561,
      "icip": 2562,
      "tru": 2563,
      "democrazia": 2564,
      "Assemb": 2565,
      "minor": 2566,
      "research": 2567,
      "br": 2568,
      "cru": 2569,
      "Aff": 2570,
      "confronti": 2571,
      "crescita": 2572,
      "assicur": 2573,
      "fundamental": 2574,
      "extre": 2575,
      "termine": 2576,
      "esis": 2577,
      "instru": 2578,
      "dam": 2579,
      "settori": 2580,
      "sociali": 2581,
      "They": 2582,
      "occorre": 2583,
      "show": 2584,
      "iniziativa": 2585,
      "acco": 2586,
      "speak": 2587,
      "votazione": 2588,
      "ually": 2589,
      "while": 2590,
      "sito": 2591,
      "massi": 2592,
      "saranno": 2593,
      "progressi": 2594,
      "mal": 2595,
      "interesse": 2596,
      "sieme": 2597,
      "certo": 2598,
      "grow": 2599,
      "concorren": 2600,
      "economia": 2601,
      "aim": 2602,
      "food": 2603,
      "ifica": 2604,
      "accept": 2605,
      "preced": 2606,
      "addition": 2607,
      "democracy": 2608,
      "dove": 2609,
      "ged": 2610,
      "mate": 2611,
      "collabor": 2612,
      "ically": 2613,
      "agu": 2614,
      "always": 2615,
      "sug": 2616,
      "ava": 2617,
      "regions": 2618,
      "realtà": 2619,
      "ining": 2620,
      "aware": 2621,
      "arity": 2622,
      "termini": 2623,
      "posizioni": 2624,
      "once": 2625,
      "essential": 2626,
      "risultati": 2627,
      "yo": 2628,
      "interess": 2629,
      "These": 2630,
      "attention": 2631,
      "EUR": 2632,
      "poter": 2633,
      "campo": 2634,
      "sempl": 2635,
      "mbre": 2636,
      "occasione": 2637,
      "territori": 2638,
      "esist": 2639,
      "ished": 2640,
      "iter": 2641,
      "conos": 2642,
      "piano": 2643,
      "interests": 2644,
      "fronte": 2645,
      "30": 2646,
      "regione": 2647,
      "asing": 2648,
      "arietà": 2649,
      "oso": 2650,
      "periodo": 2651,
      "economico": 2652,
      "immedi": 2653,
      "poi": 2654,
      "hold": 2655,
      "though": 2656,
      "things": 2657,
      "fight": 2658,
      "attuazione": 2659,
      "society": 2660,
      "recogn": 2661,
      "refer": 2662,
      "dispon": 2663,
      "writ": 2664,
      "implementation": 2665,
      "seguito": 2666,
      "dec": 2667,
      "genza": 2668,
      "causa": 2669,
      "incor": 2670,
      "sent": 2671,
      "fortun": 2672,
      "priorità": 2673,
      "compani": 2674,
      "trasparen": 2675,
      "ture": 2676,
      "economy": 2677,
      "ants": 2678,
      "meeting": 2679,
      "milit": 2680,
      "emp": 2681,
      "points": 2682,
      "Rit": 2683,
      "Cor": 2684,
      "tory": 2685,
      "mamente": 2686,
      "vengono": 2687,
      "pie": 2688,
      "AC": 2689,
      "allen": 2690,
      "Pri": 2691,
      "Gover": 2692,
      "ole": 2693,
      "importanti": 2694,
      "ibile": 2695,
      "insieme": 2696,
      "month": 2697,
      "cho": 2698,
      "stiamo": 2699,
      "aggiun": 2700,
      "mentre": 2701,
      "invest": 2702,
      "stabil": 2703,
      "stric": 2704,
      "def": 2705,
      "efforts": 2706,
      "Amer": 2707,
      "money": 2708,
      "ference": 2709,
      "internal": 2710,
      "giudi": 2711,
      "demand": 2712,
      "modi": 2713,
      "stitution": 2714,
      "Af": 2715,
      "rea": 2716,
      "regime": 2717,
      "ler": 2718,
      "energet": 2719,
      "accordi": 2720,
      "various": 2721,
      "EN": 2722,
      "ently": 2723,
      "prevent": 2724,
      "field": 2725,
      "educ": 2726,
      "tema": 2727,
      "stessa": 2728,
      "ridu": 2729,
      "lungo": 2730,
      "itti": 2731,
      "relation": 2732,
      "traff": 2733,
      "manage": 2734,
      "Questa": 2735,
      "ulate": 2736,
      "each": 2737,
      "alter": 2738,
      "risol": 2739,
      "cri": 2740,
      "share": 2741,
      "yet": 2742,
      "adesione": 2743,
      "fy": 2744,
      "programmi": 2745,
      "tecnolo": 2746,
      "immigr": 2747,
      "comes": 2748,
      "origin": 2749,
      "Ino": 2750,
      "alest": 2751,
      "50": 2752,
      "14": 2753,
      "indic": 2754,
      "Inoltre": 2755,
      "ania": 2756,
      "lli": 2757,
      "preve": 2758,
      "capi": 2759,
      "extreme": 2760,
      "recei": 2761,
      "gestione": 2762,
      "words": 2763,
      "contribut": 2764,
      "destin": 2765,
      "tely": 2766,
      "funds": 2767,
      "breve": 2768,
      "exist": 2769,
      "lasci": 2770,
      "setti": 2771,
      "accesso": 2772,
      "produzione": 2773,
      "propria": 2774,
      "presa": 2775,
      "Do": 2776,
      "promuo": 2777,
      "committee": 2778,
      "argom": 2779,
      "gine": 2780,
      "US": 2781,
      "eded": 2782,
      "poss": 2783,
      "tu": 2784,
      "lack": 2785,
      "ples": 2786,
      "Govern": 2787,
      "eder": 2788,
      "ster": 2789,
      "tte": 2790,
      "ritengo": 2791,
      "ched": 2792,
      "icamente": 2793,
      "mens": 2794,
      "Fon": 2795,
      "sustain": 2796,
      "CO": 2797,
      "punti": 2798,
      "balance": 2799,
      "gano": 2800,
      "He": 2801,
      "atte": 2802,
      "Cre": 2803,
      "mind": 2804,
      "lato": 2805,
      "tors": 2806,
      "mondiale": 2807,
      "concorrenza": 2808,
      "moder": 2809,
      "Amend": 2810,
      "proper": 2811,
      "membro": 2812,
      "unico": 2813,
      "efficace": 2814,
      "arci": 2815,
      "evit": 2816,
      "parliament": 2817,
      "Oc": 2818,
      "entemente": 2819,
      "ogue": 2820,
      "Isra": 2821,
      "sensi": 2822,
      "communic": 2823,
      "exten": 2824,
      "sse": 2825,
      "Gli": 2826,
      "deleg": 2827,
      "creare": 2828,
      "full": 2829,
      "involved": 2830,
      "gna": 2831,
      "feel": 2832,
      "having": 2833,
      "direct": 2834,
      "competition": 2835,
      "single": 2836,
      "transparen": 2837,
      "grandi": 2838,
      "monet": 2839,
      "alt": 2840,
      "children": 2841,
      "volte": 2842,
      "infatti": 2843,
      "divent": 2844,
      "Fund": 2845,
      "happen": 2846,
      "concerns": 2847,
      "ined": 2848,
      "workers": 2849,
      "times": 2850,
      "organis": 2851,
      "izia": 2852,
      "wee": 2853,
      "unità": 2854,
      "Affairs": 2855,
      "signora": 2856,
      "period": 2857,
      "amin": 2858,
      "challen": 2859,
      "elabor": 2860,
      "pena": 2861,
      "technolo": 2862,
      "ria": 2863,
      "growth": 2864,
      "Agen": 2865,
      "aly": 2866,
      "icol": 2867,
      "stre": 2868,
      "atamente": 2869,
      "interrog": 2870,
      "migliorare": 2871,
      "simi": 2872,
      "mess": 2873,
      "affe": 2874,
      "dimens": 2875,
      "comunitario": 2876,
      "forse": 2877,
      "salute": 2878,
      "tutela": 2879,
      "char": 2880,
      "aspetto": 2881,
      "companies": 2882,
      "lie": 2883,
      "ioned": 2884,
      "attraverso": 2885,
      "Government": 2886,
      "aut": 2887,
      "dono": 2888,
      "infra": 2889,
      "consent": 2890,
      "dagli": 2891,
      "cati": 2892,
      "alled": 2893,
      "ccio": 2894,
      "industria": 2895,
      "prov": 2896,
      "Assemblea": 2897,
      "fel": 2898,
      "informazione": 2899,
      "among": 2900,
      "competen": 2901,
      "volon": 2902,
      "quelli": 2903,
      "presidente": 2904,
      "close": 2905,
      "ringraziare": 2906,
      "rane": 2907,
      "gie": 2908,
      "programmes": 2909,
      "ences": 2910,
      "credi": 2911,
      "settiman": 2912,
      "increasing": 2913,
      "turn": 2914,
      "effet": 2915,
      "agreements": 2916,
      "enor": 2917,
      "gliore": 2918,
      "ago": 2919,
      "benefici": 2920,
      "sum": 2921,
      "ila": 2922,
      "tipo": 2923,
      "costi": 2924,
      "migliore": 2925,
      "objectives": 2926,
      "chiaro": 2927,
      "semplice": 2928,
      "altra": 2929,
      "vogliamo": 2930,
      "majority": 2931,
      "unci": 2932,
      "best": 2933,
      "quelle": 2934,
      "dialogo": 2935,
      "intervento": 2936,
      "initiative": 2937,
      "encou": 2938,
      "elimin": 2939,
      "proposito": 2940,
      "spesso": 2941,
      "Di": 2942,
      "ping": 2943,
      "voto": 2944,
      "appropriate": 2945,
      "sostenere": 2946,
      "influ": 2947,
      "facil": 2948,
      "sembra": 2949,
      "frica": 2950,
      "tutta": 2951,
      "dav": 2952,
      "fl": 2953,
      "And": 2954,
      "dou": 2955,
      "gruppi": 2956,
      "often": 2957,
      "trattato": 2958,
      "contesto": 2959,
      "mean": 2960,
      "forte": 2961,
      "interessi": 2962,
      "production": 2963,
      "raph": 2964,
      "passo": 2965,
      "uzione": 2966,
      "coinvol": 2967,
      "seem": 2968,
      "potr": 2969,
      "equili": 2970,
      "ins": 2971,
      "standards": 2972,
      "Minister": 2973,
      "Lisbona": 2974,
      "With": 2975,
      "global": 2976,
      "annu": 2977,
      "amendment": 2978,
      "commend": 2979,
      "Dire": 2980,
      "25": 2981,
      "maniera": 2982,
      "decisioni": 2983,
      "certainly": 2984,
      "casi": 2985,
      "row": 2986,
      "),": 2987,
      "Su": 2988,
      "decisions": 2989,
      "stante": 2990,
      "fatti": 2991,
      "TO": 2992,
      "jects": 2993,
      "Aula": 2994,
      "entro": 2995,
      "domanda": 2996,
      "experi": 2997,
      "resol": 2998,
      "simply": 2999,
      "scienti": 3000,
      "creazione": 3001,
      "Artic": 3002,
      "mise": 3003,
      "life": 3004,
      "risk": 3005,
      "create": 3006,
      "following": 3007,
      "Let": 3008,
      "gas": 3009,
      "Turkey": 3010,
      "availa": 3011,
      "agenda": 3012,
      "assist": 3013,
      "valutazione": 3014,
      "name": 3015,
      "realizz": 3016,
      "sottolineare": 3017,
      "agricultural": 3018,
      "presentato": 3019,
      "cohe": 3020,
      "significant": 3021,
      "strumento": 3022,
      "riforma": 3023,
      "short": 3024,
      "tele": 3025,
      "commercio": 3026,
      "rage": 3027,
      "approccio": 3028,
      "giustizia": 3029,
      "hon": 3030,
      "gui": 3031,
      "strumenti": 3032,
      "sfi": 3033,
      "utare": 3034,
      "Mon": 3035,
      "pron": 3036,
      "extremely": 3037,
      "pose": 3038,
      "ME": 3039,
      "ultimi": 3040,
      "institution": 3041,
      "Ap": 3042,
      "rus": 3043,
      "follow": 3044,
      "riun": 3045,
      "adopt": 3046,
      "relations": 3047,
      "begin": 3048,
      "irst": 3049,
      "seno": 3050,
      "pop": 3051,
      "groups": 3052,
      "Mar": 3053,
      "mentioned": 3054,
      "legislative": 3055,
      "..": 3056,
      "invi": 3057,
      "diverse": 3058,
      "rappresenta": 3059,
      "dialogue": 3060,
      "alisation": 3061,
      "Da": 3062,
      "You": 3063,
      "attere": 3064,
      "objective": 3065,
      "ES": 3066,
      "subst": 3067,
      "haps": 3068,
      "2001": 3069,
      "enlarge": 3070,
      "sabile": 3071,
      "firm": 3072,
      "posed": 3073,
      "venga": 3074,
      "altern": 3075,
      "treat": 3076,
      "prod": 3077,
      "First": 3078,
      "este": 3079,
      "bour": 3080,
      "materi": 3081,
      "tribu": 3082,
      "popolazione": 3083,
      "legislazione": 3084,
      "iscrit": 3085,
      "ick": 3086,
      "trasporto": 3087,
      "osserv": 3088,
      "avanti": 3089,
      "called": 3090,
      "cco": 3091,
      "svilup": 3092,
      "particip": 3093,
      "inn": 3094,
      "ics": 3095,
      "onostante": 3096,
      "vale": 3097,
      "context": 3098,
      "tran": 3099,
      "Gre": 3100,
      "maggioranza": 3101,
      "cra": 3102,
      "regional": 3103,
      "fair": 3104,
      "Credo": 3105,
      "ising": 3106,
      "coloro": 3107,
      "dovrebbero": 3108,
      "avuto": 3109,
      "fish": 3110,
      "responsible": 3111,
      "portare": 3112,
      "sever": 3113,
      "never": 3114,
      "qualche": 3115,
      "Africa": 3116,
      "Po": 3117,
      "strateg": 3118,
      "scambi": 3119,
      "molte": 3120,
      "assol": 3121,
      "cid": 3122,
      "razione": 3123,
      "Cour": 3124,
      "debba": 3125,
      "spa": 3126,
      "actually": 3127,
      "appre": 3128,
      "dero": 3129,
      "misura": 3130,
      "successo": 3131,
      "civil": 3132,
      "Democ": 3133,
      "might": 3134,
      "monitor": 3135,
      "promuovere": 3136,
      "comunicazione": 3137,
      "capacità": 3138,
      "Be": 3139,
      "richiesta": 3140,
      "states": 3141,
      "ghe": 3142,
      "Turchia": 3143,
      "uomo": 3144,
      "dist": 3145,
      "sett": 3146,
      "Court": 3147,
      "developing": 3148,
      "Article": 3149,
      "head": 3150,
      "possano": 3151,
      "impact": 3152,
      "cate": 3153,
      "istan": 3154,
      "progetti": 3155,
      "joint": 3156,
      "riten": 3157,
      "meglio": 3158,
      "riferimento": 3159,
      "gliere": 3160,
      "riconosci": 3161,
      "Ritengo": 3162,
      "profession": 3163,
      "struttur": 3164,
      "questions": 3165,
      "2007": 3166,
      "available": 3167,
      "assistenza": 3168,
      "enlargement": 3169,
      "viamente": 3170,
      "durante": 3171,
      "start": 3172,
      "vile": 3173,
      "svolto": 3174,
      "others": 3175,
      "test": 3176,
      "accetta": 3177,
      "modif": 3178,
      "siasi": 3179,
      "poten": 3180,
      ").": 3181,
      "confer": 3182,
      "compren": 3183,
      "jobs": 3184,
      "enter": 3185,
      "guarantee": 3186,
      "parten": 3187,
      "divers": 3188,
      "sede": 3189,
      "sus": 3190,
      "fication": 3191,
      "viso": 3192,
      "ove": 3193,
      "indeed": 3194,
      "Reg": 3195,
      "dub": 3196,
      "emphas": 3197,
      "sso": 3198,
      "protect": 3199,
      "icile": 3200,
      "apply": 3201,
      "collega": 3202,
      "frut": 3203,
      "difficile": 3204,
      "dly": 3205,
      "climate": 3206,
      "actions": 3207,
      "management": 3208,
      "disast": 3209,
      "consequ": 3210,
      "formazione": 3211,
      "results": 3212,
      "Med": 3213,
      "found": 3214,
      "stabilità": 3215,
      "All": 3216,
      "Pertanto": 3217,
      "utamente": 3218,
      "parole": 3219,
      "aumento": 3220,
      "giov": 3221,
      "rischio": 3222,
      "discu": 3223,
      "vali": 3224,
      "rifi": 3225,
      "keep": 3226,
      "currently": 3227,
      "draw": 3228,
      "Finally": 3229,
      "systems": 3230,
      "larmente": 3231,
      "dunque": 3232,
      "adottare": 3233,
      "tecn": 3234,
      "usi": 3235,
      "estremamente": 3236,
      "cchi": 3237,
      "scri": 3238,
      "concerning": 3239,
      "linea": 3240,
      "principi": 3241,
      "Desi": 3242,
      "him": 3243,
      "buto": 3244,
      "serie": 3245,
      "appi": 3246,
      "Istitu": 3247,
      "ttamente": 3248,
      "utes": 3249,
      "tice": 3250,
      "avvi": 3251,
      "impegn": 3252,
      "kind": 3253,
      "assess": 3254,
      "CE": 3255,
      "pubblico": 3256,
      "SE": 3257,
      "bamb": 3258,
      "Anche": 3259,
      "relative": 3260,
      "difficol": 3261,
      "zzazioni": 3262,
      "positivo": 3263,
      "needed": 3264,
      "raggiungere": 3265,
      "zzare": 3266,
      "significa": 3267,
      "Ira": 3268,
      "sforzi": 3269,
      "education": 3270,
      "compre": 3271,
      "iscritto": 3272,
      "plic": 3273,
      "istituzioni": 3274,
      "presentata": 3275,
      "fica": 3276,
      "ghts": 3277,
      "risultato": 3278,
      "consumers": 3279,
      "fino": 3280,
      "special": 3281,
      "gore": 3282,
      "criteri": 3283,
      "1999": 3284,
      "evitare": 3285,
      "ably": 3286,
      "Iraq": 3287,
      "raccom": 3288,
      "indipend": 3289,
      "accep": 3290,
      "ottenere": 3291,
      "cili": 3292,
      "sov": 3293,
      "difficoltà": 3294,
      "appli": 3295,
      "seconda": 3296,
      "Nor": 3297,
      "trovare": 3298,
      "getto": 3299,
      "conti": 3300,
      "integrazione": 3301,
      "prospetti": 3302,
      "glia": 3303,
      "concentr": 3304,
      "cases": 3305,
      "pari": 3306,
      "doing": 3307,
      "ffice": 3308,
      "pan": 3309,
      "2006": 3310,
      "sistemi": 3311,
      "qualsiasi": 3312,
      "themselves": 3313,
      "cuna": 3314,
      "guer": 3315,
      "months": 3316,
      "confi": 3317,
      "ties": 3318,
      "2004": 3319,
      "administr": 3320,
      "comunque": 3321,
      "esprimere": 3322,
      "essenziale": 3323,
      "German": 3324,
      "detta": 3325,
      "members": 3326,
      "riduzione": 3327,
      "zionali": 3328,
      "armi": 3329,
      "knowled": 3330,
      "vu": 3331,
      "writing": 3332,
      "conflic": 3333,
      "seguire": 3334,
      "ported": 3335,
      "fortunately": 3336,
      "En": 3337,
      "acceptable": 3338,
      "inc": 3339,
      "Corte": 3340,
      "internazionali": 3341,
      "carri": 3342,
      "Chi": 3343,
      "voli": 3344,
      "assolutamente": 3345,
      "ricor": 3346,
      "riti": 3347,
      "matters": 3348,
      "zone": 3349,
      "lay": 3350,
      "costru": 3351,
      "recommend": 3352,
      "considerazione": 3353,
      "davvero": 3354,
      "contain": 3355,
      "Koso": 3356,
      "principles": 3357,
      "Infine": 3358,
      "onia": 3359,
      "ardi": 3360,
      "ende": 3361,
      "prob": 3362,
      "venti": 3363,
      "tle": 3364,
      "urale": 3365,
      "Office": 3366,
      "otti": 3367,
      "Bal": 3368,
      "globale": 3369,
      "Democrat": 3370,
      "mesi": 3371,
      "reasons": 3372,
      "chiaramente": 3373,
      "Social": 3374,
      "media": 3375,
      "task": 3376,
      "conseguenze": 3377,
      "request": 3378,
      "trasparenza": 3379,
      "fail": 3380,
      "My": 3381,
      "opinione": 3382,
      "asy": 3383,
      "Ac": 3384,
      "rable": 3385,
      "2002": 3386,
      "pared": 3387,
      "posso": 3388,
      "atura": 3389,
      "enough": 3390,
      "dition": 3391,
      "stanno": 3392,
      "solidarietà": 3393,
      "excell": 3394,
      "buon": 3395,
      "rif": 3396,
      "asse": 3397,
      "interpre": 3398,
      "Lo": 3399,
      "contributo": 3400,
      "ficare": 3401,
      "compromise": 3402,
      "local": 3403,
      "UN": 3404,
      "compromesso": 3405,
      "Desidero": 3406,
      "veness": 3407,
      "resto": 3408,
      "valori": 3409,
      "pressione": 3410,
      "sugli": 3411,
      "ph": 3412,
      "Gi": 3413,
      "zed": 3414,
      "ground": 3415,
      "demon": 3416,
      "regards": 3417,
      "giuridica": 3418,
      "isti": 3419,
      "conflit": 3420,
      "aus": 3421,
      "individual": 3422,
      "vedere": 3423,
      "economici": 3424,
      "nucle": 3425,
      "obbli": 3426,
      "projects": 3427,
      "Kosovo": 3428,
      "itato": 3429,
      "reports": 3430,
      "attualmente": 3431,
      "dovremmo": 3432,
      "istruzione": 3433,
      "aug": 3434,
      "resì": 3435,
      "scel": 3436,
      "include": 3437,
      "acc": 3438,
      "costs": 3439,
      "altresì": 3440,
      "ody": 3441,
      "parties": 3442,
      "potenzi": 3443,
      "lett": 3444,
      "longer": 3445,
      "scorso": 3446,
      "Ser": 3447,
      "atrice": 3448,
      "18": 3449,
      "ram": 3450,
      "funding": 3451,
      "reli": 3452,
      "poste": 3453,
      "express": 3454,
      "gree": 3455,
      "emb": 3456,
      "rendere": 3457,
      "atis": 3458,
      "gg": 3459,
      "buil": 3460,
      "appiamo": 3461,
      "mercati": 3462,
      "ulla": 3463,
      "maintain": 3464,
      "cere": 3465,
      "agricoltura": 3466,
      "ought": 3467,
      "revoli": 3468,
      "iniziative": 3469,
      "governi": 3470,
      "achieved": 3471,
      "address": 3472,
      "mult": 3473,
      "investimenti": 3474,
      "porti": 3475,
      "riguard": 3476,
      "threat": 3477,
      "veni": 3478,
      "active": 3479,
      "theless": 3480,
      "East": 3481,
      "finanziaria": 3482,
      "Comunità": 3483,
      "past": 3484,
      "2009": 3485,
      "activities": 3486,
      "Mediter": 3487,
      "sit": 3488,
      "priority": 3489,
      "Mediterrane": 3490,
      "safe": 3491,
      "sustainable": 3492,
      "oblig": 3493,
      "independ": 3494,
      "ridurre": 3495,
      "dichiarazione": 3496,
      "ages": 3497,
      "Sw": 3498,
      "assa": 3499,
      "riman": 3500,
      "ings": 3501,
      "atory": 3502,
      "bel": 3503,
      "Convention": 3504,
      "moment": 3505,
      "expect": 3506,
      "conferen": 3507,
      "ultimo": 3508,
      "constru": 3509,
      "ccan": 3510,
      "she": 3511,
      "paragra": 3512,
      "tenuto": 3513,
      "commitment": 3514,
      "fidu": 3515,
      "II": 3516,
      "press": 3517,
      "although": 3518,
      "true": 3519,
      "grazie": 3520,
      "disposizioni": 3521,
      "depend": 3522,
      "dovrà": 3523,
      "2003": 3524,
      "broad": 3525,
      "changes": 3526,
      "centrale": 3527,
      "eng": 3528,
      "seen": 3529,
      "poli": 3530,
      "little": 3531,
      "ming": 3532,
      "comunità": 3533,
      "promote": 3534,
      "cano": 3535,
      "agi": 3536,
      "dese": 3537,
      "ath": 3538,
      "conseguenza": 3539,
      "giovani": 3540,
      "ista": 3541,
      "governments": 3542,
      "draft": 3543,
      "esclu": 3544,
      "precise": 3545,
      "benefit": 3546,
      "labour": 3547,
      "PE": 3548,
      "integration": 3549,
      "porto": 3550,
      "fronti": 3551,
      "avviso": 3552,
      "congratulate": 3553,
      "bambini": 3554,
      "incid": 3555,
      "riser": 3556,
      "rivol": 3557,
      "identi": 3558,
      "wers": 3559,
      "doub": 3560,
      "Amendment": 3561,
      "minim": 3562,
      "provided": 3563,
      "ef": 3564,
      "excellent": 3565,
      "finanziari": 3566,
      "circa": 3567,
      "pia": 3568,
      "affari": 3569,
      "deta": 3570,
      "nothing": 3571,
      "trasporti": 3572,
      "markets": 3573,
      "FR": 3574,
      "fornire": 3575,
      "coes": 3576,
      "terà": 3577,
      "17": 3578,
      "sk": 3579,
      "Rights": 3580,
      "Am": 3581,
      "continuare": 3582,
      "fil": 3583,
      "condu": 3584,
      "perhaps": 3585,
      "scopo": 3586,
      "techn": 3587,
      "structure": 3588,
      "inizio": 3589,
      "finanziario": 3590,
      "coesione": 3591,
      "vigore": 3592,
      "ttr": 3593,
      "secu": 3594,
      "2005": 3595,
      "ampli": 3596,
      "bito": 3597,
      "visions": 3598,
      "raccomand": 3599,
      "effect": 3600,
      "terzi": 3601,
      "cies": 3602,
      "nuclear": 3603,
      "regarding": 3604,
      "sostenibile": 3605,
      "2010": 3606,
      "reach": 3607,
      "proprie": 3608,
      "grave": 3609,
      "separ": 3610,
      "young": 3611,
      "Pe": 3612,
      "pericolo": 3613,
      "final": 3614,
      "Car": 3615,
      "2008": 3616,
      "ternal": 3617,
      "fase": 3618,
      "hear": 3619,
      "lari": 3620,
      "isco": 3621,
      "affermato": 3622,
      "stud": 3623,
      "foreign": 3624,
      "particolarmente": 3625,
      "migrazione": 3626,
      "date": 3627,
      "elezioni": 3628,
      "solidarity": 3629,
      "16": 3630,
      "eco": 3631,
      "compito": 3632,
      "carica": 3633,
      "meto": 3634,
      "impatto": 3635,
      "agreed": 3636,
      "deri": 3637,
      "face": 3638,
      "terrorismo": 3639,
      "itions": 3640,
      "condivi": 3641,
      "aere": 3642,
      "xi": 3643,
      "chiedere": 3644,
      "old": 3645,
      "alcuna": 3646,
      "ultima": 3647,
      "allarg": 3648,
      "Convenzione": 3649,
      "ringrazio": 3650,
      "previous": 3651,
      "above": 3652,
      "Siamo": 3653,
      "aspects": 3654,
      "makes": 3655,
      "fosse": 3656,
      "rapid": 3657,
      "une": 3658,
      "fiducia": 3659,
      "ators": 3660,
      "meccan": 3661,
      "sì": 3662,
      "verific": 3663,
      "domani": 3664,
      "rire": 3665,
      "Sch": 3666,
      "strada": 3667,
      "suff": 3668,
      "Brit": 3669,
      "prossimo": 3670,
      "Pa": 3671,
      "item": 3672,
      "poco": 3673,
      "avo": 3674,
      "azi": 3675,
      "volontà": 3676,
      "transparency": 3677,
      "genere": 3678,
      "fisc": 3679,
      "Directive": 3680,
      "meth": 3681,
      "assicurare": 3682,
      "organizzazioni": 3683,
      "Ono": 3684,
      "focus": 3685,
      "partecipa": 3686,
      "mezzi": 3687,
      "ie": 3688,
      "ilater": 3689,
      "strutture": 3690,
      "tempor": 3691,
      "project": 3692,
      "documento": 3693,
      "tell": 3694,
      "usa": 3695,
      "intende": 3696,
      "irà": 3697,
      "cambiamento": 3698,
      "necessari": 3699,
      "four": 3700,
      "consumer": 3701,
      "mare": 3702,
      "inser": 3703,
      "several": 3704,
      "accession": 3705,
      "paro": 3706,
      "soon": 3707,
      "body": 3708,
      "absolu": 3709,
      "bit": 3710,
      "link": 3711,
      "ambientale": 3712,
      "ricordare": 3713,
      "upon": 3714,
      "population": 3715,
      "issi": 3716,
      "model": 3717,
      "principali": 3718,
      "Our": 3719,
      "esperi": 3720,
      "isten": 3721,
      "dum": 3722,
      "regolament": 3723,
      "ging": 3724,
      "regole": 3725,
      "unica": 3726,
      "relatrice": 3727,
      "piccole": 3728,
      "esiste": 3729,
      "guerra": 3730,
      "terrorism": 3731,
      "ugu": 3732,
      "colo": 3733,
      "dito": 3734,
      "incoraggi": 3735,
      "tocol": 3736,
      "pack": 3737,
      "conne": 3738,
      "hard": 3739,
      "star": 3740,
      "critic": 3741,
      "restric": 3742,
      "uttosto": 3743,
      "terzo": 3744,
      "response": 3745,
      "acquis": 3746,
      "fal": 3747,
      "consi": 3748,
      "perman": 3749,
      "potere": 3750,
      "afferma": 3751,
      "contribution": 3752,
      "Nazioni": 3753,
      "presentare": 3754,
      "appear": 3755,
      "famili": 3756,
      "uine": 3757,
      "eletto": 3758,
      "answer": 3759,
      "parlamentari": 3760,
      "tari": 3761,
      "morrow": 3762,
      "tomorrow": 3763,
      "prezzi": 3764,
      "coeren": 3765,
      "agues": 3766,
      "parlare": 3767,
      "communication": 3768,
      "experience": 3769,
      "serve": 3770,
      "technical": 3771,
      "voting": 3772,
      "tiamo": 3773,
      "cose": 3774,
      "cks": 3775,
      "using": 3776,
      "finanziamento": 3777,
      "Una": 3778,
      "Tra": 3779,
      "chiare": 3780,
      "private": 3781,
      "ON": 3782,
      "vazioni": 3783,
      "satis": 3784,
      "parla": 3785,
      "abb": 3786,
      "personale": 3787,
      "piuttosto": 3788,
      "Itali": 3789,
      "values": 3790,
      "lear": 3791,
      "water": 3792,
      "stro": 3793,
      "practice": 3794,
      "discussion": 3795,
      "cata": 3796,
      "dri": 3797,
      "paragrafo": 3798,
      "riusci": 3799,
      "usto": 3800,
      "ibili": 3801,
      "40": 3802,
      "appena": 3803,
      "confid": 3804,
      "disposizione": 3805,
      "parlamentare": 3806,
      "bar": 3807,
      "Unite": 3808,
      "argomento": 3809,
      "mili": 3810,
      "Therefore": 3811,
      "27": 3812,
      "Secondly": 3813,
      "climat": 3814,
      "parola": 3815,
      "dipend": 3816,
      "existing": 3817,
      "ovviamente": 3818,
      "intra": 3819,
      "held": 3820,
      "deli": 3821,
      "gente": 3822,
      "presenti": 3823,
      "contrario": 3824,
      "formu": 3825,
      "legge": 3826,
      "sfrut": 3827,
      "adozione": 3828,
      "ever": 3829,
      "seems": 3830,
      "acche": 3831,
      "criteria": 3832,
      "ern": 3833,
      "costituisce": 3834,
      "concrete": 3835,
      "knowledge": 3836,
      "gned": 3837,
      "ferenza": 3838,
      "rafforzare": 3839,
      "concili": 3840,
      "China": 3841,
      "provisions": 3842,
      "bra": 3843,
      "stead": 3844,
      "service": 3845,
      "One": 3846,
      "review": 3847,
      "dimost": 3848,
      "aiuto": 3849,
      "mut": 3850,
      "finanziarie": 3851,
      "condo": 3852,
      "esamin": 3853,
      "procedures": 3854,
      "week": 3855,
      "pleased": 3856,
      "regionale": 3857,
      "colleagues": 3858,
      "mini": 3859,
      "repe": 3860,
      "Tale": 3861,
      "avrebbe": 3862,
      "standard": 3863,
      "cut": 3864,
      "bro": 3865,
      "forza": 3866,
      "investment": 3867,
      "elections": 3868,
      "Internet": 3869,
      "ensu": 3870,
      "tions": 3871,
      "exce": 3872,
      "proposto": 3873,
      "scrit": 3874,
      "Romania": 3875,
      "partecipazione": 3876,
      "cultural": 3877,
      "buona": 3878,
      "consolid": 3879,
      "necessaria": 3880,
      "rispondere": 3881,
      "network": 3882,
      "stress": 3883,
      "either": 3884,
      "Istituzioni": 3885,
      "Palest": 3886,
      "Deve": 3887,
      "stessi": 3888,
      "difesa": 3889,
      "stability": 3890,
      "mechan": 3891,
      "ulg": 3892,
      "sche": 3893,
      "circo": 3894,
      "refle": 3895,
      "compar": 3896,
      "Gree": 3897,
      "certa": 3898,
      "collaborazione": 3899,
      "inqu": 3900,
      "provve": 3901,
      "vittime": 3902,
      "requis": 3903,
      "cum": 3904,
      "gies": 3905,
      "rate": 3906,
      "violence": 3907,
      "tazioni": 3908,
      "pubblici": 3909,
      "method": 3910,
      "sense": 3911,
      "obvious": 3912,
      "temi": 3913,
      "creation": 3914,
      "aged": 3915,
      "strutturali": 3916,
      "status": 3917,
      "luce": 3918,
      "victi": 3919,
      "plen": 3920,
      "fini": 3921,
      "comuni": 3922,
      "”.": 3923,
      "assistance": 3924,
      "necessarie": 3925,
      "quasi": 3926,
      "ourselves": 3927,
      "odi": 3928,
      "definiti": 3929,
      "ambiti": 3930,
      "America": 3931,
      "unanim": 3932,
      "izione": 3933,
      "revisione": 3934,
      "economiche": 3935,
      "vengano": 3936,
      "tempt": 3937,
      "poverty": 3938,
      "until": 3939,
      "dem": 3940,
      "tabled": 3941,
      "stanzi": 3942,
      "avanz": 3943,
      "isca": 3944,
      "quick": 3945,
      "fondo": 3946,
      "abbi": 3947,
      "stage": 3948,
      "document": 3949,
      "tivo": 3950,
      "crucial": 3951,
      "chen": 3952,
      "figu": 3953,
      "ters": 3954,
      "military": 3955,
      "Ban": 3956,
      "povertà": 3957,
      "naturalmente": 3958,
      "allora": 3959,
      "chiari": 3960,
      "infor": 3961,
      "regulations": 3962,
      "enable": 3963,
      "relativa": 3964,
      "conver": 3965,
      "acro": 3966,
      "advanta": 3967,
      "citare": 3968,
      "tes": 3969,
      "everyone": 3970,
      "prevede": 3971,
      "cohesion": 3972,
      "carried": 3973,
      "mantenere": 3974,
      "mette": 3975,
      "wide": 3976,
      "gl": 3977,
      "hu": 3978,
      "rig": 3979,
      "leader": 3980,
      "talk": 3981,
      "ches": 3982,
      "manif": 3983,
      "valore": 3984,
      "training": 3985,
      "civile": 3986,
      "basic": 3987,
      "settimana": 3988,
      "esame": 3989,
      "ourable": 3990,
      "traffic": 3991,
      "glie": 3992,
      "equal": 3993,
      "dered": 3994,
      "saying": 3995,
      "bad": 3996,
      "ripe": 3997,
      "ficazione": 3998,
      "indis": 3999,
      "mention": 4000,
      "asked": 4001,
      "comunitaria": 4002,
      "compli": 4003,
      "fishing": 4004,
      "fall": 4005,
      "Minist": 4006,
      "favorevole": 4007,
      "organisations": 4008,
      "lines": 4009,
      "consequences": 4010,
      "preoccupa": 4011,
      "assun": 4012,
      "range": 4013,
      "istiche": 4014,
      "quant": 4015,
      "armoni": 4016,
      "violenza": 4017,
      "icoli": 4018,
      "sedu": 4019,
      "accol": 4020,
      "passato": 4021,
      "referen": 4022,
      "auguro": 4023,
      "dovuto": 4024,
      "emissioni": 4025,
      "conta": 4026,
      "Wor": 4027,
      "volu": 4028,
      "animali": 4029,
      "uale": 4030,
      "respe": 4031,
      "risolvere": 4032,
      "farmers": 4033,
      "previs": 4034,
      "spee": 4035,
      "increased": 4036,
      "application": 4037,
      "provo": 4038,
      "osta": 4039,
      "servizio": 4040,
      "categ": 4041,
      "total": 4042,
      "toria": 4043,
      "contribuire": 4044,
      "aliment": 4045,
      "statement": 4046,
      "danger": 4047,
      "elementi": 4048,
      "relating": 4049,
      "value": 4050,
      "reduce": 4051,
      "Occorre": 4052,
      "rile": 4053,
      "Ir": 4054,
      "gravi": 4055,
      "spite": 4056,
      "direzione": 4057,
      "rin": 4058,
      "namely": 4059,
      "wan": 4060,
      "appoggi": 4061,
      "conserv": 4062,
      "cident": 4063,
      "ague": 4064,
      "abilmente": 4065,
      "rule": 4066,
      "pero": 4067,
      "carry": 4068,
      "everything": 4069,
      "dise": 4070,
      "requirements": 4071,
      "ossia": 4072,
      "resso": 4073,
      "ancing": 4074,
      "conclusione": 4075,
      "along": 4076,
      "garanzi": 4077,
      "pieno": 4078,
      "commerciali": 4079,
      "ports": 4080,
      "genze": 4081,
      "potrà": 4082,
      "solle": 4083,
      "target": 4084,
      "gal": 4085,
      "alimentare": 4086,
      "scar": 4087,
      "required": 4088,
      "immigrazione": 4089,
      "diment": 4090,
      "institutional": 4091,
      "motivi": 4092,
      "eccell": 4093,
      "tation": 4094,
      "erano": 4095,
      "opportuno": 4096,
      "instruments": 4097,
      "svolgere": 4098,
      "ecce": 4099,
      "urgent": 4100,
      "oggetto": 4101,
      "preso": 4102,
      "normativa": 4103,
      "parità": 4104,
      "ending": 4105,
      "presented": 4106,
      "provvedi": 4107,
      "Ber": 4108,
      "civ": 4109,
      "flessi": 4110,
      "Cina": 4111,
      "ala": 4112,
      "Fondo": 4113,
      "itarian": 4114,
      "sufficiente": 4115,
      "closed": 4116,
      "produtto": 4117,
      "reci": 4118,
      "opportunities": 4119,
      "Just": 4120,
      "dendo": 4121,
      "langu": 4122,
      "justice": 4123,
      "Vo": 4124,
      "thus": 4125,
      "subsi": 4126,
      "almeno": 4127,
      "deciso": 4128,
      "pacche": 4129,
      "mancan": 4130,
      "alisi": 4131,
      "gimento": 4132,
      "throughout": 4133,
      "inted": 4134,
      "takes": 4135,
      "PL": 4136,
      "ju": 4137,
      "adequ": 4138,
      "Can": 4139,
      "run": 4140,
      "When": 4141,
      "bbene": 4142,
      "flexi": 4143,
      "popolo": 4144,
      "ada": 4145,
      "regre": 4146,
      "die": 4147,
      "accettabile": 4148,
      "competenze": 4149,
      "Thank": 4150,
      "suggest": 4151,
      "coordinamento": 4152,
      "stop": 4153,
      "ners": 4154,
      "attri": 4155,
      "scor": 4156,
      "nulla": 4157,
      "building": 4158,
      "2020": 4159,
      "scambio": 4160,
      "equilibri": 4161,
      "nature": 4162,
      "prepared": 4163,
      "avre": 4164,
      "discutere": 4165,
      "bano": 4166,
      "olog": 4167,
      "ausp": 4168,
      "sterdam": 4169,
      "Amsterdam": 4170,
      "impie": 4171,
      "five": 4172,
      "agire": 4173,
      "pension": 4174,
      "pratica": 4175,
      "analy": 4176,
      "raggiunto": 4177,
      "PPE": 4178,
      "pagna": 4179,
      "riforme": 4180,
      "consum": 4181,
      "Bel": 4182,
      "instrument": 4183,
      "Aust": 4184,
      "Conferenza": 4185,
      "doubt": 4186,
      "priorities": 4187,
      "compens": 4188,
      "ghbour": 4189,
      "sero": 4190,
      "univers": 4191,
      "potrebbero": 4192,
      "distribu": 4193,
      "initiatives": 4194,
      "introduzione": 4195,
      "sud": 4196,
      "Pos": 4197,
      "ctr": 4198,
      "fami": 4199,
      "NA": 4200,
      "pienamente": 4201,
      "Party": 4202,
      "budgetary": 4203,
      "Barro": 4204,
      "around": 4205,
      "'.": 4206,
      "landa": 4207,
      "elettr": 4208,
      "istic": 4209,
      "spazio": 4210,
      "community": 4211,
      "avoid": 4212,
      "rare": 4213,
      "partenari": 4214,
      "decided": 4215,
      "facilit": 4216,
      "compag": 4217,
      "attribu": 4218,
      "contempo": 4219,
      "invit": 4220,
      "Mol": 4221,
      "itutto": 4222,
      "Pur": 4223,
      "analisi": 4224,
      "illegal": 4225,
      "sens": 4226,
      "chiesto": 4227,
      "civili": 4228,
      "amount": 4229,
      "conflict": 4230,
      "vuole": 4231,
      "Appla": 4232,
      "autori": 4233,
      "ons": 4234,
      "Gra": 4235,
      "miei": 4236,
      "amer": 4237,
      "external": 4238,
      "anu": 4239,
      "conosc": 4240,
      "Ad": 4241,
      "mitted": 4242,
      "mancanza": 4243,
      "big": 4244,
      "visi": 4245,
      "Schen": 4246,
      "adottato": 4247,
      "powers": 4248,
      "Schengen": 4249,
      "offici": 4250,
      "dubbio": 4251,
      "waste": 4252,
      "relev": 4253,
      "encourage": 4254,
      "Constitution": 4255,
      "across": 4256,
      "motion": 4257,
      "definizione": 4258,
      "allargamento": 4259,
      "din": 4260,
      "fishe": 4261,
      "effettu": 4262,
      "established": 4263,
      "reached": 4264,
      "pressure": 4265,
      "consist": 4266,
      "movement": 4267,
      "utile": 4268,
      "Regno": 4269,
      "rench": 4270,
      "attro": 4271,
      "package": 4272,
      "expressed": 4273,
      "osser": 4274,
      "elemento": 4275,
      "comport": 4276,
      "rought": 4277,
      "strengthe": 4278,
      "fri": 4279,
      "incenti": 4280,
      "potential": 4281,
      "Col": 4282,
      "atter": 4283,
      "monitoring": 4284,
      "frances": 4285,
      "demonstr": 4286,
      "pubblic": 4287,
      "crime": 4288,
      "More": 4289,
      "Iran": 4290,
      "lant": 4291,
      "mano": 4292,
      "cultura": 4293,
      "Vertice": 4294,
      "French": 4295,
      "implemented": 4296,
      "Pen": 4297,
      "consape": 4298,
      "Org": 4299,
      "discrimination": 4300,
      "pacchetto": 4301,
      "lingu": 4302,
      "preoccupazione": 4303,
      "bly": 4304,
      "raised": 4305,
      "Oggi": 4306,
      "viamo": 4307,
      "reading": 4308,
      "levels": 4309,
      "farlo": 4310,
      "talking": 4311,
      "mandato": 4312,
      "bens": 4313,
      "onom": 4314,
      "iono": 4315,
      "bensì": 4316,
      "attempt": 4317,
      "partnership": 4318,
      "fisheries": 4319,
      "quattro": 4320,
      "purtroppo": 4321,
      "riconosce": 4322,
      "principale": 4323,
      "vital": 4324,
      "conclusion": 4325,
      "miglioramento": 4326,
      "effort": 4327,
      "vantaggio": 4328,
      "tendo": 4329,
      "plom": 4330,
      "maggiori": 4331,
      "alternative": 4332,
      "origine": 4333,
      "medium": 4334,
      "tram": 4335,
      "Bulg": 4336,
      "spie": 4337,
      "Slo": 4338,
      "espresso": 4339,
      "divi": 4340,
      "direction": 4341,
      "chiedo": 4342,
      "death": 4343,
      "uffici": 4344,
      "semplicemente": 4345,
      "eserci": 4346,
      "gare": 4347,
      "migliori": 4348,
      "torn": 4349,
      "list": 4350,
      "spo": 4351,
      "involve": 4352,
      "genuine": 4353,
      "accettare": 4354,
      "minac": 4355,
      "correct": 4356,
      "recente": 4357,
      "pil": 4358,
      "letter": 4359,
      "lettura": 4360,
      "challenges": 4361,
      "included": 4362,
      "aia": 4363,
      "reti": 4364,
      "vantaggi": 4365,
      "tradi": 4366,
      "wise": 4367,
      "giusto": 4368,
      "ascol": 4369,
      "Ru": 4370,
      "gerà": 4371,
      "costo": 4372,
      "prefer": 4373,
      "anch": 4374,
      "whose": 4375,
      "ses": 4376,
      "partners": 4377,
      "brit": 4378,
      "organizz": 4379,
      "victims": 4380,
      "Develop": 4381,
      "diplom": 4382,
      "natura": 4383,
      "britann": 4384,
      "fellow": 4385,
      "Irel": 4386,
      "quickly": 4387,
      "harmon": 4388,
      "Ireland": 4389,
      "billion": 4390,
      "ovvero": 4391,
      "lum": 4392,
      "according": 4393,
      "concludere": 4394,
      "aking": 4395,
      "produttori": 4396,
      "Further": 4397,
      "sette": 4398,
      "tempi": 4399,
      "giving": 4400,
      "potuto": 4401,
      "nonostante": 4402,
      "bilater": 4403,
      "ost": 4404,
      "Unito": 4405,
      "France": 4406,
      "effects": 4407,
      "flo": 4408,
      "borders": 4409,
      "nom": 4410,
      "uri": 4411,
      "amministr": 4412,
      "certi": 4413,
      "rispett": 4414,
      "energetica": 4415,
      "intervenire": 4416,
      "absolutely": 4417,
      "culture": 4418,
      "immigration": 4419,
      "Nella": 4420,
      "mobil": 4421,
      "competitività": 4422,
      "OM": 4423,
      "May": 4424,
      "sectors": 4425,
      "anzitutto": 4426,
      "successi": 4427,
      "equilibrio": 4428,
      "consenso": 4429,
      "reduction": 4430,
      "istica": 4431,
      "impegni": 4432,
      "democratico": 4433,
      "votare": 4434,
      "rappresentanti": 4435,
      "recently": 4436,
      "seduta": 4437,
      "spese": 4438,
      "entito": 4439,
      "reca": 4440,
      "bear": 4441,
      "enterpris": 4442,
      "nello": 4443,
      "interrogazione": 4444,
      "took": 4445,
      "dign": 4446,
      "stituzione": 4447,
      "dimostrato": 4448,
      "americ": 4449,
      "exer": 4450,
      "bilities": 4451,
      "lavorare": 4452,
      "ously": 4453,
      "Noi": 4454,
      "alto": 4455,
      "extra": 4456,
      "itaria": 4457,
      "supported": 4458,
      "cel": 4459,
      "cioè": 4460,
      "garant": 4461,
      "sufficient": 4462,
      "modello": 4463,
      "usu": 4464,
      "registr": 4465,
      "abbiano": 4466,
      "strengthen": 4467,
      "aveva": 4468,
      "ricev": 4469,
      "thanks": 4470,
      "80": 4471,
      "concerne": 4472,
      "infine": 4473,
      "Repubblica": 4474,
      "presidency": 4475,
      "ory": 4476,
      "ACP": 4477,
      "rup": 4478,
      "outside": 4479,
      "reality": 4480,
      "sla": 4481,
      "ident": 4482,
      "cinque": 4483,
      "decisi": 4484,
      "sappiamo": 4485,
      "evidente": 4486,
      "ight": 4487,
      "agriculture": 4488,
      "alleg": 4489,
      "candidati": 4490,
      "venuto": 4491,
      "prova": 4492,
      "ulteriore": 4493,
      "miliardi": 4494,
      "veramente": 4495,
      "renew": 4496,
      "verrà": 4497,
      "operation": 4498,
      "Conference": 4499,
      "completely": 4500,
      "Development": 4501,
      "sfide": 4502,
      "content": 4503,
      "piace": 4504,
      "verb": 4505,
      "tive": 4506,
      "Port": 4507,
      "hind": 4508,
      "py": 4509,
      "governance": 4510,
      "rispettare": 4511,
      "esecu": 4512,
      "cambiamenti": 4513,
      "Ge": 4514,
      "cat": 4515,
      "arlo": 4516,
      "libera": 4517,
      "lling": 4518,
      "explo": 4519,
      "tin": 4520,
      "brought": 4521,
      "Swed": 4522,
      "stare": 4523,
      "price": 4524,
      "six": 4525,
      "relevant": 4526,
      "neighbour": 4527,
      "recipro": 4528,
      "evo": 4529,
      "ancia": 4530,
      "autonom": 4531,
      "agricola": 4532,
      "Chris": 4533,
      "aree": 4534,
      "vera": 4535,
      "ied": 4536,
      "days": 4537,
      "trasfer": 4538,
      "accord": 4539,
      "obblig": 4540,
      "ature": 4541,
      "usione": 4542,
      "structural": 4543,
      "innanzi": 4544,
      "reforms": 4545,
      "quote": 4546,
      "businesses": 4547,
      "emissions": 4548,
      "aument": 4549,
      "additional": 4550,
      "partenariato": 4551,
      "fici": 4552,
      "possibility": 4553,
      "left": 4554,
      "disoccupazione": 4555,
      "develo": 4556,
      "tezza": 4557,
      "sei": 4558,
      "dici": 4559,
      "aumentare": 4560,
      "responsabile": 4561,
      "missione": 4562,
      "technology": 4563,
      "alised": 4564,
      "asso": 4565,
      "son": 4566,
      "Mediterranean": 4567,
      "treatment": 4568,
      "chiede": 4569,
      "cover": 4570,
      "salv": 4571,
      "dut": 4572,
      "finally": 4573,
      "ppure": 4574,
      "procedere": 4575,
      "adesso": 4576,
      "Dece": 4577,
      "equi": 4578,
      "sapere": 4579,
      "pul": 4580,
      "extent": 4581,
      "December": 4582,
      "oni": 4583,
      "promozione": 4584,
      "rug": 4585,
      "succe": 4586,
      "definire": 4587,
      "developed": 4588,
      "Ministro": 4589,
      "attuali": 4590,
      "cross": 4591,
      "applied": 4592,
      "Sou": 4593,
      "delines": 4594,
      "Sin": 4595,
      "enh": 4596,
      "ys": 4597,
      "relativi": 4598,
      "ulteriori": 4599,
      "Irlanda": 4600,
      "ormai": 4601,
      "illeg": 4602,
      "vac": 4603,
      "capital": 4604,
      "voi": 4605,
      "lim": 4606,
      "heard": 4607,
      "summit": 4608,
      "controlli": 4609,
      "parliamentary": 4610,
      "mic": 4611,
      "ferro": 4612,
      "coordination": 4613,
      "uring": 4614,
      "unemployment": 4615,
      "lot": 4616,
      "richie": 4617,
      "livelli": 4618,
      "prices": 4619,
      "Barroso": 4620,
      "dicembre": 4621,
      "21": 4622,
      "cipl": 4623,
      "enni": 4624,
      "manten": 4625,
      "60": 4626,
      "sola": 4627,
      "received": 4628,
      "Republic": 4629,
      "Ni": 4630,
      "realizzare": 4631,
      "confidence": 4632,
      "away": 4633,
      "sitting": 4634,
      "approved": 4635,
      "osservazioni": 4636,
      "else": 4637,
      "tot": 4638,
      "representatives": 4639,
      "creating": 4640,
      "effettivamente": 4641,
      "orto": 4642,
      "forze": 4643,
      "spre": 4644,
      "ensuring": 4645,
      "almost": 4646,
      "descri": 4647,
      "discipl": 4648,
      "locali": 4649,
      "1998": 4650,
      "lives": 4651,
      "assessment": 4652,
      "ressed": 4653,
      "British": 4654,
      "quar": 4655,
      "friend": 4656,
      "soluzioni": 4657,
      "tack": 4658,
      "pati": 4659,
      "practical": 4660,
      "discussioni": 4661,
      "natural": 4662,
      "modern": 4663,
      "inclus": 4664,
      "discussed": 4665,
      "circum": 4666,
      "Bud": 4667,
      "passi": 4668,
      "competenza": 4669,
      "capacity": 4670,
      "AL": 4671,
      "stabili": 4672,
      "presenza": 4673,
      "noti": 4674,
      "esten": 4675,
      "denaro": 4676,
      "Agree": 4677,
      "giudizi": 4678,
      "qualcosa": 4679,
      "bloc": 4680,
      "appoggio": 4681,
      "ampliamento": 4682,
      "Nations": 4683,
      "behind": 4684,
      "mono": 4685,
      "aziende": 4686,
      "Bulgaria": 4687,
      "Es": 4688,
      "coli": 4689,
      "wait": 4690,
      "ambientali": 4691,
      "Firstly": 4692,
      "living": 4693,
      "produce": 4694,
      "eranno": 4695,
      "rs": 4696,
      "eccellente": 4697,
      "annual": 4698,
      "Cro": 4699,
      "ps": 4700,
      "competitiveness": 4701,
      "eth": 4702,
      "preoccupazioni": 4703,
      "Ro": 4704,
      "nam": 4705,
      "compati": 4706,
      "responsabili": 4707,
      "Furthermore": 4708,
      "agricoltori": 4709,
      "justif": 4710,
      "function": 4711,
      "prezzo": 4712,
      "dir": 4713,
      "Americ": 4714,
      "icare": 4715,
      "ggere": 4716,
      "istituzione": 4717,
      "propone": 4718,
      "fuge": 4719,
      "lavori": 4720,
      "massima": 4721,
      "rete": 4722,
      "personal": 4723,
      "zona": 4724,
      "utilizzo": 4725,
      "100": 4726,
      "messa": 4727,
      "vicin": 4728,
      "Francia": 4729,
      "unacceptable": 4730,
      "preoccup": 4731,
      "ibilità": 4732,
      "discussions": 4733,
      "International": 4734,
      "considered": 4735,
      "esistenti": 4736,
      "cosid": 4737,
      "uramente": 4738,
      "events": 4739,
      "esperienza": 4740,
      "argu": 4741,
      "circolazione": 4742,
      "paragraph": 4743,
      "Of": 4744,
      "amminist": 4745,
      "intera": 4746,
      "varie": 4747,
      "ragioni": 4748,
      "vati": 4749,
      "23": 4750,
      "Che": 4751,
      "measure": 4752,
      "uomini": 4753,
      "entre": 4754,
      "eccessi": 4755,
      "otto": 4756,
      "cedu": 4757,
      "direttamente": 4758,
      "ases": 4759,
      "xim": 4760,
      "tan": 4761,
      "Spero": 4762,
      "Ha": 4763,
      "Afgh": 4764,
      "rail": 4765,
      "thern": 4766,
      "chiara": 4767,
      "rilev": 4768,
      "capito": 4769,
      "NATO": 4770,
      "conom": 4771,
      "fiss": 4772,
      "remains": 4773,
      "estera": 4774,
      "stam": 4775,
      "ash": 4776,
      "ying": 4777,
      "worth": 4778,
      "interventi": 4779,
      "territorio": 4780,
      "Econom": 4781,
      "guidelines": 4782,
      "Budget": 4783,
      "provision": 4784,
      "introdurre": 4785,
      "comprehen": 4786,
      "adoption": 4787,
      "24": 4788,
      "evalu": 4789,
      "scope": 4790,
      "feder": 4791,
      "comunitarie": 4792,
      "known": 4793,
      "riba": 4794,
      "eso": 4795,
      "frontiere": 4796,
      "messi": 4797,
      "ghted": 4798,
      "fuori": 4799,
      "organizzazione": 4800,
      "directly": 4801,
      "huge": 4802,
      "Gu": 4803,
      "innovazione": 4804,
      "nucleare": 4805,
      "conclusioni": 4806,
      "vanno": 4807,
      "ering": 4808,
      "finanziamenti": 4809,
      "trattamento": 4810,
      "forms": 4811,
      "colp": 4812,
      "efficienza": 4813,
      "Afghan": 4814,
      "family": 4815,
      "Os": 4816,
      "richieste": 4817,
      "iture": 4818,
      "viet": 4819,
      "atest": 4820,
      "comunitari": 4821,
      "gher": 4822,
      "connection": 4823,
      "orn": 4824,
      "electr": 4825,
      "previsto": 4826,
      "penso": 4827,
      "riunione": 4828,
      "delay": 4829,
      "affected": 4830,
      "investig": 4831,
      "substanti": 4832,
      "icazioni": 4833,
      "effectively": 4834,
      "decide": 4835,
      "Ex": 4836,
      "defence": 4837,
      "malatti": 4838,
      "intel": 4839,
      "Bank": 4840,
      "ond": 4841,
      "parlato": 4842,
      "illu": 4843,
      "solutions": 4844,
      "consentire": 4845,
      "asilo": 4846,
      "esigenze": 4847,
      "vul": 4848,
      "alismo": 4849,
      "istituzionale": 4850,
      "custo": 4851,
      "Centr": 4852,
      "ors": 4853,
      "avi": 4854,
      "nessuno": 4855,
      "goods": 4856,
      "insis": 4857,
      "atteggi": 4858,
      "certamente": 4859,
      "bacco": 4860,
      "humanitarian": 4861,
      "rito": 4862,
      "prodotto": 4863,
      "Gener": 4864,
      "condem": 4865,
      "ampio": 4866,
      "Israel": 4867,
      "poll": 4868,
      "Ora": 4869,
      "despite": 4870,
      "Quest": 4871,
      "spero": 4872,
      "facendo": 4873,
      "valutare": 4874,
      "jud": 4875,
      "reser": 4876,
      "approvato": 4877,
      "aio": 4878,
      "presidenza": 4879,
      "dichiarazioni": 4880,
      "IT": 4881,
      "lands": 4882,
      "scientific": 4883,
      "constitution": 4884,
      "dovranno": 4885,
      "Stras": 4886,
      "ritiene": 4887,
      "Secondo": 4888,
      "complete": 4889,
      "exclu": 4890,
      "aimed": 4891,
      "ulties": 4892,
      "tecnologie": 4893,
      "gradu": 4894,
      "precisely": 4895,
      "verbale": 4896,
      "giorni": 4897,
      "congratular": 4898,
      "reale": 4899,
      "adequate": 4900,
      "enn": 4901,
      "Justice": 4902,
      "medie": 4903,
      "circumst": 4904,
      "negative": 4905,
      "World": 4906,
      "totale": 4907,
      "Democrats": 4908,
      "compiere": 4909,
      "sempli": 4910,
      "mezzo": 4911,
      "expla": 4912,
      "obtain": 4913,
      "tramite": 4914,
      "effetto": 4915,
      "modifica": 4916,
      "duty": 4917,
      "Lu": 4918,
      "return": 4919,
      "provvedimenti": 4920,
      "detail": 4921,
      "palest": 4922,
      "storia": 4923,
      "lieto": 4924,
      "difficulties": 4925,
      "conflitto": 4926,
      "lanci": 4927,
      "culturale": 4928,
      "Central": 4929,
      "contribute": 4930,
      "palestin": 4931,
      "constat": 4932,
      "mission": 4933,
      "avrà": 4934,
      "supply": 4935,
      "trying": 4936,
      "efficiency": 4937,
      "itario": 4938,
      "cise": 4939,
      "bey": 4940,
      "shown": 4941,
      "interven": 4942,
      "applicare": 4943,
      "sostitu": 4944,
      "pal": 4945,
      "asylum": 4946,
      "Agreement": 4947,
      "reference": 4948,
      "competitive": 4949,
      "approvazione": 4950,
      "oil": 4951,
      "sole": 4952,
      "Palestini": 4953,
      "pain": 4954,
      "Copen": 4955,
      "giuridico": 4956,
      "combat": 4957,
      "producer": 4958,
      "criminal": 4959,
      "gan": 4960,
      "alta": 4961,
      "affermare": 4962,
      "forces": 4963,
      "proceed": 4964,
      "calls": 4965,
      "modific": 4966,
      "instead": 4967,
      "prosper": 4968,
      "related": 4969,
      "orientale": 4970,
      "numerosi": 4971,
      "funzionamento": 4972,
      "enterprises": 4973,
      "stated": 4974,
      "prevenzione": 4975,
      "singoli": 4976,
      "eviden": 4977,
      "refuge": 4978,
      "sviluppare": 4979,
      "modal": 4980,
      "June": 4981,
      "Cer": 4982,
      "PT": 4983,
      "beginning": 4984,
      "honourable": 4985,
      "drug": 4986,
      "zation": 4987,
      "goes": 4988,
      "lad": 4989,
      "aspett": 4990,
      "ureau": 4991,
      "mir": 4992,
      "liberalizzazione": 4993,
      "...": 4994,
      "conclude": 4995,
      "counter": 4996,
      "rish": 4997,
      "accordance": 4998,
      "circumstances": 4999,
      "encourag": 5000,
      "alista": 5001,
      "dotto": 5002,
      "respond": 5003,
      "Now": 5004,
      "charge": 5005,
      "scelta": 5006,
      "message": 5007,
      "arre": 5008,
      "conclusions": 5009,
      "Res": 5010,
      "committed": 5011,
      "Economic": 5012,
      "atur": 5013,
      "cente": 5014,
      "ain": 5015,
      "1997": 5016,
      "chiam": 5017,
      "improving": 5018,
      "preser": 5019,
      "regolamentazione": 5020,
      "People": 5021,
      "transfer": 5022,
      "successful": 5023,
      "ender": 5024,
      "esterday": 5025,
      "administrative": 5026,
      "sanzioni": 5027,
      "allowed": 5028,
      "fiscale": 5029,
      "ministro": 5030,
      "fru": 5031,
      "git": 5032,
      "cercare": 5033,
      "atic": 5034,
      "traffico": 5035,
      "Pu": 5036,
      "comments": 5037,
      "urali": 5038,
      "providing": 5039,
      "vered": 5040,
      "ulture": 5041,
      "How": 5042,
      "pensabile": 5043,
      "vice": 5044,
      "ises": 5045,
      "wron": 5046,
      "esclusi": 5047,
      "minimum": 5048,
      "consideration": 5049,
      "toric": 5050,
      "perspe": 5051,
      "offrire": 5052,
      "provides": 5053,
      "Germany": 5054,
      "dimostra": 5055,
      "created": 5056,
      "Costituzione": 5057,
      "sog": 5058,
      "discriminazione": 5059,
      "ered": 5060,
      "independent": 5061,
      "concess": 5062,
      "andon": 5063,
      "innovation": 5064,
      "wrong": 5065,
      "concept": 5066,
      "metter": 5067,
      "cting": 5068,
      "Bru": 5069,
      "financing": 5070,
      "continua": 5071,
      "efficacia": 5072,
      "arne": 5073,
      "propose": 5074,
      "rightly": 5075,
      "portazioni": 5076,
      "MI": 5077,
      "challenge": 5078,
      "tedes": 5079,
      "Liber": 5080,
      "Regulation": 5081,
      "obbligo": 5082,
      "ref": 5083,
      "sized": 5084,
      "apertura": 5085,
      "devo": 5086,
      "legitti": 5087,
      "derà": 5088,
      "sanità": 5089,
      "poor": 5090,
      "considerable": 5091,
      "benefits": 5092,
      "nut": 5093,
      "paid": 5094,
      "governmental": 5095,
      "Policy": 5096,
      "speech": 5097,
      "presto": 5098,
      "intero": 5099,
      "multi": 5100,
      "wanted": 5101,
      "highlight": 5102,
      "giugno": 5103,
      "simile": 5104,
      "participation": 5105,
      "andare": 5106,
      "libero": 5107,
      "accepted": 5108,
      "purpose": 5109,
      "WTO": 5110,
      "ande": 5111,
      "salvagu": 5112,
      "decidere": 5113,
      "referendum": 5114,
      "Banca": 5115,
      "sou": 5116,
      "introduce": 5117,
      "views": 5118,
      "sostanzi": 5119,
      "democratica": 5120,
      "sussi": 5121,
      "party": 5122,
      "Ti": 5123,
      "categori": 5124,
      "round": 5125,
      "missi": 5126,
      "morte": 5127,
      "home": 5128,
      "sels": 5129,
      "ardo": 5130,
      "Vice": 5131,
      "ires": 5132,
      "ones": 5133,
      "seek": 5134,
      "promoting": 5135,
      "matica": 5136,
      "menzion": 5137,
      "studi": 5138,
      "blo": 5139,
      "Brus": 5140,
      "Brussels": 5141,
      "enorme": 5142,
      "comitato": 5143,
      "bisogna": 5144,
      "implementing": 5145,
      "clari": 5146,
      "prossimi": 5147,
      "giusta": 5148,
      "prospettive": 5149,
      "congiun": 5150,
      "nia": 5151,
      "sicuramente": 5152,
      "Geor": 5153,
      "documenti": 5154,
      "22": 5155,
      "dro": 5156,
      "fen": 5157,
      "stabilire": 5158,
      "accett": 5159,
      "attuare": 5160,
      "titolo": 5161,
      "xel": 5162,
      "tex": 5163,
      "contenuto": 5164,
      "fanno": 5165,
      "rural": 5166,
      "cul": 5167,
      "atteggiamento": 5168,
      "vir": 5169,
      "pato": 5170,
      "ours": 5171,
      "Bruxel": 5172,
      "unfortunately": 5173,
      "nove": 5174,
      "Bruxelles": 5175,
      "similar": 5176,
      "precedente": 5177,
      "98": 5178,
      "finance": 5179,
      "arla": 5180,
      "alisti": 5181,
      "introduction": 5182,
      "inquin": 5183,
      "supplement": 5184,
      "dle": 5185,
      "sostanze": 5186,
      "Human": 5187,
      "Some": 5188,
      "specifically": 5189,
      "esistono": 5190,
      "prospettiva": 5191,
      "dealing": 5192,
      "mid": 5193,
      "congratularmi": 5194,
      "elen": 5195,
      "requisiti": 5196,
      "sottolineato": 5197,
      "soddisf": 5198,
      "commerciale": 5199,
      "cazione": 5200,
      "cuno": 5201,
      "referred": 5202,
      "Penso": 5203,
      "efficient": 5204,
      "strategic": 5205,
      "remind": 5206,
      "odier": 5207,
      "frontali": 5208,
      "inking": 5209,
      "stor": 5210,
      "”,": 5211,
      "debbano": 5212,
      "sport": 5213,
      "congratu": 5214,
      "2013": 5215,
      "testi": 5216,
      "overall": 5217,
      "riconoscimento": 5218,
      "Primo": 5219,
      "97": 5220,
      "itamente": 5221,
      "Germania": 5222,
      "comment": 5223,
      "closely": 5224,
      "circost": 5225,
      "chiusa": 5226,
      "steps": 5227,
      "reje": 5228,
      "alloc": 5229,
      "India": 5230,
      "adeguata": 5231,
      "fre": 5232,
      "colleague": 5233,
      "seriously": 5234,
      "dimensione": 5235,
      "rapporti": 5236,
      "beyond": 5237,
      "dar": 5238,
      "came": 5239,
      "protocol": 5240,
      "receive": 5241,
      "Afghanistan": 5242,
      "sioni": 5243,
      "portato": 5244,
      "ousand": 5245,
      "controver": 5246,
      "conoscenza": 5247,
      "sussidi": 5248,
      "considerare": 5249,
      "setting": 5250,
      "Sta": 5251,
      "Austria": 5252,
      "OMC": 5253,
      "cond": 5254,
      "icato": 5255,
      "tiva": 5256,
      "giorn": 5257,
      "chiarezza": 5258,
      "medicin": 5259,
      "fear": 5260,
      "speaking": 5261,
      "spirit": 5262,
      "ka": 5263,
      "achie": 5264,
      "activity": 5265,
      "General": 5266,
      "Bo": 5267,
      "EL": 5268,
      "carattere": 5269,
      "rifiuti": 5270,
      "regola": 5271,
      "relationship": 5272,
      "trust": 5273,
      "indispensabile": 5274,
      "scu": 5275,
      "tamento": 5276,
      "bun": 5277,
      "exper": 5278,
      "Uk": 5279,
      "combattere": 5280,
      "mese": 5281,
      "limited": 5282,
      "sian": 5283,
      "plans": 5284,
      "altrett": 5285,
      "dettagli": 5286,
      "ignor": 5287,
      "diversità": 5288,
      "alimentari": 5289,
      "Ukra": 5290,
      "cias": 5291,
      "MEP": 5292,
      "catastro": 5293,
      "Irish": 5294,
      "later": 5295,
      "balanced": 5296,
      "itude": 5297,
      "USA": 5298,
      "presso": 5299,
      "condizione": 5300,
      "incorpor": 5301,
      "frequ": 5302,
      "simpli": 5303,
      "Accor": 5304,
      "alism": 5305,
      "democratici": 5306,
      "looking": 5307,
      "Israele": 5308,
      "placed": 5309,
      "compiuti": 5310,
      "riteniamo": 5311,
      "declar": 5312,
      "spesa": 5313,
      "NG": 5314,
      "irlan": 5315,
      "history": 5316,
      "dieci": 5317,
      "enta": 5318,
      "IV": 5319,
      "laun": 5320,
      "company": 5321,
      "industrial": 5322,
      "metodo": 5323,
      "aggiungere": 5324,
      "Today": 5325,
      "central": 5326,
      "concetto": 5327,
      "pubbliche": 5328,
      "commitments": 5329,
      "type": 5330,
      "transi": 5331,
      "defic": 5332,
      "requires": 5333,
      "Carta": 5334,
      "partito": 5335,
      "spirito": 5336,
      "vulner": 5337,
      "messaggio": 5338,
      "Sum": 5339,
      "rappresentano": 5340,
      "Minutes": 5341,
      "vigil": 5342,
      "intended": 5343,
      "equality": 5344,
      "sha": 5345,
      "istici": 5346,
      "1996": 5347,
      "Or": 5348,
      "finora": 5349,
      "tour": 5350,
      "isms": 5351,
      "ush": 5352,
      "istico": 5353,
      "ministri": 5354,
      "exchange": 5355,
      "Char": 5356,
      "specifiche": 5357,
      "drawn": 5358,
      "issimo": 5359,
      "svolgerà": 5360,
      "minister": 5361,
      "thousand": 5362,
      "session": 5363,
      "easi": 5364,
      "intensi": 5365,
      "regionali": 5366,
      "trate": 5367,
      "expend": 5368,
      "ieri": 5369,
      "A5": 5370,
      "prove": 5371,
      "polizia": 5372,
      "regu": 5373,
      "Quando": 5374,
      "Europeans": 5375,
      "permettere": 5376,
      "imma": 5377,
      "tener": 5378,
      "nas": 5379,
      "alone": 5380,
      "ies": 5381,
      "won": 5382,
      "gency": 5383,
      "pensare": 5384,
      "South": 5385,
      "etro": 5386,
      "forest": 5387,
      "barri": 5388,
      "paci": 5389,
      "diversity": 5390,
      "brief": 5391,
      "portata": 5392,
      "risul": 5393,
      "pression": 5394,
      "positivi": 5395,
      "trag": 5396,
      "Ju": 5397,
      "arrest": 5398,
      "els": 5399,
      "Sare": 5400,
      "Summit": 5401,
      "relativo": 5402,
      "francese": 5403,
      "hy": 5404,
      "former": 5405,
      "leave": 5406,
      "uali": 5407,
      "demands": 5408,
      "perme": 5409,
      "voce": 5410,
      "ampia": 5411,
      "pere": 5412,
      "modalità": 5413,
      "fro": 5414,
      "exact": 5415,
      "sensiti": 5416,
      "cominci": 5417,
      "specifico": 5418,
      "fenomen": 5419,
      "patri": 5420,
      "campa": 5421,
      "bast": 5422,
      "Janu": 5423,
      "bodies": 5424,
      "January": 5425,
      "myself": 5426,
      "calling": 5427,
      "police": 5428,
      "useful": 5429,
      "climatico": 5430,
      "adap": 5431,
      "messe": 5432,
      "dram": 5433,
      "Purtroppo": 5434,
      "NL": 5435,
      "riamo": 5436,
      "sullo": 5437,
      "aiutare": 5438,
      "prossima": 5439,
      "supporting": 5440,
      "willing": 5441,
      "animal": 5442,
      "domande": 5443,
      "Prodi": 5444,
      "crat": 5445,
      "Greece": 5446,
      "fiche": 5447,
      "product": 5448,
      "costruzione": 5449,
      "Fore": 5450,
      "expenditure": 5451,
      "dovere": 5452,
      "establishing": 5453,
      "petro": 5454,
      "forni": 5455,
      "aspect": 5456,
      "Environment": 5457,
      "limiti": 5458,
      "lier": 5459,
      "highly": 5460,
      "vendo": 5461,
      "naio": 5462,
      "gennaio": 5463,
      "Christi": 5464,
      "Green": 5465,
      "complesso": 5466,
      "fet": 5467,
      "parts": 5468,
      "remark": 5469,
      "gence": 5470,
      "esper": 5471,
      "divie": 5472,
      "construction": 5473,
      "anything": 5474,
      "osservazione": 5475,
      "ativamente": 5476,
      "err": 5477,
      "ishes": 5478,
      "By": 5479,
      "claim": 5480,
      "properly": 5481,
      "wi": 5482,
      "uses": 5483,
      "ecolog": 5484,
      "avviare": 5485,
      "buro": 5486,
      "early": 5487,
      "perfe": 5488,
      "mediante": 5489,
      "orientamenti": 5490,
      "regular": 5491,
      "nation": 5492,
      "join": 5493,
      "Last": 5494,
      "giustamente": 5495,
      "som": 5496,
      "influence": 5497,
      "campaign": 5498,
      "agno": 5499,
      "primar": 5500,
      "passe": 5501,
      "higher": 5502,
      "venzioni": 5503,
      "ambitious": 5504,
      "militare": 5505,
      "utilizzare": 5506,
      "poteri": 5507,
      "ricevuto": 5508,
      "risks": 5509,
      "voglio": 5510,
      "popoli": 5511,
      "weeks": 5512,
      "scale": 5513,
      "proport": 5514,
      "listen": 5515,
      "appello": 5516,
      "riconoscere": 5517,
      "percent": 5518,
      "partire": 5519,
      "alise": 5520,
      "authority": 5521,
      "dirittura": 5522,
      "Perché": 5523,
      "forget": 5524,
      "intenzione": 5525,
      "Est": 5526,
      "proveni": 5527,
      "discussing": 5528,
      "produced": 5529,
      "amministrazione": 5530,
      "70": 5531,
      "Grazie": 5532,
      "esercizio": 5533,
      "Trans": 5534,
      "rise": 5535,
      "armonizzazione": 5536,
      "shows": 5537,
      "equilibr": 5538,
      "deed": 5539,
      "nn": 5540,
      "genet": 5541,
      "affront": 5542,
      "multilater": 5543,
      "complex": 5544,
      "acqua": 5545,
      "assegn": 5546,
      "developments": 5547,
      "adeguato": 5548,
      "consen": 5549,
      "Although": 5550,
      "caused": 5551,
      "amber": 5552,
      "citizen": 5553,
      "hic": 5554,
      "vogl": 5555,
      "increasingly": 5556,
      "vogliono": 5557,
      "expe": 5558,
      "Sep": 5559,
      "pursu": 5560,
      "finale": 5561,
      "quei": 5562,
      "reati": 5563,
      "yesterday": 5564,
      "candidate": 5565,
      "Io": 5566,
      "turismo": 5567,
      "Program": 5568,
      "fraud": 5569,
      "Unfortunately": 5570,
      "rates": 5571,
      "regret": 5572,
      "Dopo": 5573,
      "whom": 5574,
      "struttura": 5575,
      "ismi": 5576,
      "zzato": 5577,
      "staff": 5578,
      "AT": 5579,
      "Asia": 5580,
      "gives": 5581,
      "improved": 5582,
      "rapporto": 5583,
      "remember": 5584,
      "study": 5585,
      "flessibilità": 5586,
      "urge": 5587,
      "richied": 5588,
      "modifiche": 5589,
      "Cy": 5590,
      "emphasise": 5591,
      "arm": 5592,
      "sé": 5593,
      "superi": 5594,
      "sfida": 5595,
      "ls": 5596,
      "entrare": 5597,
      "costante": 5598,
      "ciamo": 5599,
      "riente": 5600,
      "disponibili": 5601,
      "Serbia": 5602,
      "addirittura": 5603,
      "represents": 5604,
      "producers": 5605,
      "rafforzamento": 5606,
      "strengthening": 5607,
      "profit": 5608,
      "voc": 5609,
      "rappresentante": 5610,
      "29": 5611,
      "dover": 5612,
      "imb": 5613,
      "achieving": 5614,
      "union": 5615,
      "abol": 5616,
      "occident": 5617,
      "direttive": 5618,
      "transfrontali": 5619,
      "Sar": 5620,
      "distin": 5621,
      "carico": 5622,
      "nuovamente": 5623,
      "probabilmente": 5624,
      "vono": 5625,
      "critical": 5626,
      "rapidamente": 5627,
      "merci": 5628,
      "danno": 5629,
      "subito": 5630,
      "trova": 5631,
      "RE": 5632,
      "cruci": 5633,
      "Agenda": 5634,
      "word": 5635,
      "vehic": 5636,
      "clima": 5637,
      "Rules": 5638,
      "diventare": 5639,
      "credit": 5640,
      "affid": 5641,
      "comprehensive": 5642,
      "reducing": 5643,
      "happened": 5644,
      "altrettanto": 5645,
      "26": 5646,
      "adottata": 5647,
      "inaccettabile": 5648,
      "partecipare": 5649,
      "obviously": 5650,
      "aims": 5651,
      "espressione": 5652,
      "danni": 5653,
      "thought": 5654,
      "realizzazione": 5655,
      "tly": 5656,
      "prendi": 5657,
      "ima": 5658,
      "carbon": 5659,
      "elettor": 5660,
      "cile": 5661,
      "temporane": 5662,
      "alizzare": 5663,
      "ulterior": 5664,
      "ey": 5665,
      "nota": 5666,
      "Turk": 5667,
      "nem": 5668,
      "percento": 5669,
      "volmente": 5670,
      "meccanismo": 5671,
      "leading": 5672,
      "quota": 5673,
      "statements": 5674,
      "Since": 5675,
      "animals": 5676,
      "manifest": 5677,
      "Jo": 5678,
      "partiti": 5679,
      "draf": 5680,
      "enorm": 5681,
      "richiede": 5682,
      "recor": 5683,
      "orire": 5684,
      "Ecco": 5685,
      "convinced": 5686,
      "qualific": 5687,
      "potranno": 5688,
      "American": 5689,
      "',": 5690,
      "sess": 5691,
      "Du": 5692,
      "itali": 5693,
      "manner": 5694,
      "thinking": 5695,
      "tradition": 5696,
      "dimin": 5697,
      "accessi": 5698,
      "Onorevoli": 5699,
      "anco": 5700,
      "monetaria": 5701,
      "advantage": 5702,
      "opposition": 5703,
      "delegazione": 5704,
      "constitu": 5705,
      "piena": 5706,
      "infrastrutture": 5707,
      "massimo": 5708,
      "Charter": 5709,
      "Italy": 5710,
      "ulteriormente": 5711,
      "IS": 5712,
      "Sol": 5713,
      "radic": 5714,
      "rispetti": 5715,
      "ambizio": 5716,
      "geo": 5717,
      "combating": 5718,
      "accad": 5719,
      "Tali": 5720,
      "ols": 5721,
      "CO2": 5722,
      "laws": 5723,
      "COM": 5724,
      "visa": 5725,
      "settimane": 5726,
      "evidenzi": 5727,
      "documents": 5728,
      "Chie": 5729,
      "Security": 5730,
      "acque": 5731,
      "mass": 5732,
      "design": 5733,
      "Never": 5734,
      "costrut": 5735,
      "Moreover": 5736,
      "historic": 5737,
      "recognition": 5738,
      "responsibilities": 5739,
      "ena": 5740,
      "Bos": 5741,
      "relatori": 5742,
      "condition": 5743,
      "Grecia": 5744,
      "Sud": 5745,
      "stant": 5746,
      "outcome": 5747,
      "maggio": 5748,
      "March": 5749,
      "rapporteurs": 5750,
      "structures": 5751,
      "send": 5752,
      "giustific": 5753,
      "introduced": 5754,
      "infrastructure": 5755,
      "penal": 5756,
      "currency": 5757,
      "Cu": 5758,
      "wants": 5759,
      "constructive": 5760,
      "96": 5761,
      "UK": 5762,
      "acceler": 5763,
      "language": 5764,
      "Span": 5765,
      "appreci": 5766,
      "etiche": 5767,
      "Spanish": 5768,
      "firstly": 5769,
      "guida": 5770,
      "sometimes": 5771,
      "studio": 5772,
      "Bur": 5773,
      "domest": 5774,
      "Third": 5775,
      "gioco": 5776,
      "ionale": 5777,
      "stesse": 5778,
      "damage": 5779,
      "recognise": 5780,
      "Foreign": 5781,
      "fai": 5782,
      "prevention": 5783,
      "organisation": 5784,
      "marzo": 5785,
      "fonti": 5786,
      "poses": 5787,
      "sviluppi": 5788,
      "capitale": 5789,
      "Hung": 5790,
      "says": 5791,
      "città": 5792,
      "maritti": 5793,
      "elements": 5794,
      "riflet": 5795,
      "specie": 5796,
      "Ga": 5797,
      "difen": 5798,
      "Natur": 5799,
      "dict": 5800,
      "ller": 5801,
      "analysis": 5802,
      "sman": 5803,
      "rigoro": 5804,
      "sound": 5805,
      "earlier": 5806,
      "ricon": 5807,
      "situazioni": 5808,
      "globalizzazione": 5809,
      "progresso": 5810,
      "conference": 5811,
      "monetary": 5812,
      "formul": 5813,
      "estern": 5814,
      "rinnov": 5815,
      "pointed": 5816,
      "sele": 5817,
      "tratti": 5818,
      "ader": 5819,
      "vincol": 5820,
      "pratiche": 5821,
      "establishment": 5822,
      "Fondi": 5823,
      "proportion": 5824,
      "entirely": 5825,
      "facing": 5826,
      "sex": 5827,
      "chiave": 5828,
      "monito": 5829,
      "ricordato": 5830,
      "divieto": 5831,
      "finalmente": 5832,
      "adottate": 5833,
      "source": 5834,
      "prime": 5835,
      "render": 5836,
      "sforzo": 5837,
      "contrary": 5838,
      "Onorevole": 5839,
      "OL": 5840,
      "scand": 5841,
      "vamo": 5842,
      "pazi": 5843,
      "dead": 5844,
      "richiam": 5845,
      "giungere": 5846,
      "impl": 5847,
      "added": 5848,
      "grant": 5849,
      "esser": 5850,
      "tariff": 5851,
      "minaccia": 5852,
      "vinto": 5853,
      "arrange": 5854,
      "becoming": 5855,
      "complement": 5856,
      "Roma": 5857,
      "completamente": 5858,
      "After": 5859,
      "sogget": 5860,
      "03": 5861,
      "Dov": 5862,
      "operatori": 5863,
      "concreti": 5864,
      "understanding": 5865,
      "interni": 5866,
      "consensus": 5867,
      "illustr": 5868,
      "stim": 5869,
      "compon": 5870,
      "parl": 5871,
      "produt": 5872,
      "differences": 5873,
      "forced": 5874,
      "Berl": 5875,
      "constant": 5876,
      "citato": 5877,
      "Dal": 5878,
      "ONU": 5879,
      "Spain": 5880,
      "rurale": 5881,
      "notevole": 5882,
      "tecnologia": 5883,
      "speed": 5884,
      "reduced": 5885,
      "persona": 5886,
      "medio": 5887,
      "Mo": 5888,
      "transition": 5889,
      "28": 5890,
      "istics": 5891,
      "asking": 5892,
      "Nevertheless": 5893,
      "propor": 5894,
      "sarebbero": 5895,
      "Italia": 5896,
      "SME": 5897,
      "petroli": 5898,
      "infer": 5899,
      "mill": 5900,
      "Strate": 5901,
      "Agenzia": 5902,
      "cof": 5903,
      "weak": 5904,
      "opening": 5905,
      "scho": 5906,
      "manu": 5907,
      "growing": 5908,
      "settembre": 5909,
      "domin": 5910,
      "dangerous": 5911,
      "90": 5912,
      "recommendations": 5913,
      "happy": 5914,
      "flexibility": 5915,
      "canto": 5916,
      "IL": 5917,
      "atlant": 5918,
      "legislativo": 5919,
      "demo": 5920,
      "presentati": 5921,
      "indag": 5922,
      "veste": 5923,
      "centro": 5924,
      "liberalisation": 5925,
      "falli": 5926,
      "ended": 5927,
      "tou": 5928,
      "sopra": 5929,
      "build": 5930,
      "rispar": 5931,
      "positiva": 5932,
      "loss": 5933,
      "gosla": 5934,
      "leggi": 5935,
      "torno": 5936,
      "religi": 5937,
      "pressioni": 5938,
      "delegation": 5939,
      "fat": 5940,
      "Indeed": 5941,
      "tember": 5942,
      "mie": 5943,
      "yoto": 5944,
      "King": 5945,
      "chance": 5946,
      "riusciti": 5947,
      "closer": 5948,
      "anal": 5949,
      "precedenti": 5950,
      "Mc": 5951,
      "September": 5952,
      "announ": 5953,
      "offre": 5954,
      "relig": 5955,
      "opposizione": 5956,
      "equip": 5957,
      "Bi": 5958,
      "proteggere": 5959,
      "perd": 5960,
      "generali": 5961,
      "conform": 5962,
      "morning": 5963,
      "informed": 5964,
      "propon": 5965,
      "Ukraine": 5966,
      "spread": 5967,
      "troviamo": 5968,
      "Ob": 5969,
      "capire": 5970,
      "AF": 5971,
      "Georgia": 5972,
      "Rule": 5973,
      "vata": 5974,
      "mira": 5975,
      "AP": 5976,
      "bin": 5977,
      "fulfil": 5978,
      "esercitare": 5979,
      "raise": 5980,
      "meccanismi": 5981,
      "Nove": 5982,
      "defend": 5983,
      "subsidi": 5984,
      "interessati": 5985,
      "probably": 5986,
      "methods": 5987,
      "directives": 5988,
      "fico": 5989,
      "Ministers": 5990,
      "networks": 5991,
      "dol": 5992,
      "practices": 5993,
      "reali": 5994,
      "sea": 5995,
      "umana": 5996,
      "possibili": 5997,
      "agg": 5998,
      "intervention": 5999,
      "tenuti": 6000,
      "surance": 6001,
      "coerente": 6002,
      "legit": 6003,
      "persino": 6004,
      "intergovern": 6005,
      "San": 6006,
      "Mid": 6007,
      "perfet": 6008,
      "invito": 6009,
      "garanzia": 6010,
      "covered": 6011,
      "lies": 6012,
      "sanctions": 6013,
      "got": 6014,
      "board": 6015,
      "distri": 6016,
      "oppure": 6017,
      "Palestinian": 6018,
      "samente": 6019,
      "dimension": 6020,
      "sort": 6021,
      "raccomandazioni": 6022,
      "acy": 6023,
      "popolare": 6024,
      "strongly": 6025,
      "perspective": 6026,
      "profu": 6027,
      "tire": 6028,
      "visit": 6029,
      "exactly": 6030,
      "applies": 6031,
      "bed": 6032,
      "late": 6033,
      "198": 6034,
      "Cam": 6035,
      "ggeri": 6036,
      "aging": 6037,
      "acca": 6038,
      "inge": 6039,
      "manufact": 6040,
      "cando": 6041,
      "criminalità": 6042,
      "Libro": 6043,
      "conflitti": 6044,
      "vert": 6045,
      "consumo": 6046,
      "costituiscono": 6047,
      "Tutti": 6048,
      "weap": 6049,
      "cogliere": 6050,
      "commercial": 6051,
      "simili": 6052,
      "rore": 6053,
      "reject": 6054,
      "catori": 6055,
      "November": 6056,
      "iled": 6057,
      "top": 6058,
      "ood": 6059,
      "valut": 6060,
      "passeggeri": 6061,
      "potremo": 6062,
      "organised": 6063,
      "refugees": 6064,
      "laid": 6065,
      "vecchi": 6066,
      "Questi": 6067,
      "deputato": 6068,
      "radi": 6069,
      "Organi": 6070,
      "Kyoto": 6071,
      "Paper": 6072,
      "arli": 6073,
      "Spagna": 6074,
      "500": 6075,
      "esp": 6076,
      "integrated": 6077,
      "Van": 6078,
      "standing": 6079,
      "elaborare": 6080,
      "administration": 6081,
      "Sa": 6082,
      "sufficienti": 6083,
      "tentativo": 6084,
      "iscano": 6085,
      "burden": 6086,
      "novembre": 6087,
      "lunga": 6088,
      "submitted": 6089,
      "charac": 6090,
      "minimo": 6091,
      "Procedu": 6092,
      "MEPs": 6093,
      "quanti": 6094,
      "mechanism": 6095,
      "condann": 6096,
      "ideas": 6097,
      "failure": 6098,
      "signed": 6099,
      "esperti": 6100,
      "insegn": 6101,
      "metodi": 6102,
      "Sarebbe": 6103,
      "atteri": 6104,
      "agencies": 6105,
      "potenziale": 6106,
      "pronunci": 6107,
      "compiuto": 6108,
      "dealt": 6109,
      "militari": 6110,
      "exception": 6111,
      "reply": 6112,
      "coraggio": 6113,
      "1995": 6114,
      "elected": 6115,
      "ferrovi": 6116,
      "definite": 6117,
      "transparent": 6118,
      "opera": 6119,
      "funzione": 6120,
      "rendo": 6121,
      "definition": 6122,
      "safeguard": 6123,
      "sostenuto": 6124,
      "managed": 6125,
      "ambe": 6126,
      "complessi": 6127,
      "bureau": 6128,
      "ilst": 6129,
      "ricorso": 6130,
      "efficaci": 6131,
      "Ladies": 6132,
      "sil": 6133,
      "ualmente": 6134,
      "riceve": 6135,
      "occur": 6136,
      "riferisco": 6137,
      "sensitive": 6138,
      "dichiarato": 6139,
      "assai": 6140,
      "IN": 6141,
      "obligations": 6142,
      "wat": 6143,
      "numerose": 6144,
      "targets": 6145,
      "positions": 6146,
      "Why": 6147,
      "dee": 6148,
      "convinto": 6149,
      "ury": 6150,
      "immediate": 6151,
      "improvement": 6152,
      "discar": 6153,
      "dimostrare": 6154,
      "Italian": 6155,
      "Nell": 6156,
      "enormous": 6157,
      "migliaia": 6158,
      "ahead": 6159,
      "Lat": 6160,
      "Alcun": 6161,
      "chied": 6162,
      "obblighi": 6163,
      "tober": 6164,
      "October": 6165,
      "jour": 6166,
      "violazioni": 6167,
      "risulta": 6168,
      "segnale": 6169,
      "complic": 6170,
      "favorire": 6171,
      "exploit": 6172,
      "privati": 6173,
      "arvi": 6174,
      "addressed": 6175,
      "consapevole": 6176,
      "esteri": 6177,
      "diti": 6178,
      "attent": 6179,
      "adeguate": 6180,
      "mandate": 6181,
      "igh": 6182,
      "minoranze": 6183,
      "putting": 6184,
      "guid": 6185,
      "assumere": 6186,
      "sof": 6187,
      "Agency": 6188,
      "affatto": 6189,
      "iene": 6190,
      "incontro": 6191,
      "Pak": 6192,
      "esistenza": 6193,
      "ottobre": 6194,
      "Christian": 6195,
      "orus": 6196,
      "prest": 6197,
      "regist": 6198,
      "sostiene": 6199,
      "judi": 6200,
      "promis": 6201,
      "mutual": 6202,
      "discusso": 6203,
      "congratul": 6204,
      "unable": 6205,
      "Ucra": 6206,
      "mechanisms": 6207,
      "spetta": 6208,
      "aereo": 6209,
      "urban": 6210,
      "parliaments": 6211,
      "eliminare": 6212,
      "Ucraina": 6213,
      "poveri": 6214,
      "locale": 6215,
      "Health": 6216,
      "contains": 6217,
      "sebbene": 6218,
      "cast": 6219,
      "Procedure": 6220,
      "imporre": 6221,
      "Alla": 6222,
      "changed": 6223,
      "maggiormente": 6224,
      "dipen": 6225,
      "immediately": 6226,
      "appoint": 6227,
      "element": 6228,
      "Russian": 6229,
      "appeal": 6230,
      "mato": 6231,
      "incoraggiare": 6232,
      "New": 6233,
      "elevato": 6234,
      "certezza": 6235,
      "Trade": 6236,
      "mainly": 6237,
      "deficit": 6238,
      "comporta": 6239,
      "vertice": 6240,
      "Amendments": 6241,
      "toc": 6242,
      "linee": 6243,
      "peggi": 6244,
      "Rego": 6245,
      "Kingdom": 6246,
      "intention": 6247,
      "raccol": 6248,
      "persons": 6249,
      "portazione": 6250,
      "distru": 6251,
      "diretto": 6252,
      "clauso": 6253,
      "veicoli": 6254,
      "tecnolog": 6255,
      "resolutions": 6256,
      "Turkish": 6257,
      "ket": 6258,
      "choice": 6259,
      "matiche": 6260,
      "comply": 6261,
      "Agr": 6262,
      "obbligatori": 6263,
      "Middle": 6264,
      "distor": 6265,
      "Partito": 6266,
      "gendo": 6267,
      "vorre": 6268,
      "consultation": 6269,
      "wit": 6270,
      "dovremo": 6271,
      "Inn": 6272,
      "heart": 6273,
      "character": 6274,
      "rid": 6275,
      "export": 6276,
      "leaders": 6277,
      "tasso": 6278,
      "radio": 6279,
      "parlamenti": 6280,
      "continent": 6281,
      "fying": 6282,
      "basi": 6283,
      "prio": 6284,
      "attiva": 6285,
      "ami": 6286,
      "forth": 6287,
      "inv": 6288,
      "moneta": 6289,
      "esaminare": 6290,
      "ko": 6291,
      "visti": 6292,
      "technologies": 6293,
      "riguardano": 6294,
      "indipendenza": 6295,
      "pito": 6296,
      "deriv": 6297,
      "Nord": 6298,
      "denza": 6299,
      "facile": 6300,
      "cristi": 6301,
      "merely": 6302,
      "Regolamento": 6303,
      "guarantees": 6304,
      "specifici": 6305,
      "Bosnia": 6306,
      "rejected": 6307,
      "digit": 6308,
      "trut": 6309,
      "unis": 6310,
      "evidence": 6311,
      "acts": 6312,
      "vereign": 6313,
      "Europol": 6314,
      "continuing": 6315,
      "coheren": 6316,
      "resta": 6317,
      "promotion": 6318,
      "piani": 6319,
      "ichiamo": 6320,
      "simple": 6321,
      "Even": 6322,
      "dy": 6323,
      "ecu": 6324,
      "compla": 6325,
      "told": 6326,
      "contiene": 6327,
      "astr": 6328,
      "discharge": 6329,
      "influenza": 6330,
      "Belar": 6331,
      "debates": 6332,
      "dano": 6333,
      "rifu": 6334,
      "esecuzione": 6335,
      "mine": 6336,
      "discut": 6337,
      "vina": 6338,
      "wonder": 6339,
      "dizione": 6340,
      "idee": 6341,
      "easy": 6342,
      "sba": 6343,
      "verranno": 6344,
      "worked": 6345,
      "sugger": 6346,
      "Programme": 6347,
      "conferenza": 6348,
      "sovereign": 6349,
      "thousands": 6350,
      "aving": 6351,
      "giudizio": 6352,
      "peraltro": 6353,
      "Prime": 6354,
      "donna": 6355,
      "secure": 6356,
      "Mu": 6357,
      "Chamber": 6358,
      "SMEs": 6359,
      "near": 6360,
      "enjo": 6361,
      "payments": 6362,
      "virt": 6363,
      "resping": 6364,
      "stanziamenti": 6365,
      "prison": 6366,
      "riserve": 6367,
      "impossible": 6368,
      "aboli": 6369,
      "nic": 6370,
      "rido": 6371,
      "exercise": 6372,
      "substantial": 6373,
      "linked": 6374,
      "repeat": 6375,
      "interrogazioni": 6376,
      "deliber": 6377,
      "31": 6378,
      "disastro": 6379,
      "iling": 6380,
      "abit": 6381,
      "2011": 6382,
      "energetico": 6383,
      "includes": 6384,
      "eremo": 6385,
      "destinati": 6386,
      "resolve": 6387,
      "minori": 6388,
      "constatare": 6389,
      "RO": 6390,
      "istituire": 6391,
      "trafficking": 6392,
      "vance": 6393,
      "enzie": 6394,
      "oples": 6395,
      "agenzie": 6396,
      "collo": 6397,
      "speciale": 6398,
      "eniamo": 6399,
      "aspi": 6400,
      "costituire": 6401,
      "Afric": 6402,
      "elettron": 6403,
      "sicuro": 6404,
      "piacere": 6405,
      "elorus": 6406,
      "consultazione": 6407,
      "disaster": 6408,
      "figures": 6409,
      "income": 6410,
      "unilater": 6411,
      "lui": 6412,
      "lost": 6413,
      "istence": 6414,
      "ostacoli": 6415,
      "industriale": 6416,
      "lam": 6417,
      "Strategy": 6418,
      "tren": 6419,
      "funzionari": 6420,
      "Many": 6421,
      "unit": 6422,
      "fonda": 6423,
      "penale": 6424,
      "concent": 6425,
      "teremo": 6426,
      "independence": 6427,
      "genti": 6428,
      "scad": 6429,
      "speakers": 6430,
      "sussidiarietà": 6431,
      "fenomeno": 6432,
      "occhi": 6433,
      "consumatore": 6434,
      "Porto": 6435,
      "rano": 6436,
      "renewable": 6437,
      "PMI": 6438,
      "bor": 6439,
      "rifless": 6440,
      "ottenuto": 6441,
      "male": 6442,
      "assenza": 6443,
      "efficiente": 6444,
      "bastanza": 6445,
      "circostanze": 6446,
      "vostra": 6447,
      "opinioni": 6448,
      "accogliere": 6449,
      "totally": 6450,
      "verde": 6451,
      "abbastanza": 6452,
      "travel": 6453,
      "dop": 6454,
      "innanzitutto": 6455,
      "risolu": 6456,
      "Pakistan": 6457,
      "arms": 6458,
      "scritto": 6459,
      "elenco": 6460,
      "nessun": 6461,
      "maxim": 6462,
      "presup": 6463,
      "debito": 6464,
      "ziale": 6465,
      "severe": 6466,
      "urgenza": 6467,
      "grate": 6468,
      "obser": 6469,
      "ECU": 6470,
      "enda": 6471,
      "desire": 6472,
      "onic": 6473,
      "perciò": 6474,
      "modificare": 6475,
      "impedire": 6476,
      "subsidiarity": 6477,
      "situations": 6478,
      "ificazione": 6479,
      "raccomandazione": 6480,
      "annunci": 6481,
      "versione": 6482,
      "costre": 6483,
      "membership": 6484,
      "recommendation": 6485,
      "peoples": 6486,
      "conseguire": 6487,
      "Paesi": 6488,
      "confini": 6489,
      "div": 6490,
      "prevista": 6491,
      "corrispon": 6492,
      "sve": 6493,
      "assure": 6494,
      "etary": 6495,
      "publ": 6496,
      "Oriente": 6497,
      "passare": 6498,
      "expression": 6499,
      "violazione": 6500,
      "Stru": 6501,
      "associazione": 6502,
      "advance": 6503,
      "hood": 6504,
      "degree": 6505,
      "votes": 6506,
      "attitude": 6507,
      "wishes": 6508,
      "segre": 6509,
      "stac": 6510,
      "cret": 6511,
      "surpris": 6512,
      "anta": 6513,
      "crescente": 6514,
      "iste": 6515,
      "bringing": 6516,
      "uguagli": 6517,
      "employe": 6518,
      "official": 6519,
      "ruzione": 6520,
      "mittees": 6521,
      "extend": 6522,
      "itime": 6523,
      "trovano": 6524,
      "esterne": 6525,
      "aiut": 6526,
      "employed": 6527,
      "contenuti": 6528,
      "territory": 6529,
      "noon": 6530,
      "hagen": 6531,
      "lon": 6532,
      "soffer": 6533,
      "aperto": 6534,
      "capable": 6535,
      "Balk": 6536,
      "han": 6537,
      "là": 6538,
      "controls": 6539,
      "chieder": 6540,
      "nergy": 6541,
      "pochi": 6542,
      "tedly": 6543,
      "supports": 6544,
      "approvare": 6545,
      "failed": 6546,
      "A4": 6547,
      "carne": 6548,
      "caren": 6549,
      "deva": 6550,
      "annuale": 6551,
      "ID": 6552,
      "cofin": 6553,
      "instance": 6554,
      "reasonable": 6555,
      "North": 6556,
      "grateful": 6557,
      "economies": 6558,
      "rilasci": 6559,
      "judicial": 6560,
      "Lei": 6561,
      "speri": 6562,
      "affairs": 6563,
      "neppure": 6564,
      "condotta": 6565,
      "opposed": 6566,
      "sequently": 6567,
      "esigenza": 6568,
      "professionale": 6569,
      "vity": 6570,
      "Applause": 6571,
      "iranno": 6572,
      "entrata": 6573,
      "conciliation": 6574,
      "irlandese": 6575,
      "Applausi": 6576,
      "treaty": 6577,
      "nemmeno": 6578,
      "office": 6579,
      "mobilità": 6580,
      "faced": 6581,
      "indica": 6582,
      "consistent": 6583,
      "prus": 6584,
      "malattie": 6585,
      "Allo": 6586,
      "lower": 6587,
      "nomin": 6588,
      "GM": 6589,
      "Agric": 6590,
      "ditors": 6591,
      "Cyprus": 6592,
      "accus": 6593,
      "ctural": 6594,
      "election": 6595,
      "declare": 6596,
      "involvement": 6597,
      "cure": 6598,
      "Medio": 6599,
      "Protocol": 6600,
      "apparen": 6601,
      "families": 6602,
      "ugal": 6603,
      "sides": 6604,
      "harm": 6605,
      "Portugal": 6606,
      "naturali": 6607,
      "expected": 6608,
      "involving": 6609,
      "uris": 6610,
      "classi": 6611,
      "original": 6612,
      "ribadire": 6613,
      "ked": 6614,
      "implic": 6615,
      "enhance": 6616,
      "determinazione": 6617,
      "indeb": 6618,
      "recognised": 6619,
      "Monetary": 6620,
      "distribut": 6621,
      "truly": 6622,
      "actual": 6623,
      "stock": 6624,
      "aries": 6625,
      "perce": 6626,
      "matic": 6627,
      "significativo": 6628,
      "PSE": 6629,
      "deser": 6630,
      "itarie": 6631,
      "remmo": 6632,
      "cittadino": 6633,
      "Thirdly": 6634,
      "trasform": 6635,
      "famiglie": 6636,
      "consente": 6637,
      "piccoli": 6638,
      "35": 6639,
      "obstac": 6640,
      "talks": 6641,
      "sap": 6642,
      "elaborazione": 6643,
      "disporre": 6644,
      "tourism": 6645,
      "colletti": 6646,
      "proporre": 6647,
      "getting": 6648,
      "assume": 6649,
      "conn": 6650,
      "perfect": 6651,
      "existence": 6652,
      "chair": 6653,
      "stampa": 6654,
      "ionamento": 6655,
      "Te": 6656,
      "goal": 6657,
      "learn": 6658,
      "essenziali": 6659,
      "happening": 6660,
      "cuore": 6661,
      "speranza": 6662,
      "pin": 6663,
      "substances": 6664,
      "inquinamento": 6665,
      "garanzie": 6666,
      "nucleari": 6667,
      "hn": 6668,
      "vicini": 6669,
      "geria": 6670,
      "Cuba": 6671,
      "Pi": 6672,
      "arily": 6673,
      "Bro": 6674,
      "continente": 6675,
      "dimenticare": 6676,
      "explan": 6677,
      "futura": 6678,
      "binding": 6679,
      "differenze": 6680,
      "egli": 6681,
      "gian": 6682,
      "Nos": 6683,
      "aust": 6684,
      "prassi": 6685,
      "inferi": 6686,
      "vivere": 6687,
      "risposte": 6688,
      "approval": 6689,
      "tutelare": 6690,
      "drugs": 6691,
      "pillar": 6692,
      "rim": 6693,
      "Quanto": 6694,
      "protecting": 6695,
      "Structural": 6696,
      "mag": 6697,
      "plenary": 6698,
      "soddisfazione": 6699,
      "Poland": 6700,
      "Pre": 6701,
      "entrambe": 6702,
      "Quindi": 6703,
      "previsti": 6704,
      "adopting": 6705,
      "Del": 6706,
      "benessere": 6707,
      "greatest": 6708,
      "impiego": 6709,
      "famiglia": 6710,
      "presi": 6711,
      "Sco": 6712,
      "Prima": 6713,
      "African": 6714,
      "gender": 6715,
      "urgente": 6716,
      "starting": 6717,
      "fonte": 6718,
      "soddisfac": 6719,
      "attamente": 6720,
      "tata": 6721,
      "seeking": 6722,
      "weapons": 6723,
      "impresa": 6724,
      "augu": 6725,
      "Lam": 6726,
      "preventi": 6727,
      "critiche": 6728,
      "icht": 6729,
      "disponibilità": 6730,
      "corretto": 6731,
      "Funds": 6732,
      "Mediterraneo": 6733,
      "chiediamo": 6734,
      "keeping": 6735,
      "arle": 6736,
      "segnal": 6737,
      "fos": 6738,
      "chiarire": 6739,
      "banche": 6740,
      "caratteri": 6741,
      "scorsa": 6742,
      "fla": 6743,
      "committees": 6744,
      "factor": 6745,
      "vend": 6746,
      "difendere": 6747,
      "transatlant": 6748,
      "finding": 6749,
      "interesting": 6750,
      "legislativa": 6751,
      "cendo": 6752,
      "revis": 6753,
      "movi": 6754,
      "intend": 6755,
      "feed": 6756,
      "resolved": 6757,
      "likely": 6758,
      "arian": 6759,
      "comprendere": 6760,
      "hile": 6761,
      "vazione": 6762,
      "percus": 6763,
      "basso": 6764,
      "operazioni": 6765,
      "centrali": 6766,
      "rono": 6767,
      "competence": 6768,
      "reddito": 6769,
      "immediatamente": 6770,
      "dedi": 6771,
      "Public": 6772,
      "distribuzione": 6773,
      "mann": 6774,
      "sbagli": 6775,
      "tano": 6776,
      "ality": 6777,
      "detti": 6778,
      "incontr": 6779,
      "mobility": 6780,
      "Pact": 6781,
      "assolu": 6782,
      "embar": 6783,
      "followed": 6784,
      "%.": 6785,
      "separate": 6786,
      "isol": 6787,
      "costituzionale": 6788,
      "raggio": 6789,
      "cruciale": 6790,
      "valid": 6791,
      "According": 6792,
      "cci": 6793,
      "metà": 6794,
      "tackle": 6795,
      "rapida": 6796,
      "scandal": 6797,
      "legitim": 6798,
      "perpe": 6799,
      "break": 6800,
      "pollution": 6801,
      "Her": 6802,
      "veda": 6803,
      "favorevoli": 6804,
      "occupar": 6805,
      "fisher": 6806,
      "July": 6807,
      "macro": 6808,
      "ragionevole": 6809,
      "presentate": 6810,
      "cani": 6811,
      "disease": 6812,
      "Queste": 6813,
      "designed": 6814,
      "meetings": 6815,
      "inspe": 6816,
      "granted": 6817,
      "gallo": 6818,
      "sovran": 6819,
      "poca": 6820,
      "diversa": 6821,
      "tivi": 6822,
      "comunicazioni": 6823,
      "suffering": 6824,
      "fiscali": 6825,
      "approvvig": 6826,
      "apparten": 6827,
      "Copenhagen": 6828,
      "Portogallo": 6829,
      "factory": 6830,
      "shared": 6831,
      "evaluation": 6832,
      "Ara": 6833,
      "diverso": 6834,
      "esattamente": 6835,
      "spent": 6836,
      "sessu": 6837,
      "eventi": 6838,
      "esito": 6839,
      "bom": 6840,
      "luglio": 6841,
      "voluto": 6842,
      "ricostru": 6843,
      "odierna": 6844,
      "sentito": 6845,
      "ripresa": 6846,
      "dubbi": 6847,
      "compliance": 6848,
      "limite": 6849,
      "Sappiamo": 6850,
      "mori": 6851,
      "sollev": 6852,
      "fit": 6853,
      "Tutto": 6854,
      "conduct": 6855,
      "dogan": 6856,
      "Belarus": 6857,
      "limin": 6858,
      "vest": 6859,
      "Naturalmente": 6860,
      "intergovernativa": 6861,
      "lease": 6862,
      "proposing": 6863,
      "rinnovabili": 6864,
      "ruption": 6865,
      "confirm": 6866,
      "Ter": 6867,
      "navi": 6868,
      "globalisation": 6869,
      "economie": 6870,
      "prud": 6871,
      "farma": 6872,
      "Forse": 6873,
      "tidi": 6874,
      "recenti": 6875,
      "thereby": 6876,
      "rimane": 6877,
      "criticism": 6878,
      "communications": 6879,
      "Maced": 6880,
      "estrema": 6881,
      "esseri": 6882,
      "continues": 6883,
      "bac": 6884,
      "Maastr": 6885,
      "carefully": 6886,
      "Medi": 6887,
      "bir": 6888,
      "costruire": 6889,
      "Maastricht": 6890,
      "subsidies": 6891,
      "permanente": 6892,
      "explain": 6893,
      "fossero": 6894,
      "trarre": 6895,
      "Sweden": 6896,
      "east": 6897,
      "relativamente": 6898,
      "igno": 6899,
      "confir": 6900,
      "considerato": 6901,
      "discarico": 6902,
      "faccia": 6903,
      "Eastern": 6904,
      "cessive": 6905,
      "consiste": 6906,
      "urs": 6907,
      "series": 6908,
      "ispe": 6909,
      "quotidi": 6910,
      "amoun": 6911,
      "accompag": 6912,
      "unanimità": 6913,
      "inty": 6914,
      "isse": 6915,
      "goslavia": 6916,
      "Auditors": 6917,
      "detailed": 6918,
      "certainty": 6919,
      "attivo": 6920,
      "lingue": 6921,
      "Organizzazione": 6922,
      "Im": 6923,
      "volto": 6924,
      "specifica": 6925,
      "Polonia": 6926,
      "fattori": 6927,
      "harmonisation": 6928,
      "preparazione": 6929,
      "organismi": 6930,
      "presenta": 6931,
      "minorities": 6932,
      "consumption": 6933,
      "manufacture": 6934,
      "coerenza": 6935,
      "tera": 6936,
      "vivono": 6937,
      "iniziare": 6938,
      "conciliazione": 6939,
      "congratulo": 6940,
      "regolamenti": 6941,
      "undertaking": 6942,
      "proprietà": 6943,
      "ployment": 6944,
      "communities": 6945,
      "vate": 6946,
      "rende": 6947,
      "leadership": 6948,
      "voice": 6949,
      "rifugi": 6950,
      "rigi": 6951,
      "naturally": 6952,
      "ints": 6953,
      "While": 6954,
      "essero": 6955,
      "schi": 6956,
      "primi": 6957,
      "campagna": 6958,
      "fur": 6959,
      "reso": 6960,
      "causes": 6961,
      "migration": 6962,
      "vehicles": 6963,
      "oral": 6964,
      "Commun": 6965,
      "Infatti": 6966,
      "provenienti": 6967,
      "lingua": 6968,
      "trattati": 6969,
      "DA": 6970,
      "versal": 6971,
      "forti": 6972,
      "anian": 6973,
      "courage": 6974,
      "persegu": 6975,
      "gain": 6976,
      "presence": 6977,
      "aggiunto": 6978,
      "interna": 6979,
      "Sy": 6980,
      "nations": 6981,
      "avremo": 6982,
      "restri": 6983,
      "superare": 6984,
      "lettera": 6985,
      "OS": 6986,
      "gical": 6987,
      "prevedere": 6988,
      "anziché": 6989,
      "interessate": 6990,
      "grounds": 6991,
      "medit": 6992,
      "undred": 6993,
      "):": 6994,
      "endorse": 6995,
      "consentito": 6996,
      "pagamenti": 6997,
      "taxation": 6998,
      "Every": 6999,
      "senz": 7000,
      "ingra": 7001,
      "plenaria": 7002,
      "scienza": 7003,
      "45": 7004,
      "expen": 7005,
      "vicino": 7006,
      "errore": 7007,
      "emphasis": 7008,
      "Swedish": 7009,
      "commissario": 7010,
      "ordinary": 7011,
      "insist": 7012,
      "excessive": 7013,
      "privile": 7014,
      "hours": 7015,
      "cambiare": 7016,
      "deca": 7017,
      "condurre": 7018,
      "string": 7019,
      "alizzato": 7020,
      "justified": 7021,
      "icabile": 7022,
      "attack": 7023,
      "previste": 7024,
      "straordin": 7025,
      "terrorist": 7026,
      "finanziare": 7027,
      "improvements": 7028,
      "qualora": 7029,
      "minority": 7030,
      "basata": 7031,
      "limits": 7032,
      "entrambi": 7033,
      "floor": 7034,
      "Balcani": 7035,
      "Sve": 7036,
      "centi": 7037,
      "trage": 7038,
      "fornito": 7039,
      "tiene": 7040,
      "socio": 7041,
      "Poiché": 7042,
      "tecniche": 7043,
      "assunto": 7044,
      "micro": 7045,
      "accu": 7046,
      "Cipro": 7047,
      "destro": 7048,
      "Alcuni": 7049,
      "anyone": 7050,
      "decisive": 7051,
      "bilateral": 7052,
      "rò": 7053,
      "planning": 7054,
      "ingi": 7055,
      "entit": 7056,
      "dow": 7057,
      "afric": 7058,
      "Sea": 7059,
      "quantità": 7060,
      "Energy": 7061,
      "popolazioni": 7062,
      "stake": 7063,
      "evoluzione": 7064,
      "impi": 7065,
      "derog": 7066,
      "dac": 7067,
      "enforce": 7068,
      "Bra": 7069,
      "employees": 7070,
      "sfruttamento": 7071,
      "ream": 7072,
      "credibility": 7073,
      "defined": 7074,
      "statuto": 7075,
      "volunt": 7076,
      "credibilità": 7077,
      "clar": 7078,
      "Greek": 7079,
      "prig": 7080,
      "innovative": 7081,
      "preca": 7082,
      "repeated": 7083,
      "distribution": 7084,
      "inevit": 7085,
      "regulatory": 7086,
      "urare": 7087,
      "approvata": 7088,
      "religious": 7089,
      "otherwise": 7090,
      "entry": 7091,
      "Ringra": 7092,
      "Pers": 7093,
      "pest": 7094,
      "vation": 7095,
      "impossibile": 7096,
      "recovery": 7097,
      "Western": 7098,
      "nie": 7099,
      "banks": 7100,
      "affect": 7101,
      "maximum": 7102,
      "mett": 7103,
      "suppli": 7104,
      "commissioni": 7105,
      "prende": 7106,
      "consenta": 7107,
      "agricolo": 7108,
      "ya": 7109,
      "appears": 7110,
      "hol": 7111,
      "rimanere": 7112,
      "incidenti": 7113,
      "tornare": 7114,
      "elettorale": 7115,
      "Macedonia": 7116,
      "ER": 7117,
      "mately": 7118,
      "attina": 7119,
      "arrangements": 7120,
      "flu": 7121,
      "sentire": 7122,
      "spending": 7123,
      "esclusivamente": 7124,
      "Only": 7125,
      "observ": 7126,
      "Apr": 7127,
      "liance": 7128,
      "compiti": 7129,
      "serio": 7130,
      "rive": 7131,
      "freedoms": 7132,
      "burgo": 7133,
      "amongst": 7134,
      "ctiveness": 7135,
      "smo": 7136,
      "imbab": 7137,
      "declaration": 7138,
      "prelimin": 7139,
      "immigrants": 7140,
      "April": 7141,
      "rient": 7142,
      "paralle": 7143,
      "monio": 7144,
      "Svezia": 7145,
      "alia": 7146,
      "spend": 7147,
      "domestic": 7148,
      "75": 7149,
      "realmente": 7150,
      "util": 7151,
      "superiore": 7152,
      "entially": 7153,
      "zech": 7154,
      "heav": 7155,
      "conforme": 7156,
      "none": 7157,
      "fattore": 7158,
      "sfer": 7159,
      "Czech": 7160,
      "bru": 7161,
      "isra": 7162,
      "ultime": 7163,
      "attle": 7164,
      "differenza": 7165,
      "obligation": 7166,
      "belling": 7167,
      "Zimbab": 7168,
      "ampi": 7169,
      "ottimo": 7170,
      "enjoy": 7171,
      "Zimbabwe": 7172,
      "indipendente": 7173,
      "qualunque": 7174,
      "moving": 7175,
      "atever": 7176,
      "compensation": 7177,
      "participate": 7178,
      "Fis": 7179,
      "azia": 7180,
      "tati": 7181,
      "verificare": 7182,
      "umano": 7183,
      "contrad": 7184,
      "hundred": 7185,
      "aprile": 7186,
      "option": 7187,
      "uo": 7188,
      "margin": 7189,
      "started": 7190,
      "impressione": 7191,
      "individuare": 7192,
      "generally": 7193,
      "Commissioners": 7194,
      "rebbero": 7195,
      "Agriculture": 7196,
      "C5": 7197,
      "initial": 7198,
      "sac": 7199,
      "fighting": 7200,
      "mobili": 7201,
      "epi": 7202,
      "played": 7203,
      "ev": 7204,
      "Alban": 7205,
      "riconosciuto": 7206,
      "rely": 7207,
      "professional": 7208,
      "Commissari": 7209,
      "neither": 7210,
      "ritardo": 7211,
      "buone": 7212,
      "occasion": 7213,
      "volti": 7214,
      "collective": 7215,
      "factors": 7216,
      "representative": 7217,
      "accur": 7218,
      "hose": 7219,
      "gave": 7220,
      "Such": 7221,
      "abbandon": 7222,
      "Go": 7223,
      "goals": 7224,
      "esclus": 7225,
      "easier": 7226,
      "tario": 7227,
      "spagno": 7228,
      "Albania": 7229,
      "».": 7230,
      "proposti": 7231,
      "signal": 7232,
      "99": 7233,
      "Question": 7234,
      "stood": 7235,
      "politicians": 7236,
      "var": 7237,
      "secolo": 7238,
      "welfare": 7239,
      "ological": 7240,
      "congiunta": 7241,
      "tobacco": 7242,
      "Ric": 7243,
      "impar": 7244,
      "imprendi": 7245,
      "pian": 7246,
      "vedasi": 7247,
      "Those": 7248,
      "delic": 7249,
      "presentazione": 7250,
      "noto": 7251,
      "sop": 7252,
      "works": 7253,
      "concreto": 7254,
      "unicamente": 7255,
      "soggetti": 7256,
      "Tunis": 7257,
      "mediter": 7258,
      "cele": 7259,
      "payment": 7260,
      "contribuito": 7261,
      "palestinese": 7262,
      "disciplin": 7263,
      "terra": 7264,
      "Qual": 7265,
      "bunale": 7266,
      "hom": 7267,
      "itt": 7268,
      "Resear": 7269,
      "tenendo": 7270,
      "assicura": 7271,
      "permanent": 7272,
      "contributions": 7273,
      "matico": 7274,
      "definitiva": 7275,
      "perfettamente": 7276,
      "encouraging": 7277,
      "Ov": 7278,
      "saving": 7279,
      "win": 7280,
      "parlamento": 7281,
      "Yet": 7282,
      "determination": 7283,
      "delighted": 7284,
      "oratori": 7285,
      "respected": 7286,
      "SV": 7287,
      "scen": 7288,
      "fas": 7289,
      "ricevere": 7290,
      "politics": 7291,
      "IG": 7292,
      "belong": 7293,
      "attacks": 7294,
      "trading": 7295,
      "From": 7296,
      "imposed": 7297,
      "maritime": 7298,
      "cercando": 7299,
      "pet": 7300,
      "whilst": 7301,
      "pote": 7302,
      "popul": 7303,
      "flexible": 7304,
      "permesso": 7305,
      "infr": 7306,
      "utin": 7307,
      "Market": 7308,
      "ratifica": 7309,
      "Mer": 7310,
      "esor": 7311,
      "tagli": 7312,
      "limitare": 7313,
      "Research": 7314,
      "Socialist": 7315,
      "Fe": 7316,
      "prescin": 7317,
      "adoper": 7318,
      "essendo": 7319,
      "naturale": 7320,
      "vigilanza": 7321,
      "facilitate": 7322,
      "dipende": 7323,
      "avete": 7324,
      "formulare": 7325,
      "path": 7326,
      "immigrati": 7327,
      "Ringrazio": 7328,
      "labelling": 7329,
      "usare": 7330,
      "colgo": 7331,
      "Feder": 7332,
      "incar": 7333,
      "rivel": 7334,
      "debt": 7335,
      "talvolta": 7336,
      "richiesto": 7337,
      "dimensioni": 7338,
      "languages": 7339,
      "reiter": 7340,
      "proposes": 7341,
      "century": 7342,
      "waiting": 7343,
      "andosi": 7344,
      "functioning": 7345,
      "constitutional": 7346,
      "speaker": 7347,
      "considerando": 7348,
      "Gaza": 7349,
      "B5": 7350,
      "submit": 7351,
      "continued": 7352,
      "AID": 7353,
      "produrre": 7354,
      "proseguire": 7355,
      "inclusion": 7356,
      "uguaglianza": 7357,
      "nership": 7358,
      "threaten": 7359,
      "ovvio": 7360,
      "interested": 7361,
      "ared": 7362,
      "terrà": 7363,
      "avrebbero": 7364,
      "experts": 7365,
      "omet": 7366,
      "impression": 7367,
      "DP": 7368,
      "crimes": 7369,
      "nes": 7370,
      "verse": 7371,
      "solve": 7372,
      "riguardanti": 7373,
      "fem": 7374,
      "size": 7375,
      "CS": 7376,
      "socialista": 7377,
      "satisfactory": 7378,
      "ethnic": 7379,
      "critica": 7380,
      "sapete": 7381,
      "Legal": 7382,
      "topic": 7383,
      "riche": 7384,
      "controllare": 7385,
      "soddisfare": 7386,
      "conflicts": 7387,
      "Bu": 7388,
      "pha": 7389,
      "prescindere": 7390,
      "requirement": 7391,
      "Consu": 7392,
      "operare": 7393,
      "offerta": 7394,
      "inviare": 7395,
      "atell": 7396,
      "truth": 7397,
      "profess": 7398,
      "mantenimento": 7399,
      "protest": 7400,
      "altrimenti": 7401,
      "rating": 7402,
      "fiscal": 7403,
      "guaranteed": 7404,
      "etichett": 7405,
      "Mill": 7406,
      "enab": 7407,
      "rein": 7408,
      "opinions": 7409,
      "awareness": 7410,
      "AIDS": 7411,
      "lation": 7412,
      "equally": 7413,
      "ventions": 7414,
      "razioni": 7415,
      "Concor": 7416,
      "costituzione": 7417,
      "itable": 7418,
      "bourg": 7419,
      "dinanzi": 7420,
      "comportamento": 7421,
      "concernente": 7422,
      "Comitato": 7423,
      "evening": 7424,
      "fif": 7425,
      "sera": 7426,
      "Em": 7427,
      "sottolinea": 7428,
      "adjust": 7429,
      "temporary": 7430,
      "IC": 7431,
      "prevenire": 7432,
      "Canada": 7433,
      "riflettere": 7434,
      "vive": 7435,
      "taluni": 7436,
      "israeli": 7437,
      "coinvolgimento": 7438,
      "pensa": 7439,
      "contrari": 7440,
      "appropriations": 7441,
      "corretta": 7442,
      "bank": 7443,
      "interessante": 7444,
      "sensibili": 7445,
      "apo": 7446,
      "uniform": 7447,
      "Strasbourg": 7448,
      "launch": 7449,
      "alimenti": 7450,
      "Nether": 7451,
      "realistic": 7452,
      "zze": 7453,
      "Netherlands": 7454,
      "impose": 7455,
      "avranno": 7456,
      "condivido": 7457,
      "consapevoli": 7458,
      "reaching": 7459,
      "negotiating": 7460,
      "enormi": 7461,
      "ottima": 7462,
      "lose": 7463,
      "normative": 7464,
      "agricoli": 7465,
      "restrictions": 7466,
      "partecip": 7467,
      "forthcoming": 7468,
      "án": 7469,
      "dedic": 7470,
      "drawing": 7471,
      "parlando": 7472,
      "Ovviamente": 7473,
      "imper": 7474,
      "indicato": 7475,
      "clan": 7476,
      "sessione": 7477,
      "personally": 7478,
      "adatt": 7479,
      "Organ": 7480,
      "conformità": 7481,
      "processi": 7482,
      "votazioni": 7483,
      "completa": 7484,
      "reflect": 7485,
      "illegale": 7486,
      "coni": 7487,
      "PAC": 7488,
      "ders": 7489,
      "Lux": 7490,
      "epoca": 7491,
      "written": 7492,
      "ctors": 7493,
      "helping": 7494,
      "Strasburgo": 7495,
      "operations": 7496,
      "accompagn": 7497,
      "graph": 7498,
      "mus": 7499,
      "culturali": 7500,
      "considerazioni": 7501,
      "B4": 7502,
      "coast": 7503,
      "strad": 7504,
      "tasks": 7505,
      "Nei": 7506,
      "customs": 7507,
      "codecisione": 7508,
      "investments": 7509,
      "Balkans": 7510,
      "artic": 7511,
      "Nonostante": 7512,
      "protected": 7513,
      "approvvigionamento": 7514,
      "95": 7515,
      "vesse": 7516,
      "condan": 7517,
      "permette": 7518,
      "Ba": 7519,
      "irsi": 7520,
      "nessuna": 7521,
      "rich": 7522,
      "sedi": 7523,
      "purposes": 7524,
      "Croati": 7525,
      "vegli": 7526,
      "itori": 7527,
      "Riteniamo": 7528,
      "Posso": 7529,
      "operate": 7530,
      "Bielorus": 7531,
      "trasparente": 7532,
      "Er": 7533,
      "Devo": 7534,
      "diseases": 7535,
      "traditional": 7536,
      "stia": 7537,
      "retribu": 7538,
      "sincer": 7539,
      "effectiveness": 7540,
      "Other": 7541,
      "ficato": 7542,
      "Luxemb": 7543,
      "ussemb": 7544,
      "ussembur": 7545,
      "orale": 7546,
      "deplo": 7547,
      "allowing": 7548,
      "numerous": 7549,
      "examine": 7550,
      "Omb": 7551,
      "compreso": 7552,
      "compagnie": 7553,
      "hop": 7554,
      "itano": 7555,
      "lect": 7556,
      "Bielorussia": 7557,
      "Ombud": 7558,
      "ota": 7559,
      "verità": 7560,
      "redi": 7561,
      "importo": 7562,
      "farà": 7563,
      "intent": 7564,
      "tered": 7565,
      "utch": 7566,
      "Part": 7567,
      "engers": 7568,
      "dependent": 7569,
      "rian": 7570,
      "spieg": 7571,
      "trasferimento": 7572,
      "patto": 7573,
      "quot": 7574,
      "dumping": 7575,
      "appoggiare": 7576,
      "terre": 7577,
      "enna": 7578,
      "petrolio": 7579,
      "chim": 7580,
      "aggiorn": 7581,
      "indub": 7582,
      "beni": 7583,
      "equival": 7584,
      "Stability": 7585,
      "OLAF": 7586,
      "decisionale": 7587,
      "rinno": 7588,
      "sostanza": 7589,
      "intendo": 7590,
      "associated": 7591,
      "Solo": 7592,
      "tabacco": 7593,
      "occor": 7594,
      "gone": 7595,
      "ricorre": 7596,
      "scala": 7597,
      "corruzione": 7598,
      "deliver": 7599,
      "respective": 7600,
      "gap": 7601,
      "ristrut": 7602,
      "arti": 7603,
      "aero": 7604,
      "legati": 7605,
      "diction": 7606,
      "ills": 7607,
      "worse": 7608,
      "competente": 7609,
      "codice": 7610,
      "Luxembour": 7611,
      "poore": 7612,
      "concedere": 7613,
      "exem": 7614,
      "peaceful": 7615,
      "asto": 7616,
      "Head": 7617,
      "dipendenti": 7618,
      "pescatori": 7619,
      "millions": 7620,
      "voluntary": 7621,
      "treated": 7622,
      "demonstrate": 7623,
      "demonstrated": 7624,
      "erog": 7625,
      "Man": 7626,
      "exists": 7627,
      "Not": 7628,
      "preferen": 7629,
      "holding": 7630,
      "argomenti": 7631,
      "disasters": 7632,
      "unded": 7633,
      "aprire": 7634,
      "liamo": 7635,
      "Ombudsman": 7636,
      "Luxembourg": 7637,
      "Action": 7638,
      "withdraw": 7639,
      "protocollo": 7640,
      "vostro": 7641,
      "High": 7642,
      "lʼ": 7643,
      "nazioni": 7644,
      "pagare": 7645,
      "Mediatore": 7646,
      "prepare": 7647,
      "pagamento": 7648,
      "risoluzioni": 7649,
      "mical": 7650,
      "ograph": 7651,
      "Baltic": 7652,
      "ification": 7653,
      "thorough": 7654,
      "Framework": 7655,
      "individuals": 7656,
      "warm": 7657,
      "scheme": 7658,
      "clusion": 7659,
      "favor": 7660,
      "contained": 7661,
      "colti": 7662,
      "britannico": 7663,
      "imprenditori": 7664,
      "glad": 7665,
      "etn": 7666,
      "liberali": 7667,
      "AR": 7668,
      "mbol": 7669,
      "soprav": 7670,
      "istra": 7671,
      "strict": 7672,
      "revision": 7673,
      "fuel": 7674,
      "technological": 7675,
      "esportazioni": 7676,
      "settle": 7677,
      "rifugiati": 7678,
      "ril": 7679,
      "utilizzati": 7680,
      "Uffici": 7681,
      "ination": 7682,
      "places": 7683,
      "meaning": 7684,
      "ricostruzione": 7685,
      "specialmente": 7686,
      "class": 7687,
      "occasions": 7688,
      "Treati": 7689,
      "bianco": 7690,
      "avvicin": 7691,
      "dinam": 7692,
      "remarks": 7693,
      "Treaties": 7694,
      "Ano": 7695,
      "sanitaria": 7696,
      "sovvenzioni": 7697,
      "ski": 7698,
      "operators": 7699,
      "1994": 7700,
      "orientamento": 7701,
      "portoghe": 7702,
      "Portugu": 7703,
      "ley": 7704,
      "perif": 7705,
      "molta": 7706,
      "geogra": 7707,
      "ello": 7708,
      "knows": 7709,
      "sexual": 7710,
      "erò": 7711,
      "personalmente": 7712,
      "Financial": 7713,
      "passengers": 7714,
      "passed": 7715,
      "Mil": 7716,
      "corruption": 7717,
      "organizzata": 7718,
      "Another": 7719,
      "CAP": 7720,
      "definito": 7721,
      "stabilito": 7722,
      "record": 7723,
      "esterno": 7724,
      "eventuali": 7725,
      "accolto": 7726,
      "tried": 7727,
      "honest": 7728,
      "White": 7729,
      "attori": 7730,
      "affrontato": 7731,
      "officials": 7732,
      "monopoli": 7733,
      "electric": 7734,
      "Stiamo": 7735,
      "Lon": 7736,
      "privato": 7737,
      "Patto": 7738,
      "geri": 7739,
      "etto": 7740,
      "advis": 7741,
      "comprensi": 7742,
      "Tibet": 7743,
      "intraprendere": 7744,
      "mersi": 7745,
      "approve": 7746,
      "toler": 7747,
      "salvaguar": 7748,
      "dispu": 7749,
      "irman": 7750,
      "appare": 7751,
      "umane": 7752,
      "profond": 7753,
      "Trattati": 7754,
      "notevoli": 7755,
      "feb": 7756,
      "stimo": 7757,
      "emergenza": 7758,
      "transizione": 7759,
      "profughi": 7760,
      "retain": 7761,
      "seguenti": 7762,
      "offers": 7763,
      "plant": 7764,
      "Sudan": 7765,
      "Portuguese": 7766,
      "legale": 7767,
      "cercato": 7768,
      "norma": 7769,
      "riflessione": 7770,
      "funzioni": 7771,
      "bilmente": 7772,
      "continuano": 7773,
      "average": 7774,
      "palestinesi": 7775,
      "Fer": 7776,
      "stretta": 7777,
      "tecnica": 7778,
      "allocated": 7779,
      "lat": 7780,
      "ultimately": 7781,
      "primarily": 7782,
      "core": 7783,
      "allev": 7784,
      "examples": 7785,
      "affor": 7786,
      "bound": 7787,
      "amounts": 7788,
      "pongono": 7789,
      "rei": 7790,
      "yes": 7791,
      "hed": 7792,
      "Lastly": 7793,
      "ammissi": 7794,
      "check": 7795,
      "contamin": 7796,
      "clausola": 7797,
      "legitimate": 7798,
      "Att": 7799,
      "arbit": 7800,
      "diplomat": 7801,
      "dignità": 7802,
      "condemn": 7803,
      "mur": 7804,
      "ambigu": 7805,
      "elevati": 7806,
      "changing": 7807,
      "exp": 7808,
      "inese": 7809,
      "intendiamo": 7810,
      "Prote": 7811,
      "succeed": 7812,
      "soddisfacente": 7813,
      "types": 7814,
      "entitled": 7815,
      "Budgets": 7816,
      "oppos": 7817,
      "olan": 7818,
      "concluded": 7819,
      "material": 7820,
      "oub": 7821,
      "svolta": 7822,
      "americani": 7823,
      "attesa": 7824,
      "extended": 7825,
      "Nice": 7826,
      "Innanzi": 7827,
      "navig": 7828,
      "contributi": 7829,
      "ONG": 7830,
      "saremo": 7831,
      "court": 7832,
      "fallimento": 7833,
      "vak": 7834,
      "front": 7835,
      "credito": 7836,
      "Women": 7837,
      "peso": 7838,
      "adeguamento": 7839,
      "giunto": 7840,
      "ennio": 7841,
      "caratter": 7842,
      "recentemente": 7843,
      "2012": 7844,
      "ships": 7845,
      "ciascuno": 7846,
      "zzata": 7847,
      "Tri": 7848,
      "Chiedo": 7849,
      "hor": 7850,
      "shar": 7851,
      "belie": 7852,
      "corsi": 7853,
      "dignity": 7854,
      "foot": 7855,
      "Bre": 7856,
      "peti": 7857,
      "neut": 7858,
      "cura": 7859,
      "benché": 7860,
      "Nizza": 7861,
      "realise": 7862,
      "avviato": 7863,
      "lap": 7864,
      "Mart": 7865,
      "esclusione": 7866,
      "hands": 7867,
      "etichettatura": 7868,
      "rima": 7869,
      "dico": 7870,
      "consis": 7871,
      "democratiche": 7872,
      "Bassi": 7873,
      "Desp": 7874,
      "Despite": 7875,
      "Kar": 7876,
      "Oltre": 7877,
      "monitoraggio": 7878,
      "recu": 7879,
      "overcome": 7880,
      "principalmente": 7881,
      "mettendo": 7882,
      "ama": 7883,
      "disting": 7884,
      "minis": 7885,
      "Chinese": 7886,
      "Biso": 7887,
      "ij": 7888,
      "intelli": 7889,
      "noted": 7890,
      "turned": 7891,
      "48": 7892,
      "difference": 7893,
      "universal": 7894,
      "lasciare": 7895,
      "emergency": 7896,
      "tesi": 7897,
      "Fundamental": 7898,
      "ptions": 7899,
      "unione": 7900,
      "sorta": 7901,
      "appieno": 7902,
      "durata": 7903,
      "alizzati": 7904,
      "significato": 7905,
      "toller": 7906,
      "ilo": 7907,
      "derivanti": 7908,
      "merita": 7909,
      "continuerà": 7910,
      "nevertheless": 7911,
      "repu": 7912,
      "identità": 7913,
      "squ": 7914,
      "importazioni": 7915,
      "cooperate": 7916,
      "Dutch": 7917,
      "insurance": 7918,
      "involves": 7919,
      "donesi": 7920,
      "Mal": 7921,
      "razz": 7922,
      "substance": 7923,
      "onde": 7924,
      "ombra": 7925,
      "soldi": 7926,
      "mod": 7927,
      "qualified": 7928,
      "competenti": 7929,
      "rurali": 7930,
      "firmly": 7931,
      "penalty": 7932,
      "centre": 7933,
      "combust": 7934,
      "imposte": 7935,
      "Ufficio": 7936,
      "elo": 7937,
      "lieta": 7938,
      "allar": 7939,
      "clandest": 7940,
      "calend": 7941,
      "investimento": 7942,
      "atmo": 7943,
      "statistics": 7944,
      "potremmo": 7945,
      "capitali": 7946,
      "stable": 7947,
      "Vogliamo": 7948,
      "phen": 7949,
      "space": 7950,
      "represented": 7951,
      "Ben": 7952,
      "camente": 7953,
      "felt": 7954,
      "whatever": 7955,
      "struction": 7956,
      "productive": 7957,
      "insta": 7958,
      "boo": 7959,
      "negoziato": 7960,
      "seriamente": 7961,
      "accres": 7962,
      "visita": 7963,
      "sfruttare": 7964,
      "dossi": 7965,
      "planned": 7966,
      "supervision": 7967,
      "Accolgo": 7968,
      "Yu": 7969,
      "vulnerable": 7970,
      "unless": 7971,
      "ministers": 7972,
      "salvaguardia": 7973,
      "ott": 7974,
      "xen": 7975,
      "simo": 7976,
      "convention": 7977,
      "verif": 7978,
      "gestire": 7979,
      "Organisation": 7980,
      "clause": 7981,
      "dine": 7982,
      "lastro": 7983,
      "tardi": 7984,
      "tanti": 7985,
      "erebbe": 7986,
      "ishing": 7987,
      "personali": 7988,
      "violations": 7989,
      "auspic": 7990,
      "Malta": 7991,
      "pilastro": 7992,
      "%,": 7993,
      "ghest": 7994,
      "anticip": 7995,
      "imports": 7996,
      "xed": 7997,
      "conside": 7998,
      "ets": 7999
    },
    "merges": [
      [
        "o",
        "n"
      ],
      [
        "r",
        "e"
      ],
      [
        "i",
        "n"
      ],
      [
        "h",
        "e"
      ],
      [
        "e",
        "n"
      ],
      [
        "a",
        "n"
      ],
      [
        "a",
        "t"
      ],
      [
        "e",
        "r"
      ],
      [
        "a",
        "l"
      ],
      [
        "t",
        "o"
      ],
      [
        "i",
        "on"
      ],
      [
        "i",
        "s"
      ],
      [
        "t",
        "he"
      ],
      [
        "o",
        "r"
      ],
      [
        "d",
        "e"
      ],
      [
        "i",
        "t"
      ],
      [
        "e",
        "s"
      ],
      [
        "r",
        "o"
      ],
      [
        "d",
        "i"
      ],
      [
        "l",
        "a"
      ],
      [
        "en",
        "t"
      ],
      [
        "l",
        "e"
      ],
      [
        "a",
        "r"
      ],
      [
        "i",
        "c"
      ],
      [
        "s",
        "t"
      ],
      [
        "u",
        "n"
      ],
      [
        "o",
        "m"
      ],
      [
        "s",
        "i"
      ],
      [
        "i",
        "l"
      ],
      [
        "s",
        "e"
      ],
      [
        "t",
        "h"
      ],
      [
        "o",
        "f"
      ],
      [
        "c",
        "on"
      ],
      [
        "a",
        "m"
      ],
      [
        "ion",
        "e"
      ],
      [
        "an",
        "d"
      ],
      [
        "p",
        "o"
      ],
      [
        "l",
        "i"
      ],
      [
        "de",
        "l"
      ],
      [
        "t",
        "i"
      ],
      [
        "r",
        "i"
      ],
      [
        "t",
        "e"
      ],
      [
        "a",
        "s"
      ],
      [
        "v",
        "e"
      ],
      [
        "p",
        "e"
      ],
      [
        "p",
        "ro"
      ],
      [
        "in",
        "g"
      ],
      [
        "c",
        "he"
      ],
      [
        "a",
        "re"
      ],
      [
        "s",
        "o"
      ],
      [
        "p",
        "er"
      ],
      [
        "n",
        "o"
      ],
      [
        "q",
        "u"
      ],
      [
        "o",
        "u"
      ],
      [
        "r",
        "a"
      ],
      [
        "s",
        "u"
      ],
      [
        "n",
        "e"
      ],
      [
        "b",
        "e"
      ],
      [
        "c",
        "i"
      ],
      [
        "t",
        "a"
      ],
      [
        "z",
        "ione"
      ],
      [
        "f",
        "or"
      ],
      [
        "d",
        "o"
      ],
      [
        "c",
        "om"
      ],
      [
        "c",
        "o"
      ],
      [
        "l",
        "o"
      ],
      [
        "u",
        "t"
      ],
      [
        "c",
        "e"
      ],
      [
        "u",
        "ro"
      ],
      [
        "m",
        "o"
      ],
      [
        "m",
        "ent"
      ],
      [
        "th",
        "at"
      ],
      [
        "v",
        "o"
      ],
      [
        "m",
        "e"
      ],
      [
        "c",
        "h"
      ],
      [
        "m",
        "a"
      ],
      [
        "p",
        "re"
      ],
      [
        "t",
        "er"
      ],
      [
        "l",
        "y"
      ],
      [
        "v",
        "i"
      ],
      [
        "uro",
        "pe"
      ],
      [
        "v",
        "er"
      ],
      [
        "at",
        "ion"
      ],
      [
        "e",
        "d"
      ],
      [
        "p",
        "or"
      ],
      [
        "g",
        "i"
      ],
      [
        "at",
        "i"
      ],
      [
        "w",
        "e"
      ],
      [
        "a",
        "c"
      ],
      [
        "at",
        "o"
      ],
      [
        "i",
        "m"
      ],
      [
        "h",
        "a"
      ],
      [
        "g",
        "li"
      ],
      [
        "m",
        "is"
      ],
      [
        "u",
        "r"
      ],
      [
        "al",
        "e"
      ],
      [
        "ent",
        "e"
      ],
      [
        "C",
        "om"
      ],
      [
        "on",
        "o"
      ],
      [
        "mis",
        "s"
      ],
      [
        "p",
        "ar"
      ],
      [
        "w",
        "h"
      ],
      [
        "b",
        "i"
      ],
      [
        "por",
        "t"
      ],
      [
        "p",
        "i"
      ],
      [
        "qu",
        "es"
      ],
      [
        "at",
        "e"
      ],
      [
        "e",
        "t"
      ],
      [
        "a",
        "g"
      ],
      [
        "en",
        "to"
      ],
      [
        "a",
        "b"
      ],
      [
        "z",
        "a"
      ],
      [
        "si",
        "d"
      ],
      [
        "z",
        "i"
      ],
      [
        "u",
        "s"
      ],
      [
        "al",
        "l"
      ],
      [
        "al",
        "i"
      ],
      [
        "del",
        "la"
      ],
      [
        "a",
        "d"
      ],
      [
        "f",
        "f"
      ],
      [
        "g",
        "o"
      ],
      [
        "n",
        "on"
      ],
      [
        "l",
        "d"
      ],
      [
        "ar",
        "i"
      ],
      [
        "z",
        "ion"
      ],
      [
        "u",
        "l"
      ],
      [
        "es",
        "s"
      ],
      [
        "t",
        "r"
      ],
      [
        "d",
        "a"
      ],
      [
        "Com",
        "miss"
      ],
      [
        "th",
        "is"
      ],
      [
        "m",
        "i"
      ],
      [
        "d",
        "u"
      ],
      [
        "c",
        "t"
      ],
      [
        "po",
        "s"
      ],
      [
        "p",
        "a"
      ],
      [
        "re",
        "s"
      ],
      [
        "am",
        "o"
      ],
      [
        "m",
        "b"
      ],
      [
        "ne",
        "l"
      ],
      [
        "un",
        "a"
      ],
      [
        "it",
        "h"
      ],
      [
        "E",
        "urope"
      ],
      [
        "a",
        "p"
      ],
      [
        "ic",
        "h"
      ],
      [
        "g",
        "h"
      ],
      [
        "ic",
        "a"
      ],
      [
        "U",
        "n"
      ],
      [
        "it",
        "à"
      ],
      [
        "no",
        "t"
      ],
      [
        "g",
        "n"
      ],
      [
        "w",
        "ith"
      ],
      [
        "r",
        "is"
      ],
      [
        "d",
        "is"
      ],
      [
        "ou",
        "ld"
      ],
      [
        "il",
        "l"
      ],
      [
        "re",
        "sid"
      ],
      [
        "ha",
        "ve"
      ],
      [
        "T",
        "he"
      ],
      [
        "P",
        "resid"
      ],
      [
        "it",
        "i"
      ],
      [
        "c",
        "a"
      ],
      [
        "t",
        "en"
      ],
      [
        "e",
        "urope"
      ],
      [
        "m",
        "an"
      ],
      [
        "c",
        "or"
      ],
      [
        "del",
        "l"
      ],
      [
        "i",
        "r"
      ],
      [
        "po",
        "l"
      ],
      [
        "de",
        "i"
      ],
      [
        "ou",
        "r"
      ],
      [
        "f",
        "in"
      ],
      [
        "pre",
        "s"
      ],
      [
        "zion",
        "i"
      ],
      [
        "ic",
        "o"
      ],
      [
        "g",
        "u"
      ],
      [
        "con",
        "t"
      ],
      [
        "it",
        "y"
      ],
      [
        "g",
        "r"
      ],
      [
        "wh",
        "ich"
      ],
      [
        "u",
        "p"
      ],
      [
        "Europe",
        "an"
      ],
      [
        "a",
        "zione"
      ],
      [
        "st",
        "r"
      ],
      [
        "su",
        "l"
      ],
      [
        "s",
        "a"
      ],
      [
        "an",
        "o"
      ],
      [
        "k",
        "e"
      ],
      [
        "ent",
        "i"
      ],
      [
        "al",
        "la"
      ],
      [
        "e",
        "x"
      ],
      [
        "s",
        "h"
      ],
      [
        "p",
        "ri"
      ],
      [
        "e",
        "re"
      ],
      [
        "S",
        "t"
      ],
      [
        "ch",
        "i"
      ],
      [
        "c",
        "u"
      ],
      [
        "u",
        "st"
      ],
      [
        "v",
        "a"
      ],
      [
        "m",
        "in"
      ],
      [
        "P",
        "ar"
      ],
      [
        "b",
        "y"
      ],
      [
        "b",
        "le"
      ],
      [
        "o",
        "p"
      ],
      [
        "w",
        "ill"
      ],
      [
        "l",
        "u"
      ],
      [
        "at",
        "a"
      ],
      [
        "I",
        "n"
      ],
      [
        "t",
        "to"
      ],
      [
        "r",
        "it"
      ],
      [
        "m",
        "er"
      ],
      [
        "ic",
        "i"
      ],
      [
        "en",
        "d"
      ],
      [
        "in",
        "ter"
      ],
      [
        "at",
        "t"
      ],
      [
        "u",
        "re"
      ],
      [
        "am",
        "ente"
      ],
      [
        "del",
        "le"
      ],
      [
        "s",
        "ono"
      ],
      [
        "h",
        "as"
      ],
      [
        "is",
        "t"
      ],
      [
        "m",
        "ento"
      ],
      [
        "on",
        "e"
      ],
      [
        "e",
        "l"
      ],
      [
        "an",
        "t"
      ],
      [
        "M",
        "r"
      ],
      [
        "v",
        "en"
      ],
      [
        "e",
        "m"
      ],
      [
        "Commiss",
        "ion"
      ],
      [
        "f",
        "o"
      ],
      [
        "an",
        "no"
      ],
      [
        "or",
        "i"
      ],
      [
        "the",
        "r"
      ],
      [
        "d",
        "er"
      ],
      [
        "ion",
        "s"
      ],
      [
        "pol",
        "it"
      ],
      [
        "par",
        "t"
      ],
      [
        "it",
        "u"
      ],
      [
        "t",
        "re"
      ],
      [
        "0",
        "0"
      ],
      [
        "com",
        "e"
      ],
      [
        "c",
        "an"
      ],
      [
        "t",
        "ra"
      ],
      [
        "g",
        "gi"
      ],
      [
        "w",
        "or"
      ],
      [
        "s",
        "er"
      ],
      [
        "c",
        "ess"
      ],
      [
        "mb",
        "er"
      ],
      [
        "c",
        "re"
      ],
      [
        "ou",
        "t"
      ],
      [
        "re",
        "g"
      ],
      [
        "g",
        "e"
      ],
      [
        "t",
        "ut"
      ],
      [
        "b",
        "il"
      ],
      [
        "im",
        "port"
      ],
      [
        "p",
        "l"
      ],
      [
        "am",
        "ent"
      ],
      [
        "co",
        "l"
      ],
      [
        "gh",
        "t"
      ],
      [
        "c",
        "er"
      ],
      [
        "te",
        "d"
      ],
      [
        "a",
        "i"
      ],
      [
        "C",
        "on"
      ],
      [
        "le",
        "g"
      ],
      [
        "ques",
        "to"
      ],
      [
        "pi",
        "ù"
      ],
      [
        "vo",
        "l"
      ],
      [
        "europe",
        "a"
      ],
      [
        "h",
        "o"
      ],
      [
        "n",
        "u"
      ],
      [
        "c",
        "es"
      ],
      [
        "f",
        "a"
      ],
      [
        "p",
        "r"
      ],
      [
        "an",
        "to"
      ],
      [
        "g",
        "en"
      ],
      [
        "ar",
        "d"
      ],
      [
        "or",
        "o"
      ],
      [
        "o",
        "l"
      ],
      [
        "t",
        "ri"
      ],
      [
        "Commiss",
        "ione"
      ],
      [
        "i",
        "f"
      ],
      [
        "e",
        "con"
      ],
      [
        "p",
        "u"
      ],
      [
        "st",
        "a"
      ],
      [
        "Un",
        "ione"
      ],
      [
        "di",
        "re"
      ],
      [
        "es",
        "se"
      ],
      [
        "m",
        "on"
      ],
      [
        "gn",
        "or"
      ],
      [
        "so",
        "ci"
      ],
      [
        "si",
        "a"
      ],
      [
        "w",
        "ould"
      ],
      [
        "an",
        "che"
      ],
      [
        "v",
        "is"
      ],
      [
        "al",
        "so"
      ],
      [
        "r",
        "ic"
      ],
      [
        "t",
        "ro"
      ],
      [
        "u",
        "se"
      ],
      [
        "u",
        "to"
      ],
      [
        "ques",
        "t"
      ],
      [
        "co",
        "un"
      ],
      [
        "S",
        "i"
      ],
      [
        "es",
        "i"
      ],
      [
        "la",
        "r"
      ],
      [
        "in",
        "e"
      ],
      [
        "en",
        "za"
      ],
      [
        "s",
        "pe"
      ],
      [
        "pres",
        "ent"
      ],
      [
        "the",
        "re"
      ],
      [
        "T",
        "h"
      ],
      [
        "ment",
        "e"
      ],
      [
        "ro",
        "m"
      ],
      [
        "am",
        "ento"
      ],
      [
        "t",
        "ti"
      ],
      [
        "b",
        "ut"
      ],
      [
        "sh",
        "ould"
      ],
      [
        "la",
        "mento"
      ],
      [
        "L",
        "a"
      ],
      [
        "la",
        "zione"
      ],
      [
        "at",
        "es"
      ],
      [
        "an",
        "te"
      ],
      [
        "p",
        "le"
      ],
      [
        "ac",
        "t"
      ],
      [
        "in",
        "i"
      ],
      [
        "Presid",
        "ente"
      ],
      [
        "Presid",
        "ent"
      ],
      [
        "econ",
        "om"
      ],
      [
        "al",
        "ly"
      ],
      [
        "ari",
        "o"
      ],
      [
        "p",
        "on"
      ],
      [
        "gli",
        "o"
      ],
      [
        "m",
        "it"
      ],
      [
        "m",
        "at"
      ],
      [
        "an",
        "s"
      ],
      [
        "f",
        "rom"
      ],
      [
        "re",
        "vo"
      ],
      [
        "W",
        "e"
      ],
      [
        "z",
        "za"
      ],
      [
        "v",
        "es"
      ],
      [
        "i",
        "re"
      ],
      [
        "M",
        "e"
      ],
      [
        "b",
        "l"
      ],
      [
        "pos",
        "si"
      ],
      [
        "de",
        "re"
      ],
      [
        "m",
        "ust"
      ],
      [
        "ion",
        "i"
      ],
      [
        "bi",
        "amo"
      ],
      [
        "ver",
        "y"
      ],
      [
        "g",
        "et"
      ],
      [
        "al",
        "le"
      ],
      [
        "i",
        "a"
      ],
      [
        "t",
        "t"
      ],
      [
        "o",
        "c"
      ],
      [
        "re",
        "n"
      ],
      [
        "c",
        "is"
      ],
      [
        "esse",
        "re"
      ],
      [
        "r",
        "on"
      ],
      [
        "li",
        "ament"
      ],
      [
        "an",
        "ti"
      ],
      [
        "in",
        "te"
      ],
      [
        "f",
        "i"
      ],
      [
        "a",
        "v"
      ],
      [
        "ation",
        "s"
      ],
      [
        "wor",
        "k"
      ],
      [
        "no",
        "st"
      ],
      [
        "and",
        "o"
      ],
      [
        "o",
        "b"
      ],
      [
        "b",
        "u"
      ],
      [
        "de",
        "ve"
      ],
      [
        "re",
        "e"
      ],
      [
        "Me",
        "mber"
      ],
      [
        "as",
        "s"
      ],
      [
        "I",
        "t"
      ],
      [
        "be",
        "en"
      ],
      [
        "e",
        "ff"
      ],
      [
        "for",
        "m"
      ],
      [
        "il",
        "i"
      ],
      [
        "C",
        "o"
      ],
      [
        "ment",
        "s"
      ],
      [
        "b",
        "er"
      ],
      [
        "re",
        "l"
      ],
      [
        "pro",
        "ble"
      ],
      [
        "n",
        "a"
      ],
      [
        "f",
        "er"
      ],
      [
        "w",
        "he"
      ],
      [
        "pro",
        "po"
      ],
      [
        "to",
        "r"
      ],
      [
        "Un",
        "ion"
      ],
      [
        "a",
        "ff"
      ],
      [
        "om",
        "e"
      ],
      [
        "Par",
        "lamento"
      ],
      [
        "ul",
        "t"
      ],
      [
        "o",
        "per"
      ],
      [
        "Par",
        "liament"
      ],
      [
        "z",
        "z"
      ],
      [
        "mo",
        "re"
      ],
      [
        "it",
        "s"
      ],
      [
        "c",
        "ti"
      ],
      [
        "com",
        "un"
      ],
      [
        "2",
        "00"
      ],
      [
        "ic",
        "he"
      ],
      [
        "an",
        "ce"
      ],
      [
        "ou",
        "s"
      ],
      [
        "in",
        "di"
      ],
      [
        "at",
        "to"
      ],
      [
        "m",
        "ar"
      ],
      [
        "re",
        "port"
      ],
      [
        "bi",
        "le"
      ],
      [
        "en",
        "s"
      ],
      [
        "y",
        "ou"
      ],
      [
        "un",
        "d"
      ],
      [
        "ono",
        "revo"
      ],
      [
        "am",
        "bi"
      ],
      [
        "Si",
        "gnor"
      ],
      [
        "St",
        "ati"
      ],
      [
        "cu",
        "i"
      ],
      [
        "no",
        "w"
      ],
      [
        "ch",
        "é"
      ],
      [
        "l",
        "l"
      ],
      [
        "es",
        "t"
      ],
      [
        "c",
        "it"
      ],
      [
        "at",
        "ti"
      ],
      [
        "ic",
        "e"
      ],
      [
        "so",
        "l"
      ],
      [
        "fo",
        "re"
      ],
      [
        "ne",
        "cess"
      ],
      [
        "me",
        "mb"
      ],
      [
        "dis",
        "c"
      ],
      [
        "mo",
        "l"
      ],
      [
        "ab",
        "le"
      ],
      [
        "ar",
        "y"
      ],
      [
        "w",
        "as"
      ],
      [
        "st",
        "e"
      ],
      [
        "se",
        "d"
      ],
      [
        "an",
        "i"
      ],
      [
        "b",
        "be"
      ],
      [
        "ap",
        "pro"
      ],
      [
        "la",
        "v"
      ],
      [
        "o",
        "d"
      ],
      [
        "n",
        "i"
      ],
      [
        "cont",
        "ro"
      ],
      [
        "re",
        "lazione"
      ],
      [
        "an",
        "zi"
      ],
      [
        "ct",
        "ion"
      ],
      [
        "en",
        "e"
      ],
      [
        "ra",
        "p"
      ],
      [
        "E",
        "U"
      ],
      [
        "de",
        "gli"
      ],
      [
        "in",
        "t"
      ],
      [
        "li",
        "ke"
      ],
      [
        "sid",
        "er"
      ],
      [
        "St",
        "ates"
      ],
      [
        "di",
        "rit"
      ],
      [
        "w",
        "a"
      ],
      [
        "si",
        "glio"
      ],
      [
        "ques",
        "ta"
      ],
      [
        "su",
        "p"
      ],
      [
        "ati",
        "ve"
      ],
      [
        "c",
        "il"
      ],
      [
        "l",
        "lo"
      ],
      [
        "Con",
        "siglio"
      ],
      [
        "wh",
        "o"
      ],
      [
        "ic",
        "al"
      ],
      [
        "in",
        "ci"
      ],
      [
        "di",
        "ff"
      ],
      [
        "ere",
        "n"
      ],
      [
        "Co",
        "un"
      ],
      [
        "the",
        "ir"
      ],
      [
        "b",
        "a"
      ],
      [
        "e",
        "ar"
      ],
      [
        "i",
        "d"
      ],
      [
        "ri",
        "ght"
      ],
      [
        "Coun",
        "cil"
      ],
      [
        "er",
        "s"
      ],
      [
        "str",
        "u"
      ],
      [
        "E",
        "uro"
      ],
      [
        "u",
        "man"
      ],
      [
        "e",
        "le"
      ],
      [
        "g",
        "ra"
      ],
      [
        "I",
        "l"
      ],
      [
        "de",
        "cis"
      ],
      [
        "europe",
        "o"
      ],
      [
        "am",
        "e"
      ],
      [
        "an",
        "ci"
      ],
      [
        "z",
        "e"
      ],
      [
        "up",
        "po"
      ],
      [
        "memb",
        "ri"
      ],
      [
        "nel",
        "la"
      ],
      [
        "ne",
        "ed"
      ],
      [
        "qu",
        "al"
      ],
      [
        "cti",
        "ve"
      ],
      [
        "k",
        "ing"
      ],
      [
        "p",
        "are"
      ],
      [
        "a",
        "u"
      ],
      [
        "it",
        "ion"
      ],
      [
        "f",
        "on"
      ],
      [
        "u",
        "ra"
      ],
      [
        "o",
        "ther"
      ],
      [
        "m",
        "en"
      ],
      [
        "s",
        "itu"
      ],
      [
        "par",
        "te"
      ],
      [
        "d",
        "al"
      ],
      [
        "c",
        "y"
      ],
      [
        "qu",
        "anto"
      ],
      [
        "c",
        "lu"
      ],
      [
        "Th",
        "is"
      ],
      [
        "e",
        "ve"
      ],
      [
        "ab",
        "il"
      ],
      [
        "in",
        "st"
      ],
      [
        "pa",
        "esi"
      ],
      [
        "v",
        "al"
      ],
      [
        "the",
        "se"
      ],
      [
        "a",
        "do"
      ],
      [
        "f",
        "ic"
      ],
      [
        "ation",
        "al"
      ],
      [
        "polit",
        "ica"
      ],
      [
        "de",
        "d"
      ],
      [
        "qu",
        "el"
      ],
      [
        "c",
        "ent"
      ],
      [
        "res",
        "pon"
      ],
      [
        "gr",
        "am"
      ],
      [
        "ti",
        "me"
      ],
      [
        "v",
        "il"
      ],
      [
        "the",
        "y"
      ],
      [
        "p",
        "la"
      ],
      [
        "at",
        "ed"
      ],
      [
        "es",
        "e"
      ],
      [
        "f",
        "e"
      ],
      [
        "mo",
        "c"
      ],
      [
        "c",
        "ar"
      ],
      [
        "is",
        "h"
      ],
      [
        "go",
        "ver"
      ],
      [
        "j",
        "e"
      ],
      [
        "la",
        "re"
      ],
      [
        "de",
        "b"
      ],
      [
        "o",
        "s"
      ],
      [
        "it",
        "e"
      ],
      [
        "ca",
        "use"
      ],
      [
        "c",
        "ur"
      ],
      [
        "r",
        "u"
      ],
      [
        "do",
        "v"
      ],
      [
        "sul",
        "la"
      ],
      [
        "tri",
        "es"
      ],
      [
        "on",
        "g"
      ],
      [
        "v",
        "ent"
      ],
      [
        "i",
        "to"
      ],
      [
        "wa",
        "y"
      ],
      [
        "Euro",
        "pa"
      ],
      [
        "coun",
        "tries"
      ],
      [
        "pro",
        "pos"
      ],
      [
        "onorevo",
        "le"
      ],
      [
        "h",
        "anno"
      ],
      [
        "pro",
        "gram"
      ],
      [
        "g",
        "no"
      ],
      [
        "or",
        "d"
      ],
      [
        "be",
        "t"
      ],
      [
        "ne",
        "w"
      ],
      [
        "gu",
        "ar"
      ],
      [
        "nu",
        "o"
      ],
      [
        "s",
        "ome"
      ],
      [
        "f",
        "ar"
      ],
      [
        "tut",
        "ti"
      ],
      [
        "co",
        "st"
      ],
      [
        "ac",
        "cor"
      ],
      [
        "wh",
        "at"
      ],
      [
        "disc",
        "us"
      ],
      [
        "th",
        "an"
      ],
      [
        "re",
        "at"
      ],
      [
        "c",
        "le"
      ],
      [
        "Q",
        "u"
      ],
      [
        "t",
        "ta"
      ],
      [
        "r",
        "at"
      ],
      [
        "pr",
        "inci"
      ],
      [
        "m",
        "y"
      ],
      [
        "m",
        "s"
      ],
      [
        "na",
        "zion"
      ],
      [
        "c",
        "as"
      ],
      [
        "s",
        "ione"
      ],
      [
        "et",
        "ti"
      ],
      [
        "an",
        "za"
      ],
      [
        "ab",
        "out"
      ],
      [
        "l",
        "oro"
      ],
      [
        "t",
        "à"
      ],
      [
        "P",
        "er"
      ],
      [
        "p",
        "en"
      ],
      [
        "s",
        "en"
      ],
      [
        "op",
        "le"
      ],
      [
        "iti",
        "es"
      ],
      [
        "es",
        "so"
      ],
      [
        "c",
        "un"
      ],
      [
        "f",
        "ut"
      ],
      [
        "o",
        "re"
      ],
      [
        "te",
        "m"
      ],
      [
        "import",
        "ant"
      ],
      [
        "cont",
        "in"
      ],
      [
        "per",
        "s"
      ],
      [
        "te",
        "re"
      ],
      [
        "f",
        "ul"
      ],
      [
        "ut",
        "ion"
      ],
      [
        "n",
        "ational"
      ],
      [
        "p",
        "t"
      ],
      [
        "pro",
        "du"
      ],
      [
        "spe",
        "ci"
      ],
      [
        "o",
        "ver"
      ],
      [
        "de",
        "moc"
      ],
      [
        "se",
        "gu"
      ],
      [
        "ic",
        "y"
      ],
      [
        "nel",
        "l"
      ],
      [
        "f",
        "atto"
      ],
      [
        "ment",
        "i"
      ],
      [
        "y",
        "ear"
      ],
      [
        "mo",
        "do"
      ],
      [
        "tr",
        "as"
      ],
      [
        "en",
[...]
