{
  "version": "1.0",
  "truncation": null,
  "padding": null,
  "added_tokens": [
    {
      "id": 0,
      "content": "<s>",
      "single_word": false,
      "lstrip": false,
      "rstrip": false,
      "normalized": false,
      "special": true
    },
    {
      "id": 1,
      "content": "</s>",
      "single_word": false,
      "lstrip": false,
      "rstrip": false,
      "normalized": false,
      "special": true
    },
    {
      "id": 2,
      "content": "<pad>",
      "single_word": false,
      "lstrip": false,
      "rstrip": false,
      "normalized": false,
      "special": true
    },
    {
      "id": 3,
      "content": "<unk>",
      "single_word": false,
      "lstrip": false,
      "rstrip": false,
      "normalized": false,
      "special": true
    }
  ],
  "normalizer": null,
  "pre_tokenizer": {
    "type": "Whitespace"
  },
  "post_processor": null,
  "decoder": null,
  "model": {
    "type": "BPE",
    "dropout": null,
    "unk_token": null,
    "continuing_subword_prefix": null,
    "end_of_word_suffix": null,
    "fuse_unk": false,
    "byte_fallback": false,
    "ignore_merges": false,
    "vocab": {
      "<s>": 0,
      "</s>": 1,
      "<pad>": 2,
      "<unk>": 3,
      "!": 4,
      "\"": 5,
      "$": 6,
      "%": 7,
      "&": 8,
      "'": 9,
      "(": 10,
      ")": 11,
      "+": 12,
      ",": 13,
      "-": 14,
      ".": 15,
      "/": 16,
      "0": 17,
      "1": 18,
      "2": 19,
      "3": 20,
      "4": 21,
      "5": 22,
      "6": 23,
      "7": 24,
      "8": 25,
      "9": 26,
      ":": 27,
      ";": 28,
      "=": 29,
      "?": 30,
      "@": 31,
      "A": 32,
      "B": 33,
      "C": 34,
      "D": 35,
      "E": 36,
      "F": 37,
      "G": 38,
      "H": 39,
      "I": 40,
      "J": 41,
      "K": 42,
      "L": 43,
      "M": 44,
      "N": 45,
      "O": 46,
      "P": 47,
      "Q": 48,
      "R": 49,
      "S": 50,
      "T": 51,
      "U": 52,
      "V": 53,
      "W": 54,
      "X": 55,
      "Y": 56,
      "Z": 57,
      "[": 58,
      "\\": 59,
      "]": 60,
      "`": 61,
      "a": 62,
      "b": 63,
      "c": 64,
      "d": 65,
      "e": 66,
      "f": 67,
      "g": 68,
      "h": 69,
      "i": 70,
      "j": 71,
      "k": 72,
      "l": 73,
      "m": 74,
      "n": 75,
      "o": 76,
      "p": 77,
      "q": 78,
      "r": 79,
      "s": 80,
      "t": 81,
      "u": 82,
      "v": 83,
      "w": 84,
      "x": 85,
      "y": 86,
      "z": 87,
      "£": 88,
      "§": 89,
      "ª": 90,
      "«": 91,
      "­": 92,
      "°": 93,
      "´": 94,
      "·": 95,
      "º": 96,
      "»": 97,
      "Á": 98,
      "Å": 99,
      "Ç": 100,
      "È": 101,
      "É": 102,
      "Í": 103,
      "Ï": 104,
      "Ò": 105,
      "Ó": 106,
      "Ô": 107,
      "Ö": 108,
      "Ø": 109,
      "Ù": 110,
      "ß": 111,
      "à": 112,
      "á": 113,
      "â": 114,
      "ã": 115,
      "ä": 116,
      "å": 117,
      "æ": 118,
      "ç": 119,
      "è": 120,
      "é": 121,
      "ê": 122,
      "ë": 123,
      "ì": 124,
      "í": 125,
      "î": 126,
      "ï": 127,
      "ñ": 128,
      "ò": 129,
      "ó": 130,
      "ô": 131,
      "ö": 132,
      "ø": 133,
      "ù": 134,
      "ú": 135,
      "û": 136,
      "ü": 137,
      "ý": 138,
      "ă": 139,
      "ą": 140,
      "ć": 141,
      "č": 142,
      "ė": 143,
      "ę": 144,
      "ě": 145,
      "ğ": 146,
      "Ģ": 147,
      "ī": 148,
      "ķ": 149,
      "ľ": 150,
      "Ł": 151,
      "ł": 152,
      "ń": 153,
      "ň": 154,
      "Ő": 155,
      "ő": 156,
      "ř": 157,
      "ś": 158,
      "ş": 159,
      "Š": 160,
      "š": 161,
      "Ţ": 162,
      "ţ": 163,
      "ū": 164,
      "ų": 165,
      "ź": 166,
      "Ž": 167,
      "ž": 168,
      "ǎ": 169,
      "ʻ": 170,
      "ʼ": 171,
      "Α": 172,
      "Ε": 173,
      "Ι": 174,
      "Κ": 175,
      "Μ": 176,
      "Ν": 177,
      "Ο": 178,
      "Τ": 179,
      "О": 180,
      "а": 181,
      "в": 182,
      "е": 183,
      "и": 184,
      "н": 185,
      "о": 186,
      "п": 187,
      "с": 188,
      "т": 189,
      "ч": 190,
      "​": 191,
      "–": 192,
      "—": 193,
      "‘": 194,
      "’": 195,
      "“": 196,
      "”": 197,
      "•": 198,
      "…": 199,
      "€": 200,
      "−": 201,
      "┌": 202,
      "�": 203,
      "on": 204,
      "re": 205,
      "in": 206,
      "he": 207,
      "en": 208,
      "an": 209,
      "at": 210,
      "er": 211,
      "al": 212,
      "to": 213,
      "ion": 214,
      "is": 215,
      "the": 216,
      "or": 217,
      "de": 218,
      "it": 219,
      "es": 220,
      "ro": 221,
      "di": 222,
      "la": 223,
      "ent": 224,
      "ar": 225,
      "le": 226,
      "ic": 227,
      "st": 228,
      "un": 229,
      "om": 230,
      "si": 231,
      "il": 232,
      "se": 233,
      "th": 234,
      "of": 235,
      "con": 236,
      "am": 237,
      "ione": 238,
      "and": 239,
      "po": 240,
      "li": 241,
      "ri": 242,
      "del": 243,
      "ti": 244,
      "te": 245,
      "as": 246,
      "ve": 247,
      "pe": 248,
      "ing": 249,
      "pro": 250,
      "che": 251,
      "are": 252,
      "so": 253,
      "per": 254,
      "no": 255,
      "qu": 256,
      "ou": 257,
      "ra": 258,
      "su": 259,
      "be": 260,
      "ne": 261,
      "ci": 262,
      "ta": 263,
      "zione": 264,
      "for": 265,
      "do": 266,
      "com": 267,
      "co": 268,
      "lo": 269,
      "uro": 270,
      "ut": 271,
      "ce": 272,
      "mo": 273,
      "ment": 274,
      "that": 275,
      "vo": 276,
      "me": 277,
      "ma": 278,
      "ch": 279,
      "pre": 280,
      "ter": 281,
      "ly": 282,
      "urope": 283,
      "ation": 284,
      "ver": 285,
      "we": 286,
      "vi": 287,
      "gi": 288,
      "por": 289,
      "ati": 290,
      "ed": 291,
      "ac": 292,
      "ato": 293,
      "ha": 294,
      "im": 295,
      "gli": 296,
      "mis": 297,
      "ur": 298,
      "ale": 299,
      "ente": 300,
      "Com": 301,
      "ono": 302,
      "miss": 303,
      "par": 304,
      "bi": 305,
      "wh": 306,
      "pi": 307,
      "port": 308,
      "ques": 309,
      "ate": 310,
      "et": 311,
      "ag": 312,
      "ento": 313,
      "ab": 314,
      "za": 315,
      "sid": 316,
      "zi": 317,
      "della": 318,
      "all": 319,
      "us": 320,
      "da": 321,
      "go": 322,
      "ff": 323,
      "non": 324,
      "ali": 325,
      "ul": 326,
      "zion": 327,
      "ari": 328,
      "ld": 329,
      "ess": 330,
      "Commiss": 331,
      "tr": 332,
      "ad": 333,
      "this": 334,
      "mi": 335,
      "du": 336,
      "ct": 337,
      "pa": 338,
      "pos": 339,
      "amo": 340,
      "res": 341,
      "Europe": 342,
      "nel": 343,
      "una": 344,
      "ith": 345,
      "mb": 346,
      "ica": 347,
      "ich": 348,
      "Un": 349,
      "ità": 350,
      "gh": 351,
      "ca": 352,
      "gn": 353,
      "not": 354,
      "with": 355,
      "ris": 356,
      "dis": 357,
      "ould": 358,
      "ill": 359,
      "have": 360,
      "resid": 361,
      "The": 362,
      "iti": 363,
      "Presid": 364,
      "ap": 365,
      "europe": 366,
      "man": 367,
      "ten": 368,
      "cor": 369,
      "ir": 370,
      "dell": 371,
      "pol": 372,
      "pres": 373,
      "dei": 374,
      "fin": 375,
      "our": 376,
      "gu": 377,
      "ity": 378,
      "zioni": 379,
      "ico": 380,
      "cont": 381,
      "gr": 382,
      "up": 383,
      "which": 384,
      "str": 385,
      "European": 386,
      "azione": 387,
      "sul": 388,
      "ke": 389,
      "ano": 390,
      "enti": 391,
      "sa": 392,
      "ex": 393,
      "alla": 394,
      "pri": 395,
      "sh": 396,
      "ere": 397,
      "ust": 398,
      "cu": 399,
      "St": 400,
      "chi": 401,
      "va": 402,
      "Par": 403,
      "min": 404,
      "by": 405,
      "op": 406,
      "will": 407,
      "ble": 408,
      "ata": 409,
      "lu": 410,
      "In": 411,
      "rit": 412,
      "tto": 413,
      "ici": 414,
      "mer": 415,
      "inter": 416,
      "ure": 417,
      "att": 418,
      "end": 419,
      "amente": 420,
      "sono": 421,
      "mento": 422,
      "delle": 423,
      "has": 424,
      "ist": 425,
      "one": 426,
      "Mr": 427,
      "Commission": 428,
      "em": 429,
      "el": 430,
      "ven": 431,
      "ant": 432,
      "fo": 433,
      "ions": 434,
      "anno": 435,
      "der": 436,
      "part": 437,
      "ther": 438,
      "polit": 439,
      "tre": 440,
      "00": 441,
      "ori": 442,
      "itu": 443,
      "can": 444,
      "come": 445,
      "tra": 446,
      "ggi": 447,
      "out": 448,
      "wor": 449,
      "ser": 450,
      "cess": 451,
      "cre": 452,
      "reg": 453,
      "bil": 454,
      "mber": 455,
      "tut": 456,
      "ge": 457,
      "pl": 458,
      "ament": 459,
      "ght": 460,
      "cer": 461,
      "ted": 462,
      "ai": 463,
      "import": 464,
      "leg": 465,
      "Con": 466,
      "col": 467,
      "questo": 468,
      "europea": 469,
      "vol": 470,
      "più": 471,
      "ho": 472,
      "fa": 473,
      "anto": 474,
      "pr": 475,
      "nu": 476,
      "ces": 477,
      "enza": 478,
      "ard": 479,
      "ol": 480,
      "Commissione": 481,
      "Unione": 482,
      "econ": 483,
      "sta": 484,
      "oro": 485,
      "mon": 486,
      "tri": 487,
      "pu": 488,
      "if": 489,
      "esse": 490,
      "dire": 491,
      "soci": 492,
      "sia": 493,
      "gnor": 494,
      "would": 495,
      "ine": 496,
      "ric": 497,
      "also": 498,
      "tro": 499,
      "anche": 500,
      "vis": 501,
      "use": 502,
      "uto": 503,
      "gen": 504,
      "spe": 505,
      "quest": 506,
      "there": 507,
      "but": 508,
      "mente": 509,
      "Si": 510,
      "esi": 511,
      "lazione": 512,
      "coun": 513,
      "Th": 514,
      "present": 515,
      "lar": 516,
      "rom": 517,
      "lamento": 518,
      "La": 519,
      "ini": 520,
      "should": 521,
      "act": 522,
      "ates": 523,
      "amento": 524,
      "tti": 525,
      "ante": 526,
      "ple": 527,
      "econom": 528,
      "ally": 529,
      "ario": 530,
      "Presidente": 531,
      "President": 532,
      "pon": 533,
      "We": 534,
      "mit": 535,
      "glio": 536,
      "zza": 537,
      "revo": 538,
      "from": 539,
      "ans": 540,
      "mat": 541,
      "bl": 542,
      "ves": 543,
      "ire": 544,
      "must": 545,
      "biamo": 546,
      "ioni": 547,
      "possi": 548,
      "dere": 549,
      "alle": 550,
      "cis": 551,
      "Me": 552,
      "ia": 553,
      "very": 554,
      "get": 555,
      "anti": 556,
      "tt": 557,
      "essere": 558,
      "oc": 559,
      "ren": 560,
      "ron": 561,
      "ob": 562,
      "ations": 563,
      "ando": 564,
      "liament": 565,
      "ree": 566,
      "fi": 567,
      "nost": 568,
      "bu": 569,
      "work": 570,
      "av": 571,
      "It": 572,
      "inte": 573,
      "ili": 574,
      "deve": 575,
      "Co": 576,
      "na": 577,
      "been": 578,
      "form": 579,
      "Member": 580,
      "ass": 581,
      "eff": 582,
      "proble": 583,
      "ments": 584,
      "rel": 585,
      "ber": 586,
      "ome": 587,
      "Union": 588,
      "whe": 589,
      "propo": 590,
      "fer": 591,
      "tor": 592,
      "its": 593,
      "Parlamento": 594,
      "oper": 595,
      "aff": 596,
      "ult": 597,
      "Parliament": 598,
      "comun": 599,
      "zz": 600,
      "more": 601,
      "indi": 602,
      "200": 603,
      "cti": 604,
      "report": 605,
      "ambi": 606,
      "you": 607,
      "iche": 608,
      "ous": 609,
      "est": 610,
      "atto": 611,
      "now": 612,
      "ens": 613,
      "und": 614,
      "ance": 615,
      "onorevo": 616,
      "Stati": 617,
      "cui": 618,
      "ll": 619,
      "fore": 620,
      "ché": 621,
      "cit": 622,
      "mar": 623,
      "bile": 624,
      "Signor": 625,
      "sol": 626,
      "ice": 627,
      "atti": 628,
      "necess": 629,
      "able": 630,
      "ary": 631,
      "sed": 632,
      "disc": 633,
      "memb": 634,
      "ani": 635,
      "relazione": 636,
      "was": 637,
      "ction": 638,
      "bbe": 639,
      "mol": 640,
      "ste": 641,
      "od": 642,
      "appro": 643,
      "lav": 644,
      "contro": 645,
      "ene": 646,
      "anzi": 647,
      "rap": 648,
      "degli": 649,
      "int": 650,
      "EU": 651,
      "ni": 652,
      "questa": 653,
      "States": 654,
      "like": 655,
      "wa": 656,
      "Euro": 657,
      "siglio": 658,
      "dirit": 659,
      "ative": 660,
      "llo": 661,
      "inci": 662,
      "ers": 663,
      "unc": 664,
      "stru": 665,
      "sup": 666,
      "decis": 667,
      "Consiglio": 668,
      "right": 669,
      "who": 670,
      "their": 671,
      "ical": 672,
      "ba": 673,
      "eren": 674,
      "diff": 675,
      "id": 676,
      "gra": 677,
      "Counc": 678,
      "Council": 679,
      "sider": 680,
      "anci": 681,
      "nella": 682,
      "Il": 683,
      "uman": 684,
      "ele": 685,
      "ame": 686,
      "ear": 687,
      "europeo": 688,
      "membri": 689,
      "need": 690,
      "qual": 691,
      "ze": 692,
      "uppo": 693,
      "king": 694,
      "au": 695,
      "other": 696,
      "quanto": 697,
      "fon": 698,
      "parte": 699,
      "cy": 700,
      "ctive": 701,
      "pare": 702,
      "ition": 703,
      "situ": 704,
      "ational": 705,
      "ura": 706,
      "these": 707,
      "abil": 708,
      "eve": 709,
      "politica": 710,
      "clu": 711,
      "ado": 712,
      "dal": 713,
      "ded": 714,
      "men": 715,
      "This": 716,
      "gram": 717,
      "fic": 718,
      "val": 719,
      "inst": 720,
      "ated": 721,
      "moc": 722,
      "fe": 723,
      "paesi": 724,
      "respon": 725,
      "car": 726,
      "cent": 727,
      "os": 728,
      "ite": 729,
      "quel": 730,
      "time": 731,
      "pla": 732,
      "sulla": 733,
      "they": 734,
      "gover": 735,
      "vent": 736,
      "vil": 737,
      "deb": 738,
      "ru": 739,
      "ese": 740,
      "cause": 741,
      "lare": 742,
      "ord": 743,
      "ish": 744,
      "Europa": 745,
      "ito": 746,
      "je": 747,
      "program": 748,
      "ong": 749,
      "onorevole": 750,
      "way": 751,
      "tries": 752,
      "dov": 753,
      "cur": 754,
      "hanno": 755,
      "bet": 756,
      "accor": 757,
      "some": 758,
      "nuo": 759,
      "propos": 760,
      "countries": 761,
      "tta": 762,
      "new": 763,
      "gno": 764,
      "what": 765,
      "tutti": 766,
      "nazion": 767,
      "than": 768,
      "about": 769,
      "princi": 770,
      "pt": 771,
      "cost": 772,
      "discus": 773,
      "reat": 774,
      "guar": 775,
      "my": 776,
      "Qu": 777,
      "far": 778,
      "ms": 779,
      "cle": 780,
      "sione": 781,
      "rat": 782,
      "tà": 783,
      "fut": 784,
      "ities": 785,
      "Per": 786,
      "national": 787,
      "produ": 788,
      "ful": 789,
      "rei": 790,
      "ople": 791,
      "sen": 792,
      "cas": 793,
      "cun": 794,
      "democ": 795,
      "loro": 796,
      "pen": 797,
      "iste": 798,
      "etti": 799,
      "ution": 800,
      "anza": 801,
      "icy": 802,
      "important": 803,
      "speci": 804,
      "menti": 805,
      "day": 806,
      "esso": 807,
      "tem": 808,
      "modo": 809,
      "pers": 810,
      "contin": 811,
      "fatto": 812,
      "segu": 813,
      "under": 814,
      "over": 815,
      "tain": 816,
      "tras": 817,
      "agree": 818,
      "nell": 819,
      "io": 820,
      "ener": 821,
      "lop": 822,
      "vit": 823,
      "only": 824,
      "people": 825,
      "age": 826,
      "any": 827,
      "ose": 828,
      "via": 829,
      "concer": 830,
      "prote": 831,
      "year": 832,
      "sp": 833,
      "tale": 834,
      "sc": 835,
      "almente": 836,
      "thing": 837,
      "propri": 838,
      "acce": 839,
      "into": 840,
      "policy": 841,
      "tanto": 842,
      "nei": 843,
      "proce": 844,
      "ow": 845,
      "mun": 846,
      "fr": 847,
      "support": 848,
      "svil": 849,
      "fir": 850,
      "compe": 851,
      "aga": 852,
      "cooper": 853,
      "consider": 854,
      "issu": 855,
      "trans": 856,
      "bo": 857,
      "ding": 858,
      "because": 859,
      "gro": 860,
      "vere": 861,
      "atori": 862,
      "ence": 863,
      "sost": 864,
      "medi": 865,
      "proposal": 866,
      "molto": 867,
      "amenti": 868,
      "tere": 869,
      "ts": 870,
      "azioni": 871,
      "continu": 872,
      "esto": 873,
      "org": 874,
      "stato": 875,
      "pun": 876,
      "forma": 877,
      "mark": 878,
      "dur": 879,
      "lavoro": 880,
      "put": 881,
      "attu": 882,
      "gy": 883,
      "sic": 884,
      "aria": 885,
      "liber": 886,
      "ular": 887,
      "gener": 888,
      "alcun": 889,
      "secon": 890,
      "develop": 891,
      "dalla": 892,
      "comp": 893,
      "cesso": 894,
      "colle": 895,
      "just": 896,
      "take": 897,
      "ade": 898,
      "line": 899,
      "legis": 900,
      "maggi": 901,
      "ving": 902,
      "rest": 903,
      "esta": 904,
      "posi": 905,
      "point": 906,
      "sub": 907,
      "them": 908,
      "diritti": 909,
      "mu": 910,
      "tad": 911,
      "ring": 912,
      "19": 913,
      "orrei": 914,
      "clear": 915,
      "abbiamo": 916,
      "cittad": 917,
      "conf": 918,
      "sel": 919,
      "20": 920,
      "fine": 921,
      "finanzi": 922,
      "ga": 923,
      "mitte": 924,
      "zio": 925,
      "cato": 926,
      "ced": 927,
      "bbiamo": 928,
      "utto": 929,
      "perché": 930,
      "zia": 931,
      "setto": 932,
      "such": 933,
      "cts": 934,
      "termin": 935,
      "serv": 936,
      "ck": 937,
      "wever": 938,
      "strate": 939,
      "pio": 940,
      "suo": 941,
      "commiss": 942,
      "contri": 943,
      "partic": 944,
      "crit": 945,
      "ved": 946,
      "ting": 947,
      "sure": 948,
      "hi": 949,
      "sign": 950,
      "make": 951,
      "uno": 952,
      "atta": 953,
      "particular": 954,
      "uti": 955,
      "ating": 956,
      "allo": 957,
      "ress": 958,
      "say": 959,
      "ween": 960,
      "most": 961,
      "proposta": 962,
      "Non": 963,
      "eri": 964,
      "between": 965,
      "live": 966,
      "ink": 967,
      "order": 968,
      "As": 969,
      "ora": 970,
      "blic": 971,
      "those": 972,
      "mittee": 973,
      "que": 974,
      "endo": 975,
      "siste": 976,
      "stand": 977,
      "aggi": 978,
      "ino": 979,
      "sti": 980,
      "vie": 981,
      "sem": 982,
      "alis": 983,
      "rispe": 984,
      "bas": 985,
      "know": 986,
      "cittadini": 987,
      "Re": 988,
      "ina": 989,
      "nor": 990,
      "partico": 991,
      "gar": 992,
      "Se": 993,
      "pren": 994,
      "chan": 995,
      "rego": 996,
      "pub": 997,
      "sy": 998,
      "ore": 999,
      "ancor": 1000,
      "solo": 1001,
      "being": 1002,
      "fact": 1003,
      "tal": 1004,
      "try": 1005,
      "sci": 1006,
      "ativa": 1007,
      "rights": 1008,
      "riguar": 1009,
      "ghi": 1010,
      "era": 1011,
      "when": 1012,
      "economic": 1013,
      "market": 1014,
      "sua": 1015,
      "due": 1016,
      "beli": 1017,
      "read": 1018,
      "cl": 1019,
      "favo": 1020,
      "cris": 1021,
      "aspe": 1022,
      "therefore": 1023,
      "opport": 1024,
      "sviluppo": 1025,
      "fac": 1026,
      "importante": 1027,
      "bene": 1028,
      "nego": 1029,
      "sotto": 1030,
      "indu": 1031,
      "dovre": 1032,
      "Commissario": 1033,
      "appl": 1034,
      "obi": 1035,
      "zzazione": 1036,
      "were": 1037,
      "ast": 1038,
      "bilità": 1039,
      "fare": 1040,
      "consu": 1041,
      "mio": 1042,
      "occu": 1043,
      "sar": 1044,
      "eria": 1045,
      "gia": 1046,
      "ancora": 1047,
      "political": 1048,
      "diver": 1049,
      "citi": 1050,
      "govern": 1051,
      "ulti": 1052,
      "ute": 1053,
      "dall": 1054,
      "met": 1055,
      "procedu": 1056,
      "inf": 1057,
      "gran": 1058,
      "può": 1059,
      "An": 1060,
      "commissione": 1061,
      "emp": 1062,
      "made": 1063,
      "vel": 1064,
      "accordo": 1065,
      "ung": 1066,
      "tutto": 1067,
      "auto": 1068,
      "inten": 1069,
      "anni": 1070,
      "luzione": 1071,
      "fond": 1072,
      "legisl": 1073,
      "Ho": 1074,
      "sicure": 1075,
      "tur": 1076,
      "many": 1077,
      "state": 1078,
      "ichi": 1079,
      "altri": 1080,
      "Le": 1081,
      "pend": 1082,
      "believe": 1083,
      "ards": 1084,
      "human": 1085,
      "questione": 1086,
      "obietti": 1087,
      "inclu": 1088,
      "rà": 1089,
      "stem": 1090,
      "Al": 1091,
      "sicurezza": 1092,
      "impe": 1093,
      "ide": 1094,
      "ud": 1095,
      "first": 1096,
      "già": 1097,
      "ach": 1098,
      "her": 1099,
      "età": 1100,
      "ures": 1101,
      "here": 1102,
      "xt": 1103,
      "ural": 1104,
      "Commissioner": 1105,
      "peri": 1106,
      "dom": 1107,
      "corre": 1108,
      "art": 1109,
      "incre": 1110,
      "see": 1111,
      "ning": 1112,
      "defin": 1113,
      "ific": 1114,
      "oltre": 1115,
      "fund": 1116,
      "plement": 1117,
      "where": 1118,
      "pubbl": 1119,
      "rou": 1120,
      "led": 1121,
      "main": 1122,
      "prima": 1123,
      "social": 1124,
      "ffor": 1125,
      "tori": 1126,
      "giu": 1127,
      "gni": 1128,
      "ov": 1129,
      "ciò": 1130,
      "cos": 1131,
      "compet": 1132,
      "emend": 1133,
      "real": 1134,
      "public": 1135,
      "ogo": 1136,
      "quali": 1137,
      "view": 1138,
      "cap": 1139,
      "system": 1140,
      "meas": 1141,
      "bility": 1142,
      "icazione": 1143,
      "posizione": 1144,
      "situazione": 1145,
      "ran": 1146,
      "opportun": 1147,
      "cio": 1148,
      "dobbiamo": 1149,
      "debate": 1150,
      "rappor": 1151,
      "inform": 1152,
      "occupa": 1153,
      "mil": 1154,
      "condi": 1155,
      "tavia": 1156,
      "citiz": 1157,
      "tw": 1158,
      "red": 1159,
      "tazione": 1160,
      "diretti": 1161,
      "suc": 1162,
      "nazionale": 1163,
      "mes": 1164,
      "off": 1165,
      "livello": 1166,
      "great": 1167,
      "want": 1168,
      "against": 1169,
      "parti": 1170,
      "think": 1171,
      "valu": 1172,
      "199": 1173,
      "noi": 1174,
      "altro": 1175,
      "too": 1176,
      "mercato": 1177,
      "arie": 1178,
      "ned": 1179,
      "ner": 1180,
      "chiar": 1181,
      "requ": 1182,
      "future": 1183,
      "less": 1184,
      "well": 1185,
      "ken": 1186,
      "signor": 1187,
      "That": 1188,
      "euro": 1189,
      "There": 1190,
      "gruppo": 1191,
      "inves": 1192,
      "nostro": 1193,
      "particolare": 1194,
      "prior": 1195,
      "questi": 1196,
      "bilanci": 1197,
      "lab": 1198,
      "punto": 1199,
      "his": 1200,
      "Committee": 1201,
      "ctor": 1202,
      "settore": 1203,
      "dra": 1204,
      "positi": 1205,
      "alth": 1206,
      "den": 1207,
      "ty": 1208,
      "prog": 1209,
      "paese": 1210,
      "seri": 1211,
      "rappresent": 1212,
      "good": 1213,
      "sosten": 1214,
      "abilità": 1215,
      "atore": 1216,
      "provi": 1217,
      "munity": 1218,
      "issue": 1219,
      "invol": 1220,
      "migli": 1221,
      "tempo": 1222,
      "nat": 1223,
      "gg": 1224,
      "quindi": 1225,
      "add": 1226,
      "clus": 1227,
      "agli": 1228,
      "olo": 1229,
      "favore": 1230,
      "stri": 1231,
      "mom": 1232,
      "oggi": 1233,
      "lob": 1234,
      "ks": 1235,
      "dev": 1236,
      "cons": 1237,
      "possible": 1238,
      "care": 1239,
      "effe": 1240,
      "region": 1241,
      "ban": 1242,
      "rimin": 1243,
      "rico": 1244,
      "nostra": 1245,
      "democrat": 1246,
      "development": 1247,
      "ise": 1248,
      "country": 1249,
      "cal": 1250,
      "senza": 1251,
      "differen": 1252,
      "ready": 1253,
      "ip": 1254,
      "question": 1255,
      "dies": 1256,
      "intro": 1257,
      "um": 1258,
      "ot": 1259,
      "level": 1260,
      "sin": 1261,
      "cannot": 1262,
      "dit": 1263,
      "loy": 1264,
      "citizens": 1265,
      "ssi": 1266,
      "vità": 1267,
      "even": 1268,
      "ordin": 1269,
      "two": 1270,
      "tare": 1271,
      "long": 1272,
      "stata": 1273,
      "amend": 1274,
      "viron": 1275,
      "certain": 1276,
      "gent": 1277,
      "ona": 1278,
      "colleghi": 1279,
      "inizi": 1280,
      "vironment": 1281,
      "opin": 1282,
      "cia": 1283,
      "svol": 1284,
      "cted": 1285,
      "ough": 1286,
      "solution": 1287,
      "mor": 1288,
      "richi": 1289,
      "ulation": 1290,
      "situation": 1291,
      "istitu": 1292,
      "measures": 1293,
      "air": 1294,
      "semb": 1295,
      "pect": 1296,
      "pes": 1297,
      "sull": 1298,
      "years": 1299,
      "pli": 1300,
      "soli": 1301,
      "ancial": 1302,
      "tali": 1303,
      "cour": 1304,
      "then": 1305,
      "tru": 1306,
      "sal": 1307,
      "rough": 1308,
      "meno": 1309,
      "ffici": 1310,
      "atten": 1311,
      "ices": 1312,
      "assi": 1313,
      "every": 1314,
      "possibile": 1315,
      "ety": 1316,
      "could": 1317,
      "regard": 1318,
      "ply": 1319,
      "centr": 1320,
      "today": 1321,
      "had": 1322,
      "exam": 1323,
      "cir": 1324,
      "does": 1325,
      "diritto": 1326,
      "fis": 1327,
      "own": 1328,
      "same": 1329,
      "quale": 1330,
      "bud": 1331,
      "gin": 1332,
      "ency": 1333,
      "des": 1334,
      "fun": 1335,
      "ask": 1336,
      "implement": 1337,
      "rag": 1338,
      "nelle": 1339,
      "problema": 1340,
      "sing": 1341,
      "fondament": 1342,
      "through": 1343,
      "vorrei": 1344,
      "chia": 1345,
      "agreement": 1346,
      "omen": 1347,
      "limit": 1348,
      "discussione": 1349,
      "glob": 1350,
      "don": 1351,
      "essi": 1352,
      "bili": 1353,
      "siamo": 1354,
      "caso": 1355,
      "servi": 1356,
      "democra": 1357,
      "così": 1358,
      "tratta": 1359,
      "materia": 1360,
      "direttiva": 1361,
      "paren": 1362,
      "already": 1363,
      "set": 1364,
      "budget": 1365,
      "much": 1366,
      "sare": 1367,
      "chie": 1368,
      "bero": 1369,
      "base": 1370,
      "ester": 1371,
      "essa": 1372,
      "volta": 1373,
      "area": 1374,
      "ita": 1375,
      "esem": 1376,
      "sion": 1377,
      "europei": 1378,
      "rispetto": 1379,
      "De": 1380,
      "So": 1381,
      "hap": 1382,
      "Ma": 1383,
      "financial": 1384,
      "hope": 1385,
      "nazionali": 1386,
      "did": 1387,
      "comple": 1388,
      "alcuni": 1389,
      "ject": 1390,
      "how": 1391,
      "matter": 1392,
      "riguarda": 1393,
      "entr": 1394,
      "equ": 1395,
      "bbero": 1396,
      "ak": 1397,
      "role": 1398,
      "processo": 1399,
      "stat": 1400,
      "within": 1401,
      "said": 1402,
      "vote": 1403,
      "feren": 1404,
      "comune": 1405,
      "bilancio": 1406,
      "misure": 1407,
      "legal": 1408,
      "presid": 1409,
      "person": 1410,
      "tura": 1411,
      "iso": 1412,
      "fron": 1413,
      "teur": 1414,
      "taken": 1415,
      "potre": 1416,
      "cam": 1417,
      "thor": 1418,
      "process": 1419,
      "curren": 1420,
      "reas": 1421,
      "employ": 1422,
      "resul": 1423,
      "commer": 1424,
      "corso": 1425,
      "fra": 1426,
      "interest": 1427,
      "Mrs": 1428,
      "rapporteur": 1429,
      "ativo": 1430,
      "cult": 1431,
      "ship": 1432,
      "sarà": 1433,
      "quando": 1434,
      "hal": 1435,
      "gono": 1436,
      "responsi": 1437,
      "ater": 1438,
      "vero": 1439,
      "sistema": 1440,
      "UE": 1441,
      "comunit": 1442,
      "environment": 1443,
      "fav": 1444,
      "devono": 1445,
      "world": 1446,
      "popo": 1447,
      "common": 1448,
      "fu": 1449,
      "moti": 1450,
      "garanti": 1451,
      "still": 1452,
      "cla": 1453,
      "onorevoli": 1454,
      "Ci": 1455,
      "sui": 1456,
      "both": 1457,
      "instit": 1458,
      "lazioni": 1459,
      "your": 1460,
      "pur": 1461,
      "isce": 1462,
      "ismo": 1463,
      "utions": 1464,
      "costitu": 1465,
      "lavor": 1466,
      "ges": 1467,
      "ensure": 1468,
      "last": 1469,
      "action": 1470,
      "adott": 1471,
      "cooperation": 1472,
      "Ch": 1473,
      "Tur": 1474,
      "agrico": 1475,
      "san": 1476,
      "verso": 1477,
      "occupazione": 1478,
      "dif": 1479,
      "vamente": 1480,
      "siano": 1481,
      "place": 1482,
      "contribu": 1483,
      "ness": 1484,
      "sulle": 1485,
      "sociale": 1486,
      "Pro": 1487,
      "international": 1488,
      "course": 1489,
      "ror": 1490,
      "impro": 1491,
      "Community": 1492,
      "10": 1493,
      "af": 1494,
      "self": 1495,
      "sector": 1496,
      "problemi": 1497,
      "organi": 1498,
      "However": 1499,
      "esempio": 1500,
      "reason": 1501,
      "group": 1502,
      "giust": 1503,
      "law": 1504,
      "benef": 1505,
      "solid": 1506,
      "bre": 1507,
      "sempre": 1508,
      "secondo": 1509,
      "wer": 1510,
      "abili": 1511,
      "land": 1512,
      "riso": 1513,
      "position": 1514,
      "No": 1515,
      "sim": 1516,
      "ouse": 1517,
      "strut": 1518,
      "decision": 1519,
      "van": 1520,
      "ds": 1521,
      "nal": 1522,
      "half": 1523,
      "als": 1524,
      "dello": 1525,
      "compi": 1526,
      "gior": 1527,
      "sto": 1528,
      "nolo": 1529,
      "integr": 1530,
      "proprio": 1531,
      "ogni": 1532,
      "concern": 1533,
      "imento": 1534,
      "wn": 1535,
      "urther": 1536,
      "prese": 1537,
      "ringra": 1538,
      "industri": 1539,
      "case": 1540,
      "curity": 1541,
      "vari": 1542,
      "informa": 1543,
      "Mi": 1544,
      "Nel": 1545,
      "attato": 1546,
      "ack": 1547,
      "programma": 1548,
      "raggi": 1549,
      "applic": 1550,
      "quad": 1551,
      "respons": 1552,
      "promo": 1553,
      "proget": 1554,
      "anim": 1555,
      "stati": 1556,
      "labor": 1557,
      "altre": 1558,
      "nostri": 1559,
      "ase": 1560,
      "pted": 1561,
      "vic": 1562,
      "ressi": 1563,
      "cooperazione": 1564,
      "futuro": 1565,
      "mand": 1566,
      "bia": 1567,
      "ited": 1568,
      "grat": 1569,
      "arsi": 1570,
      "alizz": 1571,
      "control": 1572,
      "pass": 1573,
      "ss": 1574,
      "why": 1575,
      "hel": 1576,
      "consegu": 1577,
      "viol": 1578,
      "organ": 1579,
      "stra": 1580,
      "isten": 1581,
      "ger": 1582,
      "cosa": 1583,
      "icolo": 1584,
      "may": 1585,
      "Wh": 1586,
      "lament": 1587,
      "number": 1588,
      "inno": 1589,
      "ec": 1590,
      "jor": 1591,
      "miglior": 1592,
      "numer": 1593,
      "chieve": 1594,
      "vare": 1595,
      "achieve": 1596,
      "clo": 1597,
      "ism": 1598,
      "ort": 1599,
      "author": 1600,
      "information": 1601,
      "call": 1602,
      "inoltre": 1603,
      "momento": 1604,
      "attutto": 1605,
      "iamo": 1606,
      "lead": 1607,
      "luogo": 1608,
      "reed": 1609,
      "major": 1610,
      "risult": 1611,
      "necessario": 1612,
      "sopr": 1613,
      "queste": 1614,
      "garantire": 1615,
      "affron": 1616,
      "vin": 1617,
      "terror": 1618,
      "pra": 1619,
      "docu": 1620,
      "Min": 1621,
      "pens": 1622,
      "engo": 1623,
      "cial": 1624,
      "without": 1625,
      "cento": 1626,
      "ben": 1627,
      "pic": 1628,
      "prodo": 1629,
      "sour": 1630,
      "Gro": 1631,
      "imp": 1632,
      "high": 1633,
      "affer": 1634,
      "soprattutto": 1635,
      "large": 1636,
      "energy": 1637,
      "current": 1638,
      "utili": 1639,
      "introdu": 1640,
      "Rus": 1641,
      "contr": 1642,
      "however": 1643,
      "necessary": 1644,
      "wel": 1645,
      "tenere": 1646,
      "open": 1647,
      "dial": 1648,
      "Tut": 1649,
      "maggior": 1650,
      "orse": 1651,
      "table": 1652,
      "tutte": 1653,
      "tato": 1654,
      "conclus": 1655,
      "mend": 1656,
      "proposte": 1657,
      "quadro": 1658,
      "posta": 1659,
      "problem": 1660,
      "problems": 1661,
      "med": 1662,
      "Mad": 1663,
      "means": 1664,
      "desider": 1665,
      "gentle": 1666,
      "nome": 1667,
      "internazionale": 1668,
      "persone": 1669,
      "coordin": 1670,
      "Lis": 1671,
      "risoluzione": 1672,
      "gentlemen": 1673,
      "before": 1674,
      "specific": 1675,
      "ace": 1676,
      "ambito": 1677,
      "asi": 1678,
      "quello": 1679,
      "respect": 1680,
      "wing": 1681,
      "acti": 1682,
      "comb": 1683,
      "prof": 1684,
      "ind": 1685,
      "diffic": 1686,
      "trop": 1687,
      "umani": 1688,
      "initi": 1689,
      "directive": 1690,
      "protection": 1691,
      "Stato": 1692,
      "House": 1693,
      "enzi": 1694,
      "establ": 1695,
      "dovrebbe": 1696,
      "grande": 1697,
      "interno": 1698,
      "Sono": 1699,
      "diamo": 1700,
      "caus": 1701,
      "cli": 1702,
      "fle": 1703,
      "example": 1704,
      "ei": 1705,
      "teri": 1706,
      "signific": 1707,
      "particularly": 1708,
      "redu": 1709,
      "Lisb": 1710,
      "obje": 1711,
      "deal": 1712,
      "compro": 1713,
      "dest": 1714,
      "governo": 1715,
      "istr": 1716,
      "tec": 1717,
      "moni": 1718,
      "ules": 1719,
      "negoti": 1720,
      "change": 1721,
      "negozi": 1722,
      "given": 1723,
      "cambi": 1724,
      "economica": 1725,
      "politiche": 1726,
      "help": 1727,
      "Tr": 1728,
      "cres": 1729,
      "determin": 1730,
      "areas": 1731,
      "ised": 1732,
      "cessi": 1733,
      "security": 1734,
      "give": 1735,
      "emendamenti": 1736,
      "vidu": 1737,
      "mmo": 1738,
      "soste": 1739,
      "sottoline": 1740,
      "sce": 1741,
      "text": 1742,
      "congrat": 1743,
      "effici": 1744,
      "primo": 1745,
      "If": 1746,
      "suffici": 1747,
      "iché": 1748,
      "individu": 1749,
      "durre": 1750,
      "struct": 1751,
      "Vorrei": 1752,
      "lig": 1753,
      "sostegno": 1754,
      "ator": 1755,
      "amb": 1756,
      "adegu": 1757,
      "key": 1758,
      "remo": 1759,
      "access": 1760,
      "biso": 1761,
      "pag": 1762,
      "sco": 1763,
      "ential": 1764,
      "obiettivo": 1765,
      "illion": 1766,
      "cing": 1767,
      "merito": 1768,
      "zo": 1769,
      "sur": 1770,
      "Group": 1771,
      "ridi": 1772,
      "health": 1773,
      "ately": 1774,
      "follo": 1775,
      "behalf": 1776,
      "evi": 1777,
      "les": 1778,
      "mondo": 1779,
      "resolution": 1780,
      "segn": 1781,
      "tech": 1782,
      "cono": 1783,
      "possibilità": 1784,
      "arch": 1785,
      "senso": 1786,
      "amework": 1787,
      "since": 1788,
      "jo": 1789,
      "deput": 1790,
      "member": 1791,
      "concor": 1792,
      "issues": 1793,
      "procedure": 1794,
      "esa": 1795,
      "Fin": 1796,
      "ruolo": 1797,
      "lei": 1798,
      "represent": 1799,
      "ild": 1800,
      "molti": 1801,
      "stitu": 1802,
      "cin": 1803,
      "stabil": 1804,
      "rebbe": 1805,
      "ativi": 1806,
      "Madam": 1807,
      "dichiar": 1808,
      "decisione": 1809,
      "inde": 1810,
      "vers": 1811,
      "pas": 1812,
      "effetti": 1813,
      "ricer": 1814,
      "stesso": 1815,
      "dai": 1816,
      "servizi": 1817,
      "Treat": 1818,
      "reco": 1819,
      "Treaty": 1820,
      "troppo": 1821,
      "loc": 1822,
      "effica": 1823,
      "crisi": 1824,
      "further": 1825,
      "cita": 1826,
      "Signora": 1827,
      "hen": 1828,
      "pover": 1829,
      "importanza": 1830,
      "attività": 1831,
      "loo": 1832,
      "thank": 1833,
      "imprese": 1834,
      "press": 1835,
      "ishe": 1836,
      "detto": 1837,
      "investi": 1838,
      "lit": 1839,
      "possono": 1840,
      "pot": 1841,
      "ward": 1842,
      "lev": 1843,
      "cell": 1844,
      "meet": 1845,
      "Inter": 1846,
      "conclu": 1847,
      "employment": 1848,
      "commit": 1849,
      "amendments": 1850,
      "ling": 1851,
      "competiti": 1852,
      "vanta": 1853,
      "rità": 1854,
      "after": 1855,
      "ways": 1856,
      "maggiore": 1857,
      "tion": 1858,
      "deci": 1859,
      "fam": 1860,
      "dib": 1861,
      "terms": 1862,
      "mia": 1863,
      "favour": 1864,
      "again": 1865,
      "Russia": 1866,
      "Is": 1867,
      "og": 1868,
      "unt": 1869,
      "conto": 1870,
      "ricono": 1871,
      "vista": 1872,
      "For": 1873,
      "vention": 1874,
      "going": 1875,
      "necessità": 1876,
      "fully": 1877,
      "lea": 1878,
      "mere": 1879,
      "quella": 1880,
      "lun": 1881,
      "vita": 1882,
      "utilizz": 1883,
      "On": 1884,
      "cus": 1885,
      "ladies": 1886,
      "agu": 1887,
      "require": 1888,
      "United": 1889,
      "occas": 1890,
      "terri": 1891,
      "rifer": 1892,
      "sources": 1893,
      "spi": 1894,
      "possiamo": 1895,
      "anze": 1896,
      "alizzazione": 1897,
      "ft": 1898,
      "enze": 1899,
      "pertanto": 1900,
      "mettere": 1901,
      "condizioni": 1902,
      "Questo": 1903,
      "proposals": 1904,
      "dio": 1905,
      "conce": 1906,
      "ggio": 1907,
      "grado": 1908,
      "giuridi": 1909,
      "dopo": 1910,
      "società": 1911,
      "15": 1912,
      "dare": 1913,
      "done": 1914,
      "uc": 1915,
      "erà": 1916,
      "rac": 1917,
      "programme": 1918,
      "uni": 1919,
      "lan": 1920,
      "zzi": 1921,
      "ances": 1922,
      "whether": 1923,
      "nuovo": 1924,
      "12": 1925,
      "contra": 1926,
      "tuttavia": 1927,
      "ungere": 1928,
      "obiettivi": 1929,
      "innov": 1930,
      "porto": 1931,
      "plan": 1932,
      "accoun": 1933,
      "quality": 1934,
      "hand": 1935,
      "però": 1936,
      "ranno": 1937,
      "qui": 1938,
      "avere": 1939,
      "framework": 1940,
      "responsabilità": 1941,
      "messo": 1942,
      "women": 1943,
      "crisis": 1944,
      "serious": 1945,
      "ention": 1946,
      "Au": 1947,
      "porre": 1948,
      "regolamento": 1949,
      "sarebbe": 1950,
      "approv": 1951,
      "relatore": 1952,
      "trade": 1953,
      "forn": 1954,
      "pay": 1955,
      "appe": 1956,
      "pract": 1957,
      "Tuttavia": 1958,
      "assic": 1959,
      "norm": 1960,
      "ann": 1961,
      "wish": 1962,
      "prossi": 1963,
      "super": 1964,
      "ctions": 1965,
      "effective": 1966,
      "isation": 1967,
      "Members": 1968,
      "possa": 1969,
      "unque": 1970,
      "negli": 1971,
      "DE": 1972,
      "different": 1973,
      "ird": 1974,
      "basis": 1975,
      "raffor": 1976,
      "legislation": 1977,
      "Dob": 1978,
      "effor": 1979,
      "prepar": 1980,
      "pien": 1981,
      "prodotti": 1982,
      "ister": 1983,
      "mostr": 1984,
      "Dobbiamo": 1985,
      "let": 1986,
      "controllo": 1987,
      "mai": 1988,
      "precis": 1989,
      "agen": 1990,
      "second": 1991,
      "next": 1992,
      "adopted": 1993,
      "services": 1994,
      "kes": 1995,
      "parteci": 1996,
      "ries": 1997,
      "questioni": 1998,
      "better": 1999,
      "autorità": 2000,
      "rules": 2001,
      "soltanto": 2002,
      "gere": 2003,
      "ditions": 2004,
      "immi": 2005,
      "libertà": 2006,
      "acqu": 2007,
      "sper": 2008,
      "event": 2009,
      "mone": 2010,
      "making": 2011,
      "aid": 2012,
      "concre": 2013,
      "pace": 2014,
      "Presidenza": 2015,
      "mers": 2016,
      "numero": 2017,
      "offer": 2018,
      "strategia": 2019,
      "har": 2020,
      "government": 2021,
      "eli": 2022,
      "reform": 2023,
      "relazioni": 2024,
      "road": 2025,
      "prendere": 2026,
      "donne": 2027,
      "vious": 2028,
      "sor": 2029,
      "idea": 2030,
      "ringrazi": 2031,
      "princip": 2032,
      "needs": 2033,
      "used": 2034,
      "pubblica": 2035,
      "dalle": 2036,
      "rapi": 2037,
      "tic": 2038,
      "entire": 2039,
      "grazione": 2040,
      "appropri": 2041,
      "sm": 2042,
      "opinion": 2043,
      "crimin": 2044,
      "wards": 2045,
      "solu": 2046,
      "dia": 2047,
      "aper": 2048,
      "voted": 2049,
      "generale": 2050,
      "forward": 2051,
      "ambiente": 2052,
      "qualità": 2053,
      "ricerca": 2054,
      "giorno": 2055,
      "What": 2056,
      "nostre": 2057,
      "confron": 2058,
      "Ne": 2059,
      "lotta": 2060,
      "viene": 2061,
      "selves": 2062,
      "gest": 2063,
      "porti": 2064,
      "11": 2065,
      "attenzione": 2066,
      "rafforz": 2067,
      "ry": 2068,
      "agric": 2069,
      "rischi": 2070,
      "agricult": 2071,
      "down": 2072,
      "000": 2073,
      "risorse": 2074,
      "cou": 2075,
      "whole": 2076,
      "ana": 2077,
      "priv": 2078,
      "few": 2079,
      "Come": 2080,
      "deputati": 2081,
      "job": 2082,
      "posti": 2083,
      "play": 2084,
      "norme": 2085,
      "compl": 2086,
      "low": 2087,
      "nonché": 2088,
      "ctives": 2089,
      "step": 2090,
      "aggio": 2091,
      "Li": 2092,
      "net": 2093,
      "regulation": 2094,
      "working": 2095,
      "continue": 2096,
      "institutions": 2097,
      "three": 2098,
      "rati": 2099,
      "sie": 2100,
      "rice": 2101,
      "2000": 2102,
      "bal": 2103,
      "ption": 2104,
      "But": 2105,
      "bus": 2106,
      "discuss": 2107,
      "progress": 2108,
      "zie": 2109,
      "principio": 2110,
      "conditions": 2111,
      "uso": 2112,
      "consul": 2113,
      "tamente": 2114,
      "tax": 2115,
      "force": 2116,
      "aver": 2117,
      "ddis": 2118,
      "sive": 2119,
      "ased": 2120,
      "gio": 2121,
      "gue": 2122,
      "State": 2123,
      "ines": 2124,
      "milit": 2125,
      "data": 2126,
      "interv": 2127,
      "To": 2128,
      "war": 2129,
      "dibatti": 2130,
      "anz": 2131,
      "emendamento": 2132,
      "remain": 2133,
      "stu": 2134,
      "side": 2135,
      "protezione": 2136,
      "attra": 2137,
      "reedom": 2138,
      "dibattito": 2139,
      "matori": 2140,
      "nuovi": 2141,
      "emiss": 2142,
      "inché": 2143,
      "Rom": 2144,
      "back": 2145,
      "iness": 2146,
      "rog": 2147,
      "improve": 2148,
      "pris": 2149,
      "commun": 2150,
      "Fr": 2151,
      "based": 2152,
      "something": 2153,
      "peci": 2154,
      "venzione": 2155,
      "tute": 2156,
      "tent": 2157,
      "natur": 2158,
      "anda": 2159,
      "small": 2160,
      "orient": 2161,
      "politici": 2162,
      "estre": 2163,
      "amental": 2164,
      "ual": 2165,
      "concerned": 2166,
      "EC": 2167,
      "bri": 2168,
      "guard": 2169,
      "welcome": 2170,
      "soddis": 2171,
      "recent": 2172,
      "taking": 2173,
      "airs": 2174,
      "ank": 2175,
      "approach": 2176,
      "cro": 2177,
      "rece": 2178,
      "oli": 2179,
      "stry": 2180,
      "fondi": 2181,
      "mani": 2182,
      "At": 2183,
      "Ver": 2184,
      "vole": 2185,
      "posto": 2186,
      "Ger": 2187,
      "regi": 2188,
      "result": 2189,
      "cru": 2190,
      "vece": 2191,
      "aiuti": 2192,
      "allow": 2193,
      "affinché": 2194,
      "competen": 2195,
      "milioni": 2196,
      "evid": 2197,
      "emer": 2198,
      "coming": 2199,
      "discrimin": 2200,
      "ordine": 2201,
      "principle": 2202,
      "lic": 2203,
      "rese": 2204,
      "ane": 2205,
      "uppi": 2206,
      "risposta": 2207,
      "funzion": 2208,
      "perio": 2209,
      "ep": 2210,
      "unto": 2211,
      "guarante": 2212,
      "free": 2213,
      "vision": 2214,
      "specif": 2215,
      "child": 2216,
      "resources": 2217,
      "dato": 2218,
      "capac": 2219,
      "motivo": 2220,
      "nuova": 2221,
      "including": 2222,
      "opportunity": 2223,
      "attuale": 2224,
      "dice": 2225,
      "abbia": 2226,
      "Bar": 2227,
      "mentare": 2228,
      "ists": 2229,
      "colleg": 2230,
      "atives": 2231,
      "progetto": 2232,
      "forme": 2233,
      "arri": 2234,
      "convin": 2235,
      "log": 2236,
      "bring": 2237,
      "rg": 2238,
      "shall": 2239,
      "potrebbe": 2240,
      "poiché": 2241,
      "presente": 2242,
      "ministr": 2243,
      "uom": 2244,
      "espres": 2245,
      "istenza": 2246,
      "esti": 2247,
      "visto": 2248,
      "minist": 2249,
      "establish": 2250,
      "ton": 2251,
      "appo": 2252,
      "revole": 2253,
      "pure": 2254,
      "really": 2255,
      "regioni": 2256,
      "ttare": 2257,
      "Ri": 2258,
      "Secon": 2259,
      "gliamo": 2260,
      "transport": 2261,
      "13": 2262,
      "vano": 2263,
      "proposed": 2264,
      "towards": 2265,
      "ents": 2266,
      "light": 2267,
      "success": 2268,
      "ero": 2269,
      "politico": 2270,
      "Pol": 2271,
      "venire": 2272,
      "understand": 2273,
      "gre": 2274,
      "stit": 2275,
      "gether": 2276,
      "visione": 2277,
      "nuove": 2278,
      "alcune": 2279,
      "positive": 2280,
      "soluzione": 2281,
      "Presidency": 2282,
      "parere": 2283,
      "Ar": 2284,
      "Vi": 2285,
      "aw": 2286,
      "tratt": 2287,
      "consumatori": 2288,
      "bisogno": 2289,
      "freedom": 2290,
      "dimostr": 2291,
      "democratic": 2292,
      "move": 2293,
      "riguardo": 2294,
      "vig": 2295,
      "europee": 2296,
      "occ": 2297,
      "eld": 2298,
      "essenzi": 2299,
      "provide": 2300,
      "authorities": 2301,
      "neg": 2302,
      "pone": 2303,
      "sfor": 2304,
      "parlament": 2305,
      "settori": 2306,
      "ragione": 2307,
      "sue": 2308,
      "impegno": 2309,
      "democrazia": 2310,
      "alità": 2311,
      "zionale": 2312,
      "icies": 2313,
      "fied": 2314,
      "difficult": 2315,
      "sape": 2316,
      "ricord": 2317,
      "clearly": 2318,
      "note": 2319,
      "picco": 2320,
      "bio": 2321,
      "policies": 2322,
      "agricol": 2323,
      "vio": 2324,
      "Trattato": 2325,
      "post": 2326,
      "third": 2327,
      "reng": 2328,
      "during": 2329,
      "regul": 2330,
      "credo": 2331,
      "million": 2332,
      "especi": 2333,
      "peace": 2334,
      "Uniti": 2335,
      "saf": 2336,
      "especially": 2337,
      "border": 2338,
      "together": 2339,
      "aro": 2340,
      "pat": 2341,
      "candid": 2342,
      "tun": 2343,
      "espri": 2344,
      "rius": 2345,
      "subject": 2346,
      "né": 2347,
      "invece": 2348,
      "streng": 2349,
      "muo": 2350,
      "ltre": 2351,
      "dan": 2352,
      "ile": 2353,
      "pesca": 2354,
      "fondamentale": 2355,
      "democracy": 2356,
      "activ": 2357,
      "become": 2358,
      "applicazione": 2359,
      "products": 2360,
      "safety": 2361,
      "arg": 2362,
      "quo": 2363,
      "articolo": 2364,
      "environmental": 2365,
      "ped": 2366,
      "parag": 2367,
      "stain": 2368,
      "aspetti": 2369,
      "sequ": 2370,
      "account": 2371,
      "occup": 2372,
      "ily": 2373,
      "priorità": 2374,
      "afferm": 2375,
      "strategy": 2376,
      "desidero": 2377,
      "negoziati": 2378,
      "obb": 2379,
      "affrontare": 2380,
      "fondamentali": 2381,
      "business": 2382,
      "desi": 2383,
      "quite": 2384,
      "minor": 2385,
      "importance": 2386,
      "speak": 2387,
      "prat": 2388,
      "ave": 2389,
      "tar": 2390,
      "opportunità": 2391,
      "iter": 2392,
      "accept": 2393,
      "commerci": 2394,
      "votato": 2395,
      "negotiations": 2396,
      "ins": 2397,
      "power": 2398,
      "strong": 2399,
      "responsibility": 2400,
      "bur": 2401,
      "find": 2402,
      "assu": 2403,
      "look": 2404,
      "zzo": 2405,
      "testo": 2406,
      "procedura": 2407,
      "aware": 2408,
      "dati": 2409,
      "conten": 2410,
      "ession": 2411,
      "rispon": 2412,
      "mondi": 2413,
      "ambient": 2414,
      "industry": 2415,
      "tte": 2416,
      "once": 2417,
      "rec": 2418,
      "They": 2419,
      "general": 2420,
      "diversi": 2421,
      "capit": 2422,
      "ished": 2423,
      "associ": 2424,
      "lavoratori": 2425,
      "sempl": 2426,
      "suoi": 2427,
      "ign": 2428,
      "partner": 2429,
      "interes": 2430,
      "itself": 2431,
      "assicur": 2432,
      "Aff": 2433,
      "dove": 2434,
      "instru": 2435,
      "icip": 2436,
      "implementation": 2437,
      "iscono": 2438,
      "sito": 2439,
      "posizioni": 2440,
      "society": 2441,
      "sugg": 2442,
      "votazione": 2443,
      "informazioni": 2444,
      "AC": 2445,
      "regions": 2446,
      "sociali": 2447,
      "least": 2448,
      "another": 2449,
      "rather": 2450,
      "ania": 2451,
      "cri": 2452,
      "energia": 2453,
      "extre": 2454,
      "realtà": 2455,
      "iniziativa": 2456,
      "eser": 2457,
      "EUR": 2458,
      "saranno": 2459,
      "crescita": 2460,
      "CO": 2461,
      "ava": 2462,
      "esist": 2463,
      "ically": 2464,
      "poter": 2465,
      "term": 2466,
      "increase": 2467,
      "recogn": 2468,
      "mal": 2469,
      "massi": 2470,
      "porta": 2471,
      "alest": 2472,
      "economia": 2473,
      "fronte": 2474,
      "research": 2475,
      "regione": 2476,
      "accordi": 2477,
      "yo": 2478,
      "piano": 2479,
      "fundamental": 2480,
      "greater": 2481,
      "dic": 2482,
      "ifica": 2483,
      "Abbiamo": 2484,
      "termini": 2485,
      "ged": 2486,
      "mate": 2487,
      "ler": 2488,
      "preced": 2489,
      "collabor": 2490,
      "immedi": 2491,
      "territori": 2492,
      "incor": 2493,
      "def": 2494,
      "seguito": 2495,
      "br": 2496,
      "always": 2497,
      "grow": 2498,
      "Pri": 2499,
      "show": 2500,
      "uta": 2501,
      "concorren": 2502,
      "aim": 2503,
      "arity": 2504,
      "conos": 2505,
      "produzione": 2506,
      "things": 2507,
      "Assemb": 2508,
      "causa": 2509,
      "attention": 2510,
      "campo": 2511,
      "regime": 2512,
      "US": 2513,
      "certo": 2514,
      "lack": 2515,
      "confronti": 2516,
      "periodo": 2517,
      "50": 2518,
      "itti": 2519,
      "tu": 2520,
      "cho": 2521,
      "Ciò": 2522,
      "importanti": 2523,
      "dam": 2524,
      "acco": 2525,
      "tito": 2526,
      "words": 2527,
      "occorre": 2528,
      "progressi": 2529,
      "Rit": 2530,
      "ulate": 2531,
      "Amer": 2532,
      "refer": 2533,
      "asing": 2534,
      "adesione": 2535,
      "termine": 2536,
      "while": 2537,
      "arietà": 2538,
      "ability": 2539,
      "attuazione": 2540,
      "fy": 2541,
      "poi": 2542,
      "programmi": 2543,
      "pie": 2544,
      "Af": 2545,
      "sent": 2546,
      "committee": 2547,
      "proper": 2548,
      "compani": 2549,
      "mbre": 2550,
      "propria": 2551,
      "essential": 2552,
      "internal": 2553,
      "sieme": 2554,
      "prospe": 2555,
      "allen": 2556,
      "fight": 2557,
      "addition": 2558,
      "mind": 2559,
      "oso": 2560,
      "interesse": 2561,
      "points": 2562,
      "rea": 2563,
      "prevent": 2564,
      "seem": 2565,
      "stric": 2566,
      "risultati": 2567,
      "meeting": 2568,
      "occasione": 2569,
      "dispon": 2570,
      "economy": 2571,
      "eded": 2572,
      "itari": 2573,
      "unico": 2574,
      "food": 2575,
      "mentre": 2576,
      "ants": 2577,
      "trasparen": 2578,
      "various": 2579,
      "educ": 2580,
      "stiamo": 2581,
      "stitution": 2582,
      "comes": 2583,
      "moder": 2584,
      "demand": 2585,
      "ture": 2586,
      "writ": 2587,
      "stessa": 2588,
      "ining": 2589,
      "money": 2590,
      "traff": 2591,
      "month": 2592,
      "economico": 2593,
      "mamente": 2594,
      "relation": 2595,
      "invest": 2596,
      "Cre": 2597,
      "Fon": 2598,
      "yet": 2599,
      "setti": 2600,
      "risol": 2601,
      "interests": 2602,
      "ridu": 2603,
      "ritengo": 2604,
      "tory": 2605,
      "tecnolo": 2606,
      "balance": 2607,
      "ogue": 2608,
      "energet": 2609,
      "mess": 2610,
      "ples": 2611,
      "interess": 2612,
      "efforts": 2613,
      "involved": 2614,
      "extreme": 2615,
      "Conferen": 2616,
      "contribut": 2617,
      "informazione": 2618,
      "genza": 2619,
      "lie": 2620,
      "preve": 2621,
      "indic": 2622,
      "ently": 2623,
      "organis": 2624,
      "Questa": 2625,
      "production": 2626,
      "efficace": 2627,
      "mondiale": 2628,
      "insieme": 2629,
      "wed": 2630,
      "gine": 2631,
      "arci": 2632,
      "breve": 2633,
      "destin": 2634,
      "lasci": 2635,
      "period": 2636,
      "gna": 2637,
      "lato": 2638,
      "ster": 2639,
      "rane": 2640,
      "Cor": 2641,
      "ole": 2642,
      "prov": 2643,
      "hold": 2644,
      "Ino": 2645,
      "capi": 2646,
      "These": 2647,
      "Inoltre": 2648,
      "vengono": 2649,
      "feel": 2650,
      "full": 2651,
      "presidente": 2652,
      "Fund": 2653,
      "agenda": 2654,
      "origin": 2655,
      "programmes": 2656,
      "Affairs": 2657,
      "ually": 2658,
      "poss": 2659,
      "manage": 2660,
      "share": 2661,
      "recei": 2662,
      "ys": 2663,
      "sensi": 2664,
      "certainly": 2665,
      "each": 2666,
      "ined": 2667,
      "altra": 2668,
      "tely": 2669,
      "presa": 2670,
      "direct": 2671,
      "maniera": 2672,
      "EN": 2673,
      "lli": 2674,
      "ched": 2675,
      "entemente": 2676,
      "exten": 2677,
      "ricor": 2678,
      "field": 2679,
      "lungo": 2680,
      "divent": 2681,
      "alled": 2682,
      "ringraziare": 2683,
      "evit": 2684,
      "workers": 2685,
      "technolo": 2686,
      "icamente": 2687,
      "interrog": 2688,
      "credi": 2689,
      "attraverso": 2690,
      "And": 2691,
      "benefici": 2692,
      "semplice": 2693,
      "Gover": 2694,
      "among": 2695,
      "times": 2696,
      "sustain": 2697,
      "gie": 2698,
      "Isra": 2699,
      "alt": 2700,
      "char": 2701,
      "dialogo": 2702,
      "fortun": 2703,
      "strumento": 2704,
      "transparen": 2705,
      "communic": 2706,
      "dec": 2707,
      "wee": 2708,
      "giudi": 2709,
      "gestione": 2710,
      "Oc": 2711,
      "best": 2712,
      "modi": 2713,
      "volon": 2714,
      "pena": 2715,
      "agreements": 2716,
      "concorrenza": 2717,
      "Amend": 2718,
      "tema": 2719,
      "creare": 2720,
      "intervento": 2721,
      "Agen": 2722,
      "parliament": 2723,
      "monet": 2724,
      "competition": 2725,
      "forse": 2726,
      "encou": 2727,
      "though": 2728,
      "colleagu": 2729,
      "single": 2730,
      "children": 2731,
      "),": 2732,
      "ibile": 2733,
      "casi": 2734,
      "equili": 2735,
      "chiaro": 2736,
      "14": 2737,
      "funds": 2738,
      "consent": 2739,
      "exist": 2740,
      "accesso": 2741,
      "growth": 2742,
      "gano": 2743,
      "ences": 2744,
      "promuo": 2745,
      "turn": 2746,
      "elimin": 2747,
      "Do": 2748,
      "facil": 2749,
      "sse": 2750,
      "tors": 2751,
      "sembra": 2752,
      "argom": 2753,
      "TO": 2754,
      "referen": 2755,
      "ioned": 2756,
      "simply": 2757,
      "He": 2758,
      "sum": 2759,
      "dav": 2760,
      "infra": 2761,
      "salute": 2762,
      "aut": 2763,
      "icol": 2764,
      "migliorare": 2765,
      "..": 2766,
      "aspetto": 2767,
      "sottolineare": 2768,
      "elabor": 2769,
      "challen": 2770,
      "settiman": 2771,
      "grandi": 2772,
      "resol": 2773,
      "row": 2774,
      "gruppi": 2775,
      "punti": 2776,
      "Mon": 2777,
      "simi": 2778,
      "Ap": 2779,
      "stante": 2780,
      "volte": 2781,
      "Lisbon": 2782,
      "companies": 2783,
      "cohe": 2784,
      "miglio": 2785,
      "infatti": 2786,
      "migliore": 2787,
      "sostenere": 2788,
      "vogliamo": 2789,
      "majority": 2790,
      "fel": 2791,
      "ila": 2792,
      "mens": 2793,
      "atte": 2794,
      "haps": 2795,
      "immigr": 2796,
      "valutazione": 2797,
      "ccio": 2798,
      "tipo": 2799,
      "membro": 2800,
      "spesso": 2801,
      "happen": 2802,
      "ria": 2803,
      "increasing": 2804,
      "proposito": 2805,
      "rappresenta": 2806,
      "close": 2807,
      "appropriate": 2808,
      "cati": 2809,
      "alter": 2810,
      "often": 2811,
      "poten": 2812,
      "Minister": 2813,
      "30": 2814,
      "stre": 2815,
      "create": 2816,
      "passo": 2817,
      "Govern": 2818,
      "ES": 2819,
      "Mar": 2820,
      "ping": 2821,
      "ago": 2822,
      "effet": 2823,
      "standards": 2824,
      "scienti": 2825,
      "Assemblea": 2826,
      "izia": 2827,
      "decisioni": 2828,
      "costi": 2829,
      "decisions": 2830,
      "quelli": 2831,
      "Aula": 2832,
      "iscrit": 2833,
      "gui": 2834,
      "tutta": 2835,
      "domanda": 2836,
      "Lisbona": 2837,
      "Gli": 2838,
      "relations": 2839,
      "affe": 2840,
      "Turkey": 2841,
      "pron": 2842,
      "ising": 2843,
      "dagli": 2844,
      "quelle": 2845,
      "unità": 2846,
      "alisation": 2847,
      "industria": 2848,
      "extremely": 2849,
      "having": 2850,
      "dist": 2851,
      ").": 2852,
      "Da": 2853,
      "atamente": 2854,
      "unci": 2855,
      "potr": 2856,
      "forte": 2857,
      "parten": 2858,
      "legislazione": 2859,
      "name": 2860,
      "ics": 2861,
      "life": 2862,
      "institution": 2863,
      "dialogue": 2864,
      "influ": 2865,
      "tutela": 2866,
      "deleg": 2867,
      "availa": 2868,
      "trattato": 2869,
      "signora": 2870,
      "gas": 2871,
      "hon": 2872,
      "onostante": 2873,
      "interessi": 2874,
      "iore": 2875,
      "following": 2876,
      "avanti": 2877,
      "adopt": 2878,
      "fl": 2879,
      "head": 2880,
      "initiative": 2881,
      "prod": 2882,
      "tran": 2883,
      "contesto": 2884,
      "truzione": 2885,
      "dou": 2886,
      "istan": 2887,
      "comunitario": 2888,
      "agricultural": 2889,
      "Di": 2890,
      "You": 2891,
      "called": 2892,
      "riforma": 2893,
      "eder": 2894,
      "objectives": 2895,
      "mean": 2896,
      "amin": 2897,
      "pose": 2898,
      "commend": 2899,
      "osserv": 2900,
      "concerns": 2901,
      "ick": 2902,
      "approccio": 2903,
      "scambi": 2904,
      "frica": 2905,
      "groups": 2906,
      "realizz": 2907,
      "Government": 2908,
      "dimens": 2909,
      "rage": 2910,
      "Let": 2911,
      "Med": 2912,
      "strumenti": 2913,
      "entro": 2914,
      "mise": 2915,
      "experi": 2916,
      "legislative": 2917,
      "start": 2918,
      "tele": 2919,
      "utare": 2920,
      "global": 2921,
      "Credo": 2922,
      "annu": 2923,
      "states": 2924,
      "risk": 2925,
      "begin": 2926,
      "ultimi": 2927,
      "riconosci": 2928,
      "Dire": 2929,
      "riun": 2930,
      "coinvol": 2931,
      "particip": 2932,
      "jects": 2933,
      "Gre": 2934,
      "portare": 2935,
      "firm": 2936,
      "With": 2937,
      "him": 2938,
      "ista": 2939,
      "objective": 2940,
      "fication": 2941,
      "concerning": 2942,
      "scri": 2943,
      "svilup": 2944,
      "commercio": 2945,
      "mentioned": 2946,
      "zzare": 2947,
      "strateg": 2948,
      "dly": 2949,
      "gliere": 2950,
      "expres": 2951,
      "viso": 2952,
      "comunicazione": 2953,
      "siasi": 2954,
      "raph": 2955,
      "seno": 2956,
      "jobs": 2957,
      "enor": 2958,
      "sfi": 2959,
      "pop": 2960,
      "creazione": 2961,
      "2001": 2962,
      "Su": 2963,
      "monitor": 2964,
      "cate": 2965,
      "rus": 2966,
      "attere": 2967,
      "posed": 2968,
      "sabile": 2969,
      "qualche": 2970,
      "compren": 2971,
      "significant": 2972,
      "fatti": 2973,
      "materi": 2974,
      "25": 2975,
      "vale": 2976,
      "invi": 2977,
      "appi": 2978,
      "coloro": 2979,
      "dono": 2980,
      "dero": 2981,
      "presentato": 2982,
      "fair": 2983,
      "successo": 2984,
      "presentata": 2985,
      "Turchia": 2986,
      "giustizia": 2987,
      "Artic": 2988,
      "irst": 2989,
      "assess": 2990,
      "spa": 2991,
      "might": 2992,
      "Anche": 2993,
      "impact": 2994,
      "iscritto": 2995,
      "venga": 2996,
      "popolazione": 2997,
      "dub": 2998,
      "treat": 2999,
      "avuto": 3000,
      "2007": 3001,
      "diverse": 3002,
      "subst": 3003,
      "dovrebbero": 3004,
      "riferimento": 3005,
      "Ira": 3006,
      "enter": 3007,
      "tribu": 3008,
      "available": 3009,
      "dunque": 3010,
      "sever": 3011,
      "cid": 3012,
      "viamente": 3013,
      "frut": 3014,
      "richiesta": 3015,
      "struttur": 3016,
      "Ritengo": 3017,
      "possano": 3018,
      "First": 3019,
      "riten": 3020,
      "divers": 3021,
      "Iraq": 3022,
      "discu": 3023,
      "icile": 3024,
      "difficile": 3025,
      "linea": 3026,
      "draw": 3027,
      "svolto": 3028,
      "sso": 3029,
      "sett": 3030,
      "Africa": 3031,
      "cili": 3032,
      "stabilità": 3033,
      "voto": 3034,
      "trasporto": 3035,
      "amendment": 3036,
      "never": 3037,
      "indipend": 3038,
      "regional": 3039,
      "sede": 3040,
      "parole": 3041,
      "short": 3042,
      "inn": 3043,
      "appre": 3044,
      "results": 3045,
      "maggioranza": 3046,
      "assol": 3047,
      "largement": 3048,
      "fica": 3049,
      "avvi": 3050,
      "debba": 3051,
      "All": 3052,
      "fish": 3053,
      "ove": 3054,
      "meglio": 3055,
      "cases": 3056,
      "durante": 3057,
      "ME": 3058,
      "cchi": 3059,
      "actually": 3060,
      "uomo": 3061,
      "Po": 3062,
      "appli": 3063,
      "formazione": 3064,
      "emphas": 3065,
      "others": 3066,
      "positivo": 3067,
      "context": 3068,
      "protect": 3069,
      "management": 3070,
      "confer": 3071,
      "responsible": 3072,
      "venti": 3073,
      "needed": 3074,
      "ported": 3075,
      "questions": 3076,
      "qualsiasi": 3077,
      "Democ": 3078,
      "German": 3079,
      "buto": 3080,
      "systems": 3081,
      "plic": 3082,
      "civil": 3083,
      "progetti": 3084,
      "Off": 3085,
      "anal": 3086,
      "compre": 3087,
      "developing": 3088,
      "cco": 3089,
      "principi": 3090,
      "Finally": 3091,
      "guarantee": 3092,
      "bour": 3093,
      "keep": 3094,
      "molte": 3095,
      "risultato": 3096,
      "Desi": 3097,
      "detta": 3098,
      "giov": 3099,
      "2006": 3100,
      "Reg": 3101,
      "Be": 3102,
      "SE": 3103,
      "atis": 3104,
      "assist": 3105,
      "impegn": 3106,
      "matters": 3107,
      "adottare": 3108,
      "promuovere": 3109,
      "integrazione": 3110,
      "knowled": 3111,
      "sforzi": 3112,
      "consequ": 3113,
      "difficol": 3114,
      "aumento": 3115,
      "enough": 3116,
      "ttamente": 3117,
      "reasons": 3118,
      "razione": 3119,
      "accetta": 3120,
      "serie": 3121,
      "profession": 3122,
      "indeed": 3123,
      "ties": 3124,
      "utamente": 3125,
      "glia": 3126,
      "actions": 3127,
      "En": 3128,
      "bamb": 3129,
      "kind": 3130,
      "climate": 3131,
      "cra": 3132,
      "relative": 3133,
      "joint": 3134,
      "Bal": 3135,
      "istituzioni": 3136,
      "Article": 3137,
      "difficoltà": 3138,
      "tice": 3139,
      "comunque": 3140,
      "estremamente": 3141,
      "sus": 3142,
      "principles": 3143,
      "collega": 3144,
      "2004": 3145,
      "education": 3146,
      "ardi": 3147,
      "rifi": 3148,
      "vile": 3149,
      "themselves": 3150,
      "currently": 3151,
      "capacità": 3152,
      "evitare": 3153,
      "gore": 3154,
      "apply": 3155,
      "internazionali": 3156,
      "pan": 3157,
      "este": 3158,
      "tecn": 3159,
      "esiste": 3160,
      "rischio": 3161,
      "isti": 3162,
      "fail": 3163,
      "Pertanto": 3164,
      "raggiungere": 3165,
      "ghe": 3166,
      "ought": 3167,
      "utes": 3168,
      "davvero": 3169,
      "altern": 3170,
      "Chi": 3171,
      "ridurre": 3172,
      "found": 3173,
      "zzazioni": 3174,
      "scel": 3175,
      "Office": 3176,
      "contain": 3177,
      "seguire": 3178,
      "FR": 3179,
      "special": 3180,
      "essenziale": 3181,
      "cuna": 3182,
      "enlargement": 3183,
      "confi": 3184,
      "interpre": 3185,
      "larmente": 3186,
      "seconda": 3187,
      "conferen": 3188,
      "pubblico": 3189,
      "CE": 3190,
      "Istitu": 3191,
      "modif": 3192,
      "sugli": 3193,
      "doing": 3194,
      "parties": 3195,
      "circa": 3196,
      "aug": 3197,
      "centrale": 3198,
      "raccom": 3199,
      "iterrane": 3200,
      "Mediterrane": 3201,
      "Cour": 3202,
      "dese": 3203,
      "voli": 3204,
      "getto": 3205,
      "valori": 3206,
      "opinione": 3207,
      "sov": 3208,
      "resì": 3209,
      "consumers": 3210,
      "altresì": 3211,
      "appiamo": 3212,
      "bit": 3213,
      "riti": 3214,
      "conti": 3215,
      "ably": 3216,
      "esprimere": 3217,
      "writing": 3218,
      "II": 3219,
      "test": 3220,
      "stanno": 3221,
      "tenuto": 3222,
      "assistenza": 3223,
      "months": 3224,
      "ulteri": 3225,
      "excell": 3226,
      "conflic": 3227,
      "tas": 3228,
      "vali": 3229,
      "costru": 3230,
      "armi": 3231,
      "riguard": 3232,
      "Infine": 3233,
      "members": 3234,
      "independ": 3235,
      "perhaps": 3236,
      "oblig": 3237,
      "she": 3238,
      "demon": 3239,
      "concentr": 3240,
      "expect": 3241,
      "trovare": 3242,
      "priority": 3243,
      "benefit": 3244,
      "mesi": 3245,
      "recommend": 3246,
      "express": 3247,
      "veness": 3248,
      "pared": 3249,
      "ottenere": 3250,
      "buon": 3251,
      "buil": 3252,
      "accep": 3253,
      "achieved": 3254,
      "Court": 3255,
      "tle": 3256,
      "onia": 3257,
      "emb": 3258,
      "misura": 3259,
      "regards": 3260,
      "nucle": 3261,
      "aus": 3262,
      "mult": 3263,
      "disast": 3264,
      "fase": 3265,
      "2003": 3266,
      "sistemi": 3267,
      "gree": 3268,
      "constru": 3269,
      "zionali": 3270,
      "longer": 3271,
      "Social": 3272,
      "ground": 3273,
      "plo": 3274,
      "comunità": 3275,
      "giuridica": 3276,
      "prospetti": 3277,
      "Car": 3278,
      "PE": 3279,
      "sit": 3280,
      "cies": 3281,
      "contributo": 3282,
      "riduzione": 3283,
      "local": 3284,
      "resto": 3285,
      "trasparenza": 3286,
      "Lo": 3287,
      "fino": 3288,
      "individual": 3289,
      "assolutamente": 3290,
      "Ser": 3291,
      "Romania": 3292,
      "significa": 3293,
      "young": 3294,
      "Koso": 3295,
      "request": 3296,
      "threat": 3297,
      "ody": 3298,
      "grazie": 3299,
      "draft": 3300,
      "agricoltura": 3301,
      "fil": 3302,
      "affari": 3303,
      "changes": 3304,
      "funding": 3305,
      "fortunately": 3306,
      "Ac": 3307,
      "My": 3308,
      "ende": 3309,
      "itato": 3310,
      "veni": 3311,
      "fidu": 3312,
      "2002": 3313,
      "reports": 3314,
      "conseguenze": 3315,
      "acceptable": 3316,
      "UN": 3317,
      "depend": 3318,
      "posso": 3319,
      "costs": 3320,
      "considerazione": 3321,
      "ph": 3322,
      "vu": 3323,
      "coes": 3324,
      "usi": 3325,
      "inc": 3326,
      "ulla": 3327,
      "lingu": 3328,
      "Democrat": 3329,
      "ram": 3330,
      "vedere": 3331,
      "atura": 3332,
      "giun": 3333,
      "disposizioni": 3334,
      "Convention": 3335,
      "globale": 3336,
      "Desidero": 3337,
      "zone": 3338,
      "ath": 3339,
      "attualmente": 3340,
      "Nor": 3341,
      "Pe": 3342,
      "istruzione": 3343,
      "2009": 3344,
      "ficare": 3345,
      "maintain": 3346,
      "regarding": 3347,
      "solidarietà": 3348,
      "media": 3349,
      "conflit": 3350,
      "compromesso": 3351,
      "compromise": 3352,
      "bel": 3353,
      "administr": 3354,
      "obbli": 3355,
      "ef": 3356,
      "riman": 3357,
      "urale": 3358,
      "finanziari": 3359,
      "dition": 3360,
      "integration": 3361,
      "wers": 3362,
      "cere": 3363,
      "pressione": 3364,
      "East": 3365,
      "avviso": 3366,
      "ON": 3367,
      "zed": 3368,
      "identi": 3369,
      "iniziative": 3370,
      "four": 3371,
      "ages": 3372,
      "atrice": 3373,
      "esclu": 3374,
      "poste": 3375,
      "guer": 3376,
      "economici": 3377,
      "incid": 3378,
      "moment": 3379,
      "lett": 3380,
      "past": 3381,
      "ghts": 3382,
      "atory": 3383,
      "ulg": 3384,
      "trasporti": 3385,
      "sustainable": 3386,
      "rivol": 3387,
      "rendere": 3388,
      "chiaramente": 3389,
      "deta": 3390,
      "prob": 3391,
      "mercati": 3392,
      "foreign": 3393,
      "Amendment": 3394,
      "investimenti": 3395,
      "commitment": 3396,
      "potenzi": 3397,
      "aere": 3398,
      "satis": 3399,
      "item": 3400,
      "projects": 3401,
      "revoli": 3402,
      "carri": 3403,
      "active": 3404,
      "congratulate": 3405,
      "acquis": 3406,
      "excellent": 3407,
      "ming": 3408,
      "otti": 3409,
      "reli": 3410,
      "hear": 3411,
      "although": 3412,
      "structure": 3413,
      "little": 3414,
      "activities": 3415,
      "partecipa": 3416,
      "18": 3417,
      "stud": 3418,
      "face": 3419,
      "criteri": 3420,
      "dovremmo": 3421,
      "true": 3422,
      "Corte": 3423,
      "cano": 3424,
      "theless": 3425,
      "precise": 3426,
      "giovani": 3427,
      "coesione": 3428,
      "separ": 3429,
      "rable": 3430,
      "governi": 3431,
      "proprie": 3432,
      "xi": 3433,
      "safe": 3434,
      "address": 3435,
      "dichiarazione": 3436,
      "bambini": 3437,
      "poli": 3438,
      "ings": 3439,
      "vigore": 3440,
      "Kosovo": 3441,
      "Gi": 3442,
      "scorso": 3443,
      "upon": 3444,
      "fronti": 3445,
      "eco": 3446,
      "star": 3447,
      "finanziaria": 3448,
      "raccomand": 3449,
      "Am": 3450,
      "pari": 3451,
      "2008": 3452,
      "agi": 3453,
      "inizio": 3454,
      "ringrazio": 3455,
      "Tra": 3456,
      "minim": 3457,
      "obvious": 3458,
      "irà": 3459,
      "1999": 3460,
      "riser": 3461,
      "regole": 3462,
      "domani": 3463,
      "seems": 3464,
      "Gree": 3465,
      "lear": 3466,
      "assicurare": 3467,
      "nothing": 3468,
      "final": 3469,
      "visions": 3470,
      "grave": 3471,
      "documento": 3472,
      "mut": 3473,
      "itions": 3474,
      "asy": 3475,
      "nuclear": 3476,
      "governments": 3477,
      "conseguenza": 3478,
      "paragra": 3479,
      "cut": 3480,
      "date": 3481,
      "mare": 3482,
      "eng": 3483,
      "soon": 3484,
      "fiducia": 3485,
      "restric": 3486,
      "terzi": 3487,
      "acc": 3488,
      "pia": 3489,
      "deri": 3490,
      "continuare": 3491,
      "markets": 3492,
      "answer": 3493,
      "Siamo": 3494,
      "carica": 3495,
      "regolament": 3496,
      "promote": 3497,
      "Ono": 3498,
      "broad": 3499,
      "ternal": 3500,
      "terrorismo": 3501,
      "secu": 3502,
      "Comunità": 3503,
      "dovrà": 3504,
      "ultimo": 3505,
      "impatto": 3506,
      "17": 3507,
      "Our": 3508,
      "standard": 3509,
      "strada": 3510,
      "accession": 3511,
      "97": 3512,
      "avo": 3513,
      "suff": 3514,
      "labour": 3515,
      "fornire": 3516,
      "tomor": 3517,
      "organizzazioni": 3518,
      "tomorrow": 3519,
      "ttr": 3520,
      "isco": 3521,
      "tempor": 3522,
      "transparency": 3523,
      "Pa": 3524,
      "dri": 3525,
      "values": 3526,
      "ambientale": 3527,
      "Convenzione": 3528,
      "Rights": 3529,
      "ricordare": 3530,
      "2005": 3531,
      "compito": 3532,
      "ccan": 3533,
      "nical": 3534,
      "pericolo": 3535,
      "bito": 3536,
      "ators": 3537,
      "incoraggi": 3538,
      "bra": 3539,
      "mili": 3540,
      "terà": 3541,
      "allarg": 3542,
      "criteria": 3543,
      "include": 3544,
      "scopo": 3545,
      "lari": 3546,
      "ilater": 3547,
      "Brit": 3548,
      "water": 3549,
      "volontà": 3550,
      "makes": 3551,
      "personale": 3552,
      "communication": 3553,
      "doub": 3554,
      "ever": 3555,
      "inser": 3556,
      "previous": 3557,
      "elezioni": 3558,
      "finanziario": 3559,
      "Secondly": 3560,
      "Palest": 3561,
      "paro": 3562,
      "manif": 3563,
      "chiedere": 3564,
      "strutture": 3565,
      "body": 3566,
      "rire": 3567,
      "difesa": 3568,
      "poverty": 3569,
      "rapid": 3570,
      "unica": 3571,
      "terzo": 3572,
      "focus": 3573,
      "intende": 3574,
      "ie": 3575,
      "ern": 3576,
      "seen": 3577,
      "necessarie": 3578,
      "piccole": 3579,
      "confid": 3580,
      "Fo": 3581,
      "tari": 3582,
      "usto": 3583,
      "document": 3584,
      "cambiamento": 3585,
      "issi": 3586,
      "above": 3587,
      "fosse": 3588,
      "solidarity": 3589,
      "several": 3590,
      "usa": 3591,
      "ovviamente": 3592,
      "terrorism": 3593,
      "principali": 3594,
      "old": 3595,
      "avrebbe": 3596,
      "uttosto": 3597,
      "aspects": 3598,
      "provided": 3599,
      "esperi": 3600,
      "potere": 3601,
      "project": 3602,
      "agreed": 3603,
      "aiuto": 3604,
      "finanziarie": 3605,
      "hard": 3606,
      "sì": 3607,
      "ugu": 3608,
      "intra": 3609,
      "dimost": 3610,
      "concili": 3611,
      "dise": 3612,
      "particolarmente": 3613,
      "increased": 3614,
      "afferma": 3615,
      "povertà": 3616,
      "alcuna": 3617,
      "consolid": 3618,
      "quick": 3619,
      "parla": 3620,
      "response": 3621,
      "service": 3622,
      "sostenibile": 3623,
      "partecipazione": 3624,
      "link": 3625,
      "dem": 3626,
      "chen": 3627,
      "coeren": 3628,
      "finanziamento": 3629,
      "population": 3630,
      "knowledge": 3631,
      "vato": 3632,
      "revisione": 3633,
      "condu": 3634,
      "asse": 3635,
      "cose": 3636,
      "provve": 3637,
      "piuttosto": 3638,
      "ultima": 3639,
      "concrete": 3640,
      "Directive": 3641,
      "Deve": 3642,
      "remmo": 3643,
      "absolu": 3644,
      "reign": 3645,
      "week": 3646,
      "40": 3647,
      "bon": 3648,
      "bad": 3649,
      "dipend": 3650,
      "ambiti": 3651,
      "affermato": 3652,
      "conne": 3653,
      "chiare": 3654,
      "relatrice": 3655,
      "necessari": 3656,
      "sfrut": 3657,
      "uine": 3658,
      "reach": 3659,
      "China": 3660,
      "either": 3661,
      "stability": 3662,
      "parola": 3663,
      "temi": 3664,
      "tell": 3665,
      "vittime": 3666,
      "spite": 3667,
      "ibili": 3668,
      "tions": 3669,
      "ensu": 3670,
      "colo": 3671,
      "abbi": 3672,
      "plen": 3673,
      "genere": 3674,
      "economiche": 3675,
      "2010": 3676,
      "condivi": 3677,
      "poco": 3678,
      "model": 3679,
      "using": 3680,
      "formu": 3681,
      "basic": 3682,
      "procedures": 3683,
      "contrario": 3684,
      "rafforzare": 3685,
      "parlamentari": 3686,
      "mezzi": 3687,
      "Una": 3688,
      "eletto": 3689,
      "Therefore": 3690,
      "fisc": 3691,
      "status": 3692,
      "naturalmente": 3693,
      "Ban": 3694,
      "perman": 3695,
      "forza": 3696,
      "voting": 3697,
      "lines": 3698,
      "inqu": 3699,
      "infor": 3700,
      "serve": 3701,
      "pleased": 3702,
      "violenza": 3703,
      "violence": 3704,
      "prossimo": 3705,
      "stessi": 3706,
      "advanta": 3707,
      "presenti": 3708,
      "everyone": 3709,
      "follow": 3710,
      "fal": 3711,
      "quasi": 3712,
      "parlare": 3713,
      "vazioni": 3714,
      "cata": 3715,
      "sk": 3716,
      "provisions": 3717,
      "stead": 3718,
      "comunitaria": 3719,
      "appear": 3720,
      "contribution": 3721,
      "meccan": 3722,
      "pieno": 3723,
      "repe": 3724,
      "stro": 3725,
      "comuni": 3726,
      "costituisce": 3727,
      "bro": 3728,
      "appena": 3729,
      "mette": 3730,
      "cohesion": 3731,
      "categ": 3732,
      "bar": 3733,
      "ficazione": 3734,
      "refle": 3735,
      "disposizione": 3736,
      "coordinamento": 3737,
      "technical": 3738,
      "16": 3739,
      "Tale": 3740,
      "pack": 3741,
      "conver": 3742,
      "effect": 3743,
      "ging": 3744,
      "assa": 3745,
      "meto": 3746,
      "verific": 3747,
      "figu": 3748,
      "ossia": 3749,
      "cks": 3750,
      "military": 3751,
      "Wor": 3752,
      "izione": 3753,
      "held": 3754,
      "climat": 3755,
      "Occorre": 3756,
      "auguro": 3757,
      "dito": 3758,
      "stage": 3759,
      "consi": 3760,
      "istiche": 3761,
      "definiti": 3762,
      "cultural": 3763,
      "Nazioni": 3764,
      "spee": 3765,
      "relativa": 3766,
      "fondo": 3767,
      "azi": 3768,
      "tazioni": 3769,
      "cum": 3770,
      "creation": 3771,
      "famili": 3772,
      "emissioni": 3773,
      "settimana": 3774,
      "total": 3775,
      "adozione": 3776,
      "tocol": 3777,
      "isca": 3778,
      "une": 3779,
      "acche": 3780,
      "colleagues": 3781,
      "meth": 3782,
      "Itali": 3783,
      "necessaria": 3784,
      "sense": 3785,
      "scrit": 3786,
      "crucial": 3787,
      "collaborazione": 3788,
      "ourselves": 3789,
      "tempt": 3790,
      "consumer": 3791,
      "reduce": 3792,
      "America": 3793,
      "prevede": 3794,
      "Org": 3795,
      "gente": 3796,
      "enable": 3797,
      "ala": 3798,
      "ampli": 3799,
      "vengano": 3800,
      "buona": 3801,
      "Unite": 3802,
      "icoli": 3803,
      "animali": 3804,
      "esamin": 3805,
      "pero": 3806,
      "prezzi": 3807,
      "organisations": 3808,
      "namely": 3809,
      "elections": 3810,
      "parlamentare": 3811,
      "existing": 3812,
      "conserv": 3813,
      "exce": 3814,
      "luce": 3815,
      "victi": 3816,
      "practice": 3817,
      "private": 3818,
      "experience": 3819,
      "fall": 3820,
      "hu": 3821,
      "wide": 3822,
      "sedu": 3823,
      "compar": 3824,
      "certa": 3825,
      "until": 3826,
      "riusci": 3827,
      "aged": 3828,
      "deciso": 3829,
      "asked": 3830,
      "paragrafo": 3831,
      "provvedi": 3832,
      "Bel": 3833,
      "atter": 3834,
      "armoni": 3835,
      "visti": 3836,
      "equilibri": 3837,
      "consequences": 3838,
      "esame": 3839,
      "unanim": 3840,
      "gies": 3841,
      "discussion": 3842,
      "favorevole": 3843,
      "regulations": 3844,
      "One": 3845,
      "deli": 3846,
      "urgent": 3847,
      "presented": 3848,
      "critic": 3849,
      "pubblic": 3850,
      "condo": 3851,
      "civ": 3852,
      "resso": 3853,
      "Bulg": 3854,
      "PPE": 3855,
      "amount": 3856,
      "Minist": 3857,
      "rispondere": 3858,
      "Sch": 3859,
      "stress": 3860,
      "appoggi": 3861,
      "ners": 3862,
      "”.": 3863,
      "mantenere": 3864,
      "legge": 3865,
      "circo": 3866,
      "Ir": 3867,
      "abb": 3868,
      "allora": 3869,
      "elementi": 3870,
      "eccell": 3871,
      "indis": 3872,
      "stanzi": 3873,
      "dum": 3874,
      "utile": 3875,
      "univers": 3876,
      "Fondo": 3877,
      "Istituzioni": 3878,
      "ripe": 3879,
      "mini": 3880,
      "range": 3881,
      "scambio": 3882,
      "run": 3883,
      "talk": 3884,
      "institutional": 3885,
      "guerra": 3886,
      "fini": 3887,
      "direzione": 3888,
      "citare": 3889,
      "adequ": 3890,
      "motivi": 3891,
      "osta": 3892,
      "review": 3893,
      "Party": 3894,
      "rule": 3895,
      "requis": 3896,
      "danger": 3897,
      "traffic": 3898,
      "investment": 3899,
      "dendo": 3900,
      "wan": 3901,
      "along": 3902,
      "uttori": 3903,
      "leader": 3904,
      "uale": 3905,
      "relating": 3906,
      "nature": 3907,
      "ausp": 3908,
      "nonostante": 3909,
      "tes": 3910,
      "diment": 3911,
      "chiari": 3912,
      "presentare": 3913,
      "gravi": 3914,
      "flexi": 3915,
      "commerciali": 3916,
      "strutturali": 3917,
      "ying": 3918,
      "ches": 3919,
      "volu": 3920,
      "mechan": 3921,
      "attro": 3922,
      "priorities": 3923,
      "regionale": 3924,
      "servizio": 3925,
      "passato": 3926,
      "tabled": 3927,
      "network": 3928,
      "ports": 3929,
      "Thank": 3930,
      "risolvere": 3931,
      "flessi": 3932,
      "Ber": 3933,
      "Schen": 3934,
      "rate": 3935,
      "riforme": 3936,
      "farmers": 3937,
      "saying": 3938,
      "statement": 3939,
      "conclusione": 3940,
      "Internet": 3941,
      "civili": 3942,
      "Schengen": 3943,
      "abilmente": 3944,
      "garanzi": 3945,
      "included": 3946,
      "argomento": 3947,
      "glie": 3948,
      "pubblici": 3949,
      "introduzione": 3950,
      "instrument": 3951,
      "suggest": 3952,
      "fishing": 3953,
      "method": 3954,
      "billion": 3955,
      "gned": 3956,
      "list": 3957,
      "impie": 3958,
      "subsi": 3959,
      "established": 3960,
      "community": 3961,
      "mancan": 3962,
      "potrà": 3963,
      "die": 3964,
      "governance": 3965,
      "popolo": 3966,
      "pension": 3967,
      "sufficiente": 3968,
      "around": 3969,
      "NA": 3970,
      "When": 3971,
      "preoccupa": 3972,
      "gimento": 3973,
      "required": 3974,
      "immigrazione": 3975,
      "building": 3976,
      "gl": 3977,
      "inted": 3978,
      "quattro": 3979,
      "training": 3980,
      "compag": 3981,
      "ecce": 3982,
      "discutere": 3983,
      "scar": 3984,
      "proposto": 3985,
      "justice": 3986,
      "decided": 3987,
      "oggetto": 3988,
      "target": 3989,
      "avoid": 3990,
      "27": 3991,
      "rig": 3992,
      "tiamo": 3993,
      "bear": 3994,
      "respe": 3995,
      "dovuto": 3996,
      "talking": 3997,
      "semplicemente": 3998,
      "alimentare": 3999,
      "normativa": 4000,
      "Barro": 4001,
      "conosc": 4002,
      "cident": 4003,
      "Cina": 4004,
      "Vo": 4005,
      "mention": 4006,
      "tivo": 4007,
      "giusto": 4008,
      "migr": 4009,
      "miei": 4010,
      "langu": 4011,
      "Aust": 4012,
      "PL": 4013,
      "Ru": 4014,
      "civile": 4015,
      "visi": 4016,
      "landa": 4017,
      "crime": 4018,
      "Pen": 4019,
      "nulla": 4020,
      "anch": 4021,
      "rilev": 4022,
      "potrebbero": 4023,
      "sche": 4024,
      "reca": 4025,
      "powers": 4026,
      "ters": 4027,
      "attri": 4028,
      "offici": 4029,
      "svolgere": 4030,
      "throughout": 4031,
      "sette": 4032,
      "instruments": 4033,
      "illegal": 4034,
      "ourable": 4035,
      "avanz": 4036,
      "elemento": 4037,
      "compens": 4038,
      "toria": 4039,
      "Vertice": 4040,
      "monitoring": 4041,
      "mancanza": 4042,
      "bano": 4043,
      "six": 4044,
      "takes": 4045,
      "prepared": 4046,
      "potuto": 4047,
      "tram": 4048,
      "according": 4049,
      "definizione": 4050,
      "quickly": 4051,
      "conta": 4052,
      "mano": 4053,
      "carry": 4054,
      "everything": 4055,
      "fishe": 4056,
      "ctr": 4057,
      "pacche": 4058,
      "invit": 4059,
      "anu": 4060,
      "partners": 4061,
      "Constitution": 4062,
      "assistance": 4063,
      "sei": 4064,
      "contempo": 4065,
      "coordination": 4066,
      "Pos": 4067,
      "ju": 4068,
      "relev": 4069,
      "provo": 4070,
      "accol": 4071,
      "genze": 4072,
      "rare": 4073,
      "sud": 4074,
      "nello": 4075,
      "dered": 4076,
      "rought": 4077,
      "stop": 4078,
      "itarian": 4079,
      "spazio": 4080,
      "Ad": 4081,
      "Mol": 4082,
      "Oggi": 4083,
      "cat": 4084,
      "parità": 4085,
      "initiatives": 4086,
      "agire": 4087,
      "fisheries": 4088,
      "erano": 4089,
      "almeno": 4090,
      "acro": 4091,
      "direction": 4092,
      "pienamente": 4093,
      "quant": 4094,
      "ending": 4095,
      "compli": 4096,
      "chiedo": 4097,
      "harmon": 4098,
      "gal": 4099,
      "task": 4100,
      "preso": 4101,
      "elettr": 4102,
      "dubbio": 4103,
      "attempt": 4104,
      "raggiunto": 4105,
      "application": 4106,
      "equilibrio": 4107,
      "attribu": 4108,
      "chiesto": 4109,
      "certi": 4110,
      "osser": 4111,
      "value": 4112,
      "Conferenza": 4113,
      "encourage": 4114,
      "carried": 4115,
      "abbiano": 4116,
      "brit": 4117,
      "preoccupazione": 4118,
      "opportunities": 4119,
      "requirements": 4120,
      "britann": 4121,
      "bbene": 4122,
      "amer": 4123,
      "aliment": 4124,
      "ovvero": 4125,
      "rappresentanti": 4126,
      "Just": 4127,
      "din": 4128,
      "valore": 4129,
      "Develop": 4130,
      "rin": 4131,
      "ghbour": 4132,
      "five": 4133,
      "operation": 4134,
      "spese": 4135,
      "pagna": 4136,
      "consult": 4137,
      "strengthe": 4138,
      "conflict": 4139,
      "demonstr": 4140,
      "OM": 4141,
      "accettabile": 4142,
      "Pur": 4143,
      "sappiamo": 4144,
      "cultura": 4145,
      "contribuire": 4146,
      "agriculture": 4147,
      "produttori": 4148,
      "fici": 4149,
      "mobil": 4150,
      "ulter": 4151,
      "distribu": 4152,
      "pressure": 4153,
      "minac": 4154,
      "sero": 4155,
      "genuine": 4156,
      "alisi": 4157,
      "impegni": 4158,
      "fami": 4159,
      "gare": 4160,
      "ons": 4161,
      "ormai": 4162,
      "exer": 4163,
      "rench": 4164,
      "effettu": 4165,
      "bly": 4166,
      "alta": 4167,
      "itutto": 4168,
      "istic": 4169,
      "consum": 4170,
      "cambiamenti": 4171,
      "principale": 4172,
      "candidati": 4173,
      "strengthen": 4174,
      "sterdam": 4175,
      "Amsterdam": 4176,
      "rs": 4177,
      "eranno": 4178,
      "consenso": 4179,
      "ascol": 4180,
      "motion": 4181,
      "external": 4182,
      "maggiori": 4183,
      "closed": 4184,
      "facilit": 4185,
      "bens": 4186,
      "infine": 4187,
      "aree": 4188,
      "emissions": 4189,
      "bensì": 4190,
      "French": 4191,
      "pil": 4192,
      "rup": 4193,
      "stam": 4194,
      "adesso": 4195,
      "autori": 4196,
      "migliori": 4197,
      "consist": 4198,
      "presidency": 4199,
      "seduta": 4200,
      "reci": 4201,
      "tera": 4202,
      "vera": 4203,
      "missione": 4204,
      "vital": 4205,
      "frances": 4206,
      "correct": 4207,
      "adottato": 4208,
      "recente": 4209,
      "miliardi": 4210,
      "Gra": 4211,
      "fri": 4212,
      "scor": 4213,
      "conom": 4214,
      "intervenire": 4215,
      "tempi": 4216,
      "opportuno": 4217,
      "culture": 4218,
      "spie": 4219,
      "France": 4220,
      "espresso": 4221,
      "interrogazione": 4222,
      "Econom": 4223,
      "mitted": 4224,
      "mandato": 4225,
      "doubt": 4226,
      "Bulgaria": 4227,
      "thus": 4228,
      "ressed": 4229,
      "entito": 4230,
      "decisi": 4231,
      "farlo": 4232,
      "natura": 4233,
      "Nella": 4234,
      "potential": 4235,
      "technology": 4236,
      "giving": 4237,
      "budgetary": 4238,
      "Mediterranean": 4239,
      "incenti": 4240,
      "equal": 4241,
      "spo": 4242,
      "raised": 4243,
      "responsabili": 4244,
      "competitività": 4245,
      "uffici": 4246,
      "alleg": 4247,
      "days": 4248,
      "concludere": 4249,
      "borders": 4250,
      "partenari": 4251,
      "pati": 4252,
      "iono": 4253,
      "votare": 4254,
      "ously": 4255,
      "waste": 4256,
      "thanks": 4257,
      "cioè": 4258,
      "involve": 4259,
      "sectors": 4260,
      "vantaggi": 4261,
      "movement": 4262,
      "Development": 4263,
      "Swe": 4264,
      "brought": 4265,
      "nam": 4266,
      "uri": 4267,
      "onom": 4268,
      "heard": 4269,
      "death": 4270,
      "regre": 4271,
      "supported": 4272,
      "May": 4273,
      "reached": 4274,
      "Irel": 4275,
      "alto": 4276,
      "arlo": 4277,
      "ident": 4278,
      "Appla": 4279,
      "enterpris": 4280,
      "vuole": 4281,
      "sens": 4282,
      "cel": 4283,
      "lling": 4284,
      "Noi": 4285,
      "riconosce": 4286,
      "effort": 4287,
      "discrimination": 4288,
      "relevant": 4289,
      "Ireland": 4290,
      "nom": 4291,
      "analisi": 4292,
      "eso": 4293,
      "dign": 4294,
      "ases": 4295,
      "finally": 4296,
      "reading": 4297,
      "sufficient": 4298,
      "dimostrato": 4299,
      "victims": 4300,
      "rebbero": 4301,
      "whose": 4302,
      "lavorare": 4303,
      "agricola": 4304,
      "vantaggio": 4305,
      "passi": 4306,
      "origine": 4307,
      "bilities": 4308,
      "procedere": 4309,
      "miglioramento": 4310,
      "conclusion": 4311,
      "representatives": 4312,
      "80": 4313,
      "bilater": 4314,
      "Regno": 4315,
      "effects": 4316,
      "ACP": 4317,
      "summit": 4318,
      "challenges": 4319,
      "applied": 4320,
      "allargamento": 4321,
      "pacchetto": 4322,
      "Col": 4323,
      "Sin": 4324,
      "Sou": 4325,
      "tin": 4326,
      "vor": 4327,
      "rete": 4328,
      "descri": 4329,
      "plom": 4330,
      "aia": 4331,
      "develo": 4332,
      "reality": 4333,
      "Conference": 4334,
      "absolutely": 4335,
      "'.": 4336,
      "evo": 4337,
      "ature": 4338,
      "extra": 4339,
      "ulteriore": 4340,
      "Ro": 4341,
      "aking": 4342,
      "varie": 4343,
      "enh": 4344,
      "torn": 4345,
      "accettare": 4346,
      "definire": 4347,
      "eserci": 4348,
      "British": 4349,
      "Iran": 4350,
      "diplom": 4351,
      "cosid": 4352,
      "libera": 4353,
      "1998": 4354,
      "package": 4355,
      "wise": 4356,
      "prova": 4357,
      "sola": 4358,
      "quar": 4359,
      "verb": 4360,
      "ancia": 4361,
      "medium": 4362,
      "2020": 4363,
      "Repubblica": 4364,
      "olog": 4365,
      "democratico": 4366,
      "pratica": 4367,
      "assessment": 4368,
      "sitting": 4369,
      "100": 4370,
      "Agree": 4371,
      "divi": 4372,
      "delines": 4373,
      "usione": 4374,
      "wait": 4375,
      "levels": 4376,
      "modern": 4377,
      "lettura": 4378,
      "americ": 4379,
      "Further": 4380,
      "reti": 4381,
      "Chris": 4382,
      "structural": 4383,
      "stituzione": 4384,
      "competenze": 4385,
      "Nations": 4386,
      "py": 4387,
      "ancing": 4388,
      "tradi": 4389,
      "esecu": 4390,
      "istituzione": 4391,
      "eccellente": 4392,
      "developed": 4393,
      "flo": 4394,
      "cover": 4395,
      "viamo": 4396,
      "outside": 4397,
      "zzato": 4398,
      "purtroppo": 4399,
      "anzitutto": 4400,
      "21": 4401,
      "Copen": 4402,
      "consape": 4403,
      "Quest": 4404,
      "consentire": 4405,
      "implemented": 4406,
      "chiede": 4407,
      "Ministro": 4408,
      "Port": 4409,
      "lant": 4410,
      "dela": 4411,
      "living": 4412,
      "noti": 4413,
      "tack": 4414,
      "prefer": 4415,
      "registr": 4416,
      "neighbour": 4417,
      "justif": 4418,
      "cross": 4419,
      "partnership": 4420,
      "expressed": 4421,
      "ond": 4422,
      "Unito": 4423,
      "fiss": 4424,
      "events": 4425,
      "fellow": 4426,
      "amministr": 4427,
      "tezza": 4428,
      "aument": 4429,
      "rispettare": 4430,
      "promozione": 4431,
      "reforms": 4432,
      "discussioni": 4433,
      "businesses": 4434,
      "sfide": 4435,
      "NATO": 4436,
      "Barroso": 4437,
      "osservazioni": 4438,
      "More": 4439,
      "jud": 4440,
      "lim": 4441,
      "intel": 4442,
      "solutions": 4443,
      "responsabile": 4444,
      "evidente": 4445,
      "Americ": 4446,
      "60": 4447,
      "Lu": 4448,
      "Slo": 4449,
      "lot": 4450,
      "piace": 4451,
      "price": 4452,
      "pul": 4453,
      "explo": 4454,
      "istica": 4455,
      "rug": 4456,
      "sapere": 4457,
      "aveva": 4458,
      "Os": 4459,
      "away": 4460,
      "sla": 4461,
      "uramente": 4462,
      "thern": 4463,
      "direttamente": 4464,
      "aumentare": 4465,
      "discussed": 4466,
      "costo": 4467,
      "took": 4468,
      "tive": 4469,
      "verrà": 4470,
      "Republic": 4471,
      "soluzioni": 4472,
      "recently": 4473,
      "capital": 4474,
      "autonom": 4475,
      "ensuring": 4476,
      "vati": 4477,
      "dir": 4478,
      "argu": 4479,
      "manten": 4480,
      "richie": 4481,
      "function": 4482,
      "completely": 4483,
      "reduction": 4484,
      "legitti": 4485,
      "possibility": 4486,
      "personal": 4487,
      "cinque": 4488,
      "Francia": 4489,
      "quote": 4490,
      "defence": 4491,
      "immigration": 4492,
      "innanzi": 4493,
      "Irlanda": 4494,
      "ost": 4495,
      "ory": 4496,
      "dier": 4497,
      "rail": 4498,
      "presenza": 4499,
      "rong": 4500,
      "concerne": 4501,
      "circum": 4502,
      "discussions": 4503,
      "cember": 4504,
      "portato": 4505,
      "December": 4506,
      "nucleare": 4507,
      "confidence": 4508,
      "AL": 4509,
      "Es": 4510,
      "palest": 4511,
      "dici": 4512,
      "stare": 4513,
      "lives": 4514,
      "modello": 4515,
      "missi": 4516,
      "else": 4517,
      "aimed": 4518,
      "treatment": 4519,
      "Palestini": 4520,
      "provvedimenti": 4521,
      "palestin": 4522,
      "hind": 4523,
      "wrong": 4524,
      "disoccupazione": 4525,
      "gradu": 4526,
      "compati": 4527,
      "rispett": 4528,
      "comunitarie": 4529,
      "competitiveness": 4530,
      "ambientali": 4531,
      "directly": 4532,
      "Ni": 4533,
      "Spero": 4534,
      "oni": 4535,
      "lum": 4536,
      "raggiun": 4537,
      "funzionamento": 4538,
      "tramite": 4539,
      "across": 4540,
      "Economic": 4541,
      "eth": 4542,
      "evalu": 4543,
      "ses": 4544,
      "arre": 4545,
      "condem": 4546,
      "ash": 4547,
      "ferro": 4548,
      "known": 4549,
      "dicembre": 4550,
      "agricoltori": 4551,
      "guidelines": 4552,
      "bloc": 4553,
      "despite": 4554,
      "measure": 4555,
      "denaro": 4556,
      "practical": 4557,
      "capacity": 4558,
      "energetica": 4559,
      "message": 4560,
      "comprehen": 4561,
      "NG": 4562,
      "inclus": 4563,
      "ering": 4564,
      "sempli": 4565,
      "istituzionale": 4566,
      "obblig": 4567,
      "annual": 4568,
      "speech": 4569,
      "huge": 4570,
      "Bud": 4571,
      "vagu": 4572,
      "xim": 4573,
      "livelli": 4574,
      "utilizzo": 4575,
      "received": 4576,
      "ied": 4577,
      "enn": 4578,
      "enni": 4579,
      "adoption": 4580,
      "partito": 4581,
      "International": 4582,
      "spero": 4583,
      "parliamentary": 4584,
      "scientific": 4585,
      "itaria": 4586,
      "esten": 4587,
      "cedu": 4588,
      "garant": 4589,
      "estera": 4590,
      "competenza": 4591,
      "malatti": 4592,
      "partenariato": 4593,
      "rito": 4594,
      "previsto": 4595,
      "preoccup": 4596,
      "forms": 4597,
      "effectively": 4598,
      "encourag": 4599,
      "atteggi": 4600,
      "Agreement": 4601,
      "Che": 4602,
      "India": 4603,
      "electr": 4604,
      "ministro": 4605,
      "Policy": 4606,
      "Afgh": 4607,
      "frontiere": 4608,
      "adequate": 4609,
      "Ha": 4610,
      "PT": 4611,
      "lanci": 4612,
      "icare": 4613,
      "voi": 4614,
      "uring": 4615,
      "derà": 4616,
      "alised": 4617,
      "appoggio": 4618,
      "esperienza": 4619,
      "circolazione": 4620,
      "Cro": 4621,
      "provision": 4622,
      "sog": 4623,
      "veramente": 4624,
      "created": 4625,
      "relativi": 4626,
      "sostitu": 4627,
      "successi": 4628,
      "governmental": 4629,
      "esistenti": 4630,
      "Israel": 4631,
      "Firstly": 4632,
      "orto": 4633,
      "stabili": 4634,
      "unemployment": 4635,
      "poll": 4636,
      "chiam": 4637,
      "interven": 4638,
      "worth": 4639,
      "aio": 4640,
      "qualcosa": 4641,
      "conclusioni": 4642,
      "Secondo": 4643,
      "tecnologie": 4644,
      "dut": 4645,
      "mic": 4646,
      "illu": 4647,
      "party": 4648,
      "cise": 4649,
      "attuali": 4650,
      "efficient": 4651,
      "locali": 4652,
      "ricev": 4653,
      "realizzare": 4654,
      "alternative": 4655,
      "Furthermore": 4656,
      "left": 4657,
      "tendo": 4658,
      "svolger": 4659,
      "fuge": 4660,
      "controlli": 4661,
      "negative": 4662,
      "recipro": 4663,
      "gher": 4664,
      "constat": 4665,
      "riba": 4666,
      "coli": 4667,
      "accord": 4668,
      "liberalizzazione": 4669,
      "ulties": 4670,
      "providing": 4671,
      "equi": 4672,
      "eccessi": 4673,
      "difficulties": 4674,
      "esistono": 4675,
      "sviluppare": 4676,
      "friend": 4677,
      "Ex": 4678,
      "ue": 4679,
      "creating": 4680,
      "approved": 4681,
      "producer": 4682,
      "messi": 4683,
      "ragioni": 4684,
      "giusta": 4685,
      "approvato": 4686,
      "criminal": 4687,
      "dimostra": 4688,
      "Afghan": 4689,
      "almost": 4690,
      "rile": 4691,
      "tedes": 4692,
      "bey": 4693,
      "cercare": 4694,
      "prices": 4695,
      "attuare": 4696,
      "sanzioni": 4697,
      "competitive": 4698,
      "capito": 4699,
      "scelta": 4700,
      "independent": 4701,
      "usu": 4702,
      "zation": 4703,
      "zona": 4704,
      "ampio": 4705,
      "prevenzione": 4706,
      "natural": 4707,
      "conclude": 4708,
      "soddisf": 4709,
      "World": 4710,
      "fru": 4711,
      "spre": 4712,
      "round": 4713,
      "content": 4714,
      "extent": 4715,
      "accepted": 4716,
      "singoli": 4717,
      "benefits": 4718,
      "effettivamente": 4719,
      "ritiene": 4720,
      "People": 4721,
      "IT": 4722,
      "Ora": 4723,
      "ibilità": 4724,
      "tex": 4725,
      "cipl": 4726,
      "dotto": 4727,
      "ghted": 4728,
      "counter": 4729,
      "accett": 4730,
      "goods": 4731,
      "stabilire": 4732,
      "remains": 4733,
      "ulteriori": 4734,
      "preoccupazioni": 4735,
      "entre": 4736,
      "rifle": 4737,
      "discipl": 4738,
      "aspett": 4739,
      "massima": 4740,
      "traffico": 4741,
      "riconoscimento": 4742,
      "Bank": 4743,
      "Cer": 4744,
      "trasfer": 4745,
      "vanno": 4746,
      "arne": 4747,
      "prosper": 4748,
      "prezzo": 4749,
      "dovranno": 4750,
      "lieto": 4751,
      "riunione": 4752,
      "tan": 4753,
      "orn": 4754,
      "behind": 4755,
      "exclu": 4756,
      "obtain": 4757,
      "presidenza": 4758,
      "uomini": 4759,
      "...": 4760,
      "connection": 4761,
      "categori": 4762,
      "98": 4763,
      "multi": 4764,
      "odier": 4765,
      "stated": 4766,
      "expla": 4767,
      "intera": 4768,
      "avrà": 4769,
      "improving": 4770,
      "organizzazione": 4771,
      "prodotto": 4772,
      "investig": 4773,
      "numerosi": 4774,
      "Liber": 4775,
      "24": 4776,
      "blo": 4777,
      "ps": 4778,
      "tot": 4779,
      "parlato": 4780,
      "paid": 4781,
      "lavori": 4782,
      "sicuramente": 4783,
      "chiara": 4784,
      "conclusions": 4785,
      "efficacia": 4786,
      "easi": 4787,
      "cting": 4788,
      "democratica": 4789,
      "aziende": 4790,
      "circumst": 4791,
      "Gener": 4792,
      "ppure": 4793,
      "urali": 4794,
      "rish": 4795,
      "enterprises": 4796,
      "Budget": 4797,
      "iture": 4798,
      "forze": 4799,
      "reser": 4800,
      "succe": 4801,
      "innovazione": 4802,
      "properly": 4803,
      "conflitto": 4804,
      "precisely": 4805,
      "chiarezza": 4806,
      "ampliamento": 4807,
      "A5": 4808,
      "Ti": 4809,
      "fen": 4810,
      "pal": 4811,
      "storia": 4812,
      "remind": 4813,
      "instead": 4814,
      "comment": 4815,
      "consideration": 4816,
      "orientale": 4817,
      "verbale": 4818,
      "amminist": 4819,
      "1996": 4820,
      "ggere": 4821,
      "regolamentazione": 4822,
      "inquin": 4823,
      "Centr": 4824,
      "Pu": 4825,
      "WTO": 4826,
      "messa": 4827,
      "vac": 4828,
      "vul": 4829,
      "comments": 4830,
      "presto": 4831,
      "els": 4832,
      "sollev": 4833,
      "valutare": 4834,
      "implementing": 4835,
      "applicare": 4836,
      "dealing": 4837,
      "congratular": 4838,
      "effetto": 4839,
      "23": 4840,
      "cente": 4841,
      "mp": 4842,
      "pain": 4843,
      "presso": 4844,
      "related": 4845,
      "finanziamenti": 4846,
      "contribute": 4847,
      "giorni": 4848,
      "efficienza": 4849,
      "affermare": 4850,
      "COM": 4851,
      "affected": 4852,
      "detail": 4853,
      "considered": 4854,
      "git": 4855,
      "atur": 4856,
      "constitution": 4857,
      "ours": 4858,
      "introdurre": 4859,
      "fuori": 4860,
      "vicin": 4861,
      "territorio": 4862,
      "messaggio": 4863,
      "prospettive": 4864,
      "esclusi": 4865,
      "ires": 4866,
      "ight": 4867,
      "mono": 4868,
      "itario": 4869,
      "sussi": 4870,
      "mezzo": 4871,
      "mission": 4872,
      "cazione": 4873,
      "vendo": 4874,
      "trova": 4875,
      "metter": 4876,
      "landese": 4877,
      "Germany": 4878,
      "giudizi": 4879,
      "EL": 4880,
      "dle": 4881,
      "lad": 4882,
      "unacceptable": 4883,
      "finance": 4884,
      "ender": 4885,
      "menzion": 4886,
      "respond": 4887,
      "vered": 4888,
      "alista": 4889,
      "regola": 4890,
      "purpose": 4891,
      "compiere": 4892,
      "sottolineato": 4893,
      "efficiency": 4894,
      "bisogna": 4895,
      "charge": 4896,
      "modific": 4897,
      "Central": 4898,
      "IS": 4899,
      "avi": 4900,
      "home": 4901,
      "testi": 4902,
      "reale": 4903,
      "return": 4904,
      "arla": 4905,
      "comitato": 4906,
      "preser": 4907,
      "controver": 4908,
      "allowed": 4909,
      "USA": 4910,
      "Democrats": 4911,
      "Greece": 4912,
      "drug": 4913,
      "refuge": 4914,
      "aly": 4915,
      "sized": 4916,
      "sou": 4917,
      "modal": 4918,
      "icazioni": 4919,
      "alismo": 4920,
      "sanità": 4921,
      "family": 4922,
      "successful": 4923,
      "substanti": 4924,
      "atteggiamento": 4925,
      "oil": 4926,
      "otto": 4927,
      "imma": 4928,
      "produce": 4929,
      "morte": 4930,
      "circumstances": 4931,
      "Stras": 4932,
      "poor": 4933,
      "propone": 4934,
      "elen": 4935,
      "positivi": 4936,
      "calls": 4937,
      "asilo": 4938,
      "Today": 4939,
      "Penso": 4940,
      "esigenze": 4941,
      "Costituzione": 4942,
      "proceed": 4943,
      "humanitarian": 4944,
      "complete": 4945,
      "scope": 4946,
      "Primo": 4947,
      "Sud": 4948,
      "uali": 4949,
      "ardo": 4950,
      "thought": 4951,
      "ureau": 4952,
      "parts": 4953,
      "certamente": 4954,
      "considerare": 4955,
      "medie": 4956,
      "drawn": 4957,
      "nessuno": 4958,
      "committed": 4959,
      "decide": 4960,
      "beginning": 4961,
      "modifica": 4962,
      "ecolog": 4963,
      "Ge": 4964,
      "bacco": 4965,
      "ush": 4966,
      "central": 4967,
      "giuridico": 4968,
      "convinced": 4969,
      "reference": 4970,
      "minimum": 4971,
      "fiscale": 4972,
      "Banca": 4973,
      "How": 4974,
      "cul": 4975,
      "atest": 4976,
      "lands": 4977,
      "introduce": 4978,
      "combat": 4979,
      "incorpor": 4980,
      "additional": 4981,
      "challenge": 4982,
      "beyond": 4983,
      "Vice": 4984,
      "hic": 4985,
      "ies": 4986,
      "ka": 4987,
      "defic": 4988,
      "libero": 4989,
      "apertura": 4990,
      "paragraph": 4991,
      "Carta": 4992,
      "conoscenza": 4993,
      "fenomen": 4994,
      "sussidi": 4995,
      "Now": 4996,
      "pato": 4997,
      "atic": 4998,
      "perme": 4999,
      "earli": 5000,
      "trying": 5001,
      "esterday": 5002,
      "comunitari": 5003,
      "highlight": 5004,
      "Gu": 5005,
      "Or": 5006,
      "fear": 5007,
      "renew": 5008,
      "itamente": 5009,
      "comport": 5010,
      "venuto": 5011,
      "propose": 5012,
      "supply": 5013,
      "pensabile": 5014,
      "seek": 5015,
      "provides": 5016,
      "circost": 5017,
      "culturale": 5018,
      "introduction": 5019,
      "commitments": 5020,
      "studi": 5021,
      "portazioni": 5022,
      "participation": 5023,
      "Germania": 5024,
      "Regulation": 5025,
      "Austria": 5026,
      "Est": 5027,
      "Of": 5028,
      "achie": 5029,
      "nut": 5030,
      "mid": 5031,
      "intero": 5032,
      "overall": 5033,
      "scale": 5034,
      "considerable": 5035,
      "simpli": 5036,
      "adeguato": 5037,
      "adeguata": 5038,
      "decidere": 5039,
      "spirito": 5040,
      "concept": 5041,
      "seriously": 5042,
      "ambitious": 5043,
      "OMC": 5044,
      "duty": 5045,
      "congratularmi": 5046,
      "ada": 5047,
      "got": 5048,
      "partiti": 5049,
      "continua": 5050,
      "alloc": 5051,
      "simile": 5052,
      "strategic": 5053,
      "concess": 5054,
      "vehic": 5055,
      "mir": 5056,
      "debbano": 5057,
      "discriminazione": 5058,
      "vice": 5059,
      "arrest": 5060,
      "sian": 5061,
      "illeg": 5062,
      "big": 5063,
      "carbon": 5064,
      "2013": 5065,
      "alisti": 5066,
      "requires": 5067,
      "type": 5068,
      "promoting": 5069,
      "documenti": 5070,
      "manifest": 5071,
      "Justice": 5072,
      "dar": 5073,
      "nia": 5074,
      "wi": 5075,
      "won": 5076,
      "andare": 5077,
      "trate": 5078,
      "Europeans": 5079,
      "exper": 5080,
      "matica": 5081,
      "product": 5082,
      "join": 5083,
      "approvazione": 5084,
      "referred": 5085,
      "administrative": 5086,
      "OL": 5087,
      "sha": 5088,
      "prove": 5089,
      "placed": 5090,
      "aggiungere": 5091,
      "dichiarazioni": 5092,
      "custo": 5093,
      "innovation": 5094,
      "orientamenti": 5095,
      "brief": 5096,
      "cruci": 5097,
      "construction": 5098,
      "Afghanistan": 5099,
      "MI": 5100,
      "ones": 5101,
      "perfe": 5102,
      "agno": 5103,
      "gency": 5104,
      "sostanzi": 5105,
      "sostanze": 5106,
      "rapporti": 5107,
      "Char": 5108,
      "interventi": 5109,
      "similar": 5110,
      "closely": 5111,
      "riteniamo": 5112,
      "obviously": 5113,
      "wanted": 5114,
      "Bo": 5115,
      "bun": 5116,
      "fro": 5117,
      "totale": 5118,
      "unfortunately": 5119,
      "sole": 5120,
      "etiche": 5121,
      "transfer": 5122,
      "facendo": 5123,
      "claim": 5124,
      "specifically": 5125,
      "precedente": 5126,
      "transi": 5127,
      "requisiti": 5128,
      "Irish": 5129,
      "later": 5130,
      "carattere": 5131,
      "penso": 5132,
      "pensare": 5133,
      "pressioni": 5134,
      "specifico": 5135,
      "establishing": 5136,
      "activity": 5137,
      "obbligo": 5138,
      "90": 5139,
      "dro": 5140,
      "gan": 5141,
      "reati": 5142,
      "ises": 5143,
      "devo": 5144,
      "views": 5145,
      "direttive": 5146,
      "offrire": 5147,
      "frontali": 5148,
      "congratu": 5149,
      "General": 5150,
      "03": 5151,
      "NL": 5152,
      "came": 5153,
      "riente": 5154,
      "protocol": 5155,
      "perspe": 5156,
      "former": 5157,
      "etro": 5158,
      "attent": 5159,
      "ulture": 5160,
      "pubbliche": 5161,
      "trattamento": 5162,
      "diversity": 5163,
      "setting": 5164,
      "asylum": 5165,
      "CA": 5166,
      "sport": 5167,
      "nove": 5168,
      "salvagu": 5169,
      "authority": 5170,
      "spirit": 5171,
      "steps": 5172,
      "honourable": 5173,
      "dieci": 5174,
      "June": 5175,
      "Janu": 5176,
      "Res": 5177,
      "hy": 5178,
      "ref": 5179,
      "permettere": 5180,
      "forces": 5181,
      "goes": 5182,
      "gence": 5183,
      "1997": 5184,
      "looking": 5185,
      "January": 5186,
      "dram": 5187,
      "fet": 5188,
      "ima": 5189,
      "ieri": 5190,
      "err": 5191,
      "toric": 5192,
      "partire": 5193,
      "calling": 5194,
      "Israele": 5195,
      "By": 5196,
      "Sum": 5197,
      "Uk": 5198,
      "scu": 5199,
      "assegn": 5200,
      "useful": 5201,
      "industrial": 5202,
      "shows": 5203,
      "distin": 5204,
      "Environment": 5205,
      "Accor": 5206,
      "riconoscere": 5207,
      "Jo": 5208,
      "ain": 5209,
      "rural": 5210,
      "poteri": 5211,
      "uses": 5212,
      "pazi": 5213,
      "venzioni": 5214,
      "sels": 5215,
      "intensi": 5216,
      "clari": 5217,
      "struttura": 5218,
      "compiuti": 5219,
      "Dopo": 5220,
      "Chie": 5221,
      "indispensabile": 5222,
      "70": 5223,
      "Sar": 5224,
      "ignor": 5225,
      "tour": 5226,
      "andon": 5227,
      "gives": 5228,
      "pression": 5229,
      "ered": 5230,
      "complic": 5231,
      "Ukra": 5232,
      "AF": 5233,
      "Brus": 5234,
      "feder": 5235,
      "naio": 5236,
      "rif": 5237,
      "proport": 5238,
      "colp": 5239,
      "gennaio": 5240,
      "supplement": 5241,
      "cuno": 5242,
      "supporting": 5243,
      "medicin": 5244,
      "condizione": 5245,
      "history": 5246,
      "denzi": 5247,
      "regionali": 5248,
      "richieste": 5249,
      "popoli": 5250,
      "adottate": 5251,
      "Minutes": 5252,
      "profit": 5253,
      "leave": 5254,
      "diventare": 5255,
      "colleague": 5256,
      "diversità": 5257,
      "multilater": 5258,
      "Brussels": 5259,
      "ors": 5260,
      "proveni": 5261,
      "voglio": 5262,
      "viet": 5263,
      "shown": 5264,
      "rappresentano": 5265,
      "leading": 5266,
      "vigil": 5267,
      "referendum": 5268,
      "enorme": 5269,
      "temporane": 5270,
      "issimo": 5271,
      "South": 5272,
      "Summit": 5273,
      "crat": 5274,
      "realizzazione": 5275,
      "divie": 5276,
      "forget": 5277,
      "trust": 5278,
      "tener": 5279,
      "istico": 5280,
      "ambizio": 5281,
      "ministri": 5282,
      "accordance": 5283,
      "modalità": 5284,
      "Some": 5285,
      "speaking": 5286,
      "produced": 5287,
      "Sep": 5288,
      "giugno": 5289,
      "source": 5290,
      "appello": 5291,
      "CO2": 5292,
      "limiti": 5293,
      "Human": 5294,
      "Ju": 5295,
      "fanno": 5296,
      "tamento": 5297,
      "regu": 5298,
      "ena": 5299,
      "ande": 5300,
      "acca": 5301,
      "Perché": 5302,
      "Turk": 5303,
      "commerciale": 5304,
      "ONU": 5305,
      "barri": 5306,
      "becoming": 5307,
      "compon": 5308,
      "ousand": 5309,
      "passe": 5310,
      "prossimi": 5311,
      "patri": 5312,
      "recognition": 5313,
      "receive": 5314,
      "Grecia": 5315,
      "emphasise": 5316,
      "rifiuti": 5317,
      "polizia": 5318,
      "Bru": 5319,
      "nation": 5320,
      "voc": 5321,
      "vir": 5322,
      "relatori": 5323,
      "Quando": 5324,
      "democratici": 5325,
      "alizzare": 5326,
      "increasingly": 5327,
      "avviare": 5328,
      "analys": 5329,
      "costruzione": 5330,
      "sogget": 5331,
      "svolgerà": 5332,
      "Bur": 5333,
      "Cy": 5334,
      "Io": 5335,
      "danno": 5336,
      "nn": 5337,
      "riamo": 5338,
      "cias": 5339,
      "paign": 5340,
      "expend": 5341,
      "itude": 5342,
      "aiutare": 5343,
      "zzata": 5344,
      "solle": 5345,
      "rightly": 5346,
      "bast": 5347,
      "company": 5348,
      "altrett": 5349,
      "prossima": 5350,
      "dettagli": 5351,
      "advantage": 5352,
      "catastro": 5353,
      "flessibilità": 5354,
      "achieving": 5355,
      "mese": 5356,
      "inking": 5357,
      "anco": 5358,
      "rispar": 5359,
      "risul": 5360,
      "plans": 5361,
      "genet": 5362,
      "bodies": 5363,
      "critical": 5364,
      "Prodi": 5365,
      "combattere": 5366,
      "equilibr": 5367,
      "osservazione": 5368,
      "climatico": 5369,
      "Since": 5370,
      "esercizio": 5371,
      "chiusa": 5372,
      "ols": 5373,
      "relativo": 5374,
      "domin": 5375,
      "combating": 5376,
      "danni": 5377,
      "equality": 5378,
      "fiche": 5379,
      "mass": 5380,
      "rinnov": 5381,
      "xel": 5382,
      "recor": 5383,
      "deed": 5384,
      "financing": 5385,
      "sullo": 5386,
      "myself": 5387,
      "specie": 5388,
      "aggiun": 5389,
      "domande": 5390,
      "rafforzamento": 5391,
      "contenuto": 5392,
      "Agenda": 5393,
      "dimensione": 5394,
      "comprehensive": 5395,
      "earlier": 5396,
      "Bruxel": 5397,
      "Bruxelles": 5398,
      "consen": 5399,
      "tiva": 5400,
      "parl": 5401,
      "exchange": 5402,
      "outcome": 5403,
      "monito": 5404,
      "sanctions": 5405,
      "complesso": 5406,
      "recognise": 5407,
      "monetaria": 5408,
      "guida": 5409,
      "Green": 5410,
      "American": 5411,
      "Asia": 5412,
      "Can": 5413,
      "Ga": 5414,
      "stim": 5415,
      "impl": 5416,
      "animal": 5417,
      "Foreign": 5418,
      "yesterday": 5419,
      "ionale": 5420,
      "cominci": 5421,
      "directives": 5422,
      "spesa": 5423,
      "higher": 5424,
      "quei": 5425,
      "rapporto": 5426,
      "limited": 5427,
      "Program": 5428,
      "represents": 5429,
      "espressione": 5430,
      "metodo": 5431,
      "Christi": 5432,
      "regular": 5433,
      "messe": 5434,
      "wit": 5435,
      "laun": 5436,
      "ampia": 5437,
      "subito": 5438,
      "portata": 5439,
      "ader": 5440,
      "manner": 5441,
      "merci": 5442,
      "intergovern": 5443,
      "forest": 5444,
      "globalizzazione": 5445,
      "fraud": 5446,
      "piena": 5447,
      "study": 5448,
      "Onorevole": 5449,
      "Organi": 5450,
      "producers": 5451,
      "expenditure": 5452,
      "Bos": 5453,
      "ls": 5454,
      "reje": 5455,
      "sele": 5456,
      "ativamente": 5457,
      "Security": 5458,
      "campaign": 5459,
      "specifiche": 5460,
      "quota": 5461,
      "MEP": 5462,
      "rapidamente": 5463,
      "Sta": 5464,
      "iled": 5465,
      "infer": 5466,
      "accessi": 5467,
      "urge": 5468,
      "formul": 5469,
      "intended": 5470,
      "balanced": 5471,
      "frequ": 5472,
      "isms": 5473,
      "imb": 5474,
      "canto": 5475,
      "speed": 5476,
      "città": 5477,
      "anything": 5478,
      "maggio": 5479,
      "militare": 5480,
      "studio": 5481,
      "alimentari": 5482,
      "francese": 5483,
      "vulner": 5484,
      "22": 5485,
      "IN": 5486,
      "stor": 5487,
      "finale": 5488,
      "finora": 5489,
      "prime": 5490,
      "acceler": 5491,
      "transition": 5492,
      "alise": 5493,
      "entrare": 5494,
      "concetto": 5495,
      "sensiti": 5496,
      "Palestinian": 5497,
      "IV": 5498,
      "remark": 5499,
      "esper": 5500,
      "union": 5501,
      "thousand": 5502,
      "risks": 5503,
      "intenzione": 5504,
      "rapporteurs": 5505,
      "conference": 5506,
      "Serbia": 5507,
      "rates": 5508,
      "vono": 5509,
      "arm": 5510,
      "costrut": 5511,
      "liberalisation": 5512,
      "giorn": 5513,
      "reduced": 5514,
      "raccol": 5515,
      "partecipare": 5516,
      "candidate": 5517,
      "disponibili": 5518,
      "demands": 5519,
      "potranno": 5520,
      "Grazie": 5521,
      "Pak": 5522,
      "ey": 5523,
      "arrange": 5524,
      "bed": 5525,
      "police": 5526,
      "occident": 5527,
      "assun": 5528,
      "turismo": 5529,
      "reducing": 5530,
      "weeks": 5531,
      "happened": 5532,
      "accad": 5533,
      "falli": 5534,
      "armonizzazione": 5535,
      "proportion": 5536,
      "nas": 5537,
      "nota": 5538,
      "visa": 5539,
      "transfrontali": 5540,
      "progresso": 5541,
      "adottata": 5542,
      "highly": 5543,
      "ulterior": 5544,
      "constructive": 5545,
      "giunta": 5546,
      "Purtroppo": 5547,
      "Ecco": 5548,
      "Strate": 5549,
      "ahead": 5550,
      "tata": 5551,
      "relig": 5552,
      "giungere": 5553,
      "edono": 5554,
      "expe": 5555,
      "minister": 5556,
      "willing": 5557,
      "rent": 5558,
      "maritti": 5559,
      "situazioni": 5560,
      "alism": 5561,
      "currency": 5562,
      "strengthening": 5563,
      "Ob": 5564,
      "Rules": 5565,
      "constitu": 5566,
      "asking": 5567,
      "petro": 5568,
      "istics": 5569,
      "word": 5570,
      "volmente": 5571,
      "presentati": 5572,
      "Europol": 5573,
      "addressed": 5574,
      "agencies": 5575,
      "acqua": 5576,
      "sfida": 5577,
      "mutual": 5578,
      "UK": 5579,
      "tember": 5580,
      "pere": 5581,
      "acque": 5582,
      "paci": 5583,
      "animals": 5584,
      "titolo": 5585,
      "infrastrutture": 5586,
      "Charter": 5587,
      "September": 5588,
      "ulteriormente": 5589,
      "San": 5590,
      "insegn": 5591,
      "mie": 5592,
      "nuovamente": 5593,
      "statements": 5594,
      "complex": 5595,
      "potremo": 5596,
      "ishes": 5597,
      "produt": 5598,
      "modifiche": 5599,
      "Geor": 5600,
      "Cu": 5601,
      "Dov": 5602,
      "”,": 5603,
      "reject": 5604,
      "ismi": 5605,
      "dead": 5606,
      "poses": 5607,
      "primar": 5608,
      "staff": 5609,
      "penal": 5610,
      "developments": 5611,
      "1995": 5612,
      "defend": 5613,
      "declar": 5614,
      "96": 5615,
      "A4": 5616,
      "Natur": 5617,
      "stant": 5618,
      "cogliere": 5619,
      "abol": 5620,
      "exact": 5621,
      "Last": 5622,
      "build": 5623,
      "aspect": 5624,
      "draf": 5625,
      "responsibilities": 5626,
      "opening": 5627,
      "infrastructure": 5628,
      "prospettiva": 5629,
      "Moreover": 5630,
      "passegg": 5631,
      "March": 5632,
      "tati": 5633,
      "esp": 5634,
      "tratti": 5635,
      "says": 5636,
      "estern": 5637,
      "improved": 5638,
      "establishment": 5639,
      "capitale": 5640,
      "delegazione": 5641,
      "settembre": 5642,
      "consensus": 5643,
      "Span": 5644,
      "buro": 5645,
      "toc": 5646,
      "design": 5647,
      "itali": 5648,
      "condition": 5649,
      "percento": 5650,
      "nem": 5651,
      "intervention": 5652,
      "Italy": 5653,
      "elected": 5654,
      "caused": 5655,
      "citizen": 5656,
      "wants": 5657,
      "efficiente": 5658,
      "aims": 5659,
      "After": 5660,
      "failure": 5661,
      "flexibility": 5662,
      "illustr": 5663,
      "altrettanto": 5664,
      "Spanish": 5665,
      "B4": 5666,
      "Dal": 5667,
      "mill": 5668,
      "sé": 5669,
      "scho": 5670,
      "constant": 5671,
      "vert": 5672,
      "trag": 5673,
      "elements": 5674,
      "sometimes": 5675,
      "mediante": 5676,
      "giustific": 5677,
      "vincol": 5678,
      "Libro": 5679,
      "understanding": 5680,
      "probabilmente": 5681,
      "Onorevoli": 5682,
      "divieto": 5683,
      "send": 5684,
      "alone": 5685,
      "perfet": 5686,
      "dirittura": 5687,
      "morning": 5688,
      "richiam": 5689,
      "pursu": 5690,
      "utilizzare": 5691,
      "relationship": 5692,
      "coerente": 5693,
      "ricevuto": 5694,
      "Sare": 5695,
      "fat": 5696,
      "pointed": 5697,
      "forced": 5698,
      "dovere": 5699,
      "grant": 5700,
      "ller": 5701,
      "clima": 5702,
      "tentativo": 5703,
      "riusciti": 5704,
      "precedenti": 5705,
      "capire": 5706,
      "settimane": 5707,
      "garanzia": 5708,
      "RE": 5709,
      "cof": 5710,
      "fur": 5711,
      "preferen": 5712,
      "prevention": 5713,
      "weak": 5714,
      "addirittura": 5715,
      "marzo": 5716,
      "standing": 5717,
      "costituiscono": 5718,
      "laws": 5719,
      "influence": 5720,
      "tariff": 5721,
      "minaccia": 5722,
      "richiede": 5723,
      "Mid": 5724,
      "bin": 5725,
      "told": 5726,
      "cile": 5727,
      "covered": 5728,
      "agg": 5729,
      "rappresentante": 5730,
      "chiave": 5731,
      "indag": 5732,
      "Trans": 5733,
      "entirely": 5734,
      "esercitare": 5735,
      "massimo": 5736,
      "applies": 5737,
      "Berl": 5738,
      "',": 5739,
      "Paper": 5740,
      "sioni": 5741,
      "cond": 5742,
      "peggi": 5743,
      "near": 5744,
      "compla": 5745,
      "previs": 5746,
      "positions": 5747,
      "credit": 5748,
      "early": 5749,
      "equip": 5750,
      "istence": 5751,
      "language": 5752,
      "Pakistan": 5753,
      "sea": 5754,
      "amber": 5755,
      "raise": 5756,
      "vogl": 5757,
      "acy": 5758,
      "carico": 5759,
      "centro": 5760,
      "domest": 5761,
      "differences": 5762,
      "simili": 5763,
      "closer": 5764,
      "surance": 5765,
      "dichiarato": 5766,
      "criminalità": 5767,
      "Fondi": 5768,
      "stampa": 5769,
      "vogliono": 5770,
      "son": 5771,
      "endere": 5772,
      "percent": 5773,
      "ciamo": 5774,
      "esser": 5775,
      "Unfortunately": 5776,
      "rise": 5777,
      "possibili": 5778,
      "torno": 5779,
      "discar": 5780,
      "completamente": 5781,
      "popolare": 5782,
      "Tutti": 5783,
      "top": 5784,
      "stesse": 5785,
      "thinking": 5786,
      "sound": 5787,
      "interni": 5788,
      "istici": 5789,
      "veste": 5790,
      "sviluppi": 5791,
      "contrary": 5792,
      "concreti": 5793,
      "notevole": 5794,
      "immediate": 5795,
      "Prime": 5796,
      "obligations": 5797,
      "meccanismo": 5798,
      "dangerous": 5799,
      "amministrazione": 5800,
      "Du": 5801,
      "sort": 5802,
      "icato": 5803,
      "added": 5804,
      "render": 5805,
      "rispetti": 5806,
      "firstly": 5807,
      "passare": 5808,
      "organisation": 5809,
      "adeguate": 5810,
      "gioco": 5811,
      "incoraggiare": 5812,
      "elettor": 5813,
      "deficit": 5814,
      "26": 5815,
      "Sol": 5816,
      "ko": 5817,
      "ket": 5818,
      "som": 5819,
      "conv": 5820,
      "forni": 5821,
      "orire": 5822,
      "facing": 5823,
      "esteri": 5824,
      "giustamente": 5825,
      "iscano": 5826,
      "arli": 5827,
      "veicoli": 5828,
      "tenuti": 5829,
      "minu": 5830,
      "Third": 5831,
      "moneta": 5832,
      "Roma": 5833,
      "sforzo": 5834,
      "minoranze": 5835,
      "transparent": 5836,
      "fai": 5837,
      "tire": 5838,
      "mobilità": 5839,
      "voce": 5840,
      "whom": 5841,
      "mira": 5842,
      "element": 5843,
      "sufficienti": 5844,
      "structures": 5845,
      "Never": 5846,
      "pratiche": 5847,
      "charac": 5848,
      "resolutions": 5849,
      "aereo": 5850,
      "ambe": 5851,
      "fonti": 5852,
      "damage": 5853,
      "nic": 5854,
      "rurale": 5855,
      "sba": 5856,
      "ualmente": 5857,
      "remember": 5858,
      "dover": 5859,
      "Indeed": 5860,
      "regist": 5861,
      "persona": 5862,
      "linee": 5863,
      "Although": 5864,
      "Russian": 5865,
      "maggiormente": 5866,
      "segnale": 5867,
      "parlamenti": 5868,
      "rigoro": 5869,
      "passeggeri": 5870,
      "fico": 5871,
      "deva": 5872,
      "dict": 5873,
      "sex": 5874,
      "aspi": 5875,
      "profu": 5876,
      "radic": 5877,
      "agenzi": 5878,
      "managed": 5879,
      "legit": 5880,
      "collo": 5881,
      "affid": 5882,
      "speciale": 5883,
      "qualific": 5884,
      "ricordato": 5885,
      "Trade": 5886,
      "subsidi": 5887,
      "agenzie": 5888,
      "AT": 5889,
      "Spain": 5890,
      "listen": 5891,
      "vina": 5892,
      "ami": 5893,
      "quanti": 5894,
      "gosla": 5895,
      "manu": 5896,
      "valut": 5897,
      "prendi": 5898,
      "legislativo": 5899,
      "Nell": 5900,
      "dealt": 5901,
      "prison": 5902,
      "violazioni": 5903,
      "yoto": 5904,
      "interrogazioni": 5905,
      "elaborare": 5906,
      "recommendations": 5907,
      "raccomandazioni": 5908,
      "analysis": 5909,
      "Middle": 5910,
      "Nevertheless": 5911,
      "discharge": 5912,
      "appoint": 5913,
      "oppure": 5914,
      "Inn": 5915,
      "certezza": 5916,
      "publ": 5917,
      "occur": 5918,
      "discussing": 5919,
      "definition": 5920,
      "office": 5921,
      "happy": 5922,
      "parliaments": 5923,
      "Italia": 5924,
      "exception": 5925,
      "99": 5926,
      "rigi": 5927,
      "finalmente": 5928,
      "ricon": 5929,
      "citato": 5930,
      "putting": 5931,
      "historic": 5932,
      "congratul": 5933,
      "tecnologia": 5934,
      "Agenzia": 5935,
      "monetary": 5936,
      "31": 5937,
      "Mc": 5938,
      "Tali": 5939,
      "hn": 5940,
      "session": 5941,
      "tou": 5942,
      "propor": 5943,
      "ury": 5944,
      "distri": 5945,
      "guid": 5946,
      "spetta": 5947,
      "aving": 5948,
      "positiva": 5949,
      "conferenza": 5950,
      "contiene": 5951,
      "manufact": 5952,
      "Spagna": 5953,
      "catori": 5954,
      "denza": 5955,
      "laid": 5956,
      "rido": 5957,
      "dol": 5958,
      "intention": 5959,
      "costante": 5960,
      "Questi": 5961,
      "growing": 5962,
      "comply": 5963,
      "ideas": 5964,
      "documents": 5965,
      "poveri": 5966,
      "ricorso": 5967,
      "Health": 5968,
      "informed": 5969,
      "Strategy": 5970,
      "500": 5971,
      "Lat": 5972,
      "igh": 5973,
      "weap": 5974,
      "eremo": 5975,
      "rendo": 5976,
      "medio": 5977,
      "2011": 5978,
      "changed": 5979,
      "Why": 5980,
      "introduced": 5981,
      "militari": 5982,
      "burden": 5983,
      "Kyoto": 5984,
      "SME": 5985,
      "demo": 5986,
      "prest": 5987,
      "Ladies": 5988,
      "opera": 5989,
      "operatori": 5990,
      "carne": 5991,
      "talks": 5992,
      "sarebbero": 5993,
      "practices": 5994,
      "guarantees": 5995,
      "interessati": 5996,
      "Agency": 5997,
      "eliminare": 5998,
      "constatare": 5999,
      "spread": 6000,
      "character": 6001,
      "35": 6002,
      "genti": 6003,
      "sman": 6004,
      "eniamo": 6005,
      "dee": 6006,
      "vecchi": 6007,
      "distor": 6008,
      "tradition": 6009,
      "involving": 6010,
      "evidenzi": 6011,
      "appeal": 6012,
      "speakers": 6013,
      "assumere": 6014,
      "choice": 6015,
      "delegation": 6016,
      "exercise": 6017,
      "Turkish": 6018,
      "sbagli": 6019,
      "dano": 6020,
      "sof": 6021,
      "atlant": 6022,
      "enta": 6023,
      "urban": 6024,
      "etary": 6025,
      "fulfil": 6026,
      "commercial": 6027,
      "Procedu": 6028,
      "controls": 6029,
      "New": 6030,
      "riguardano": 6031,
      "conflitti": 6032,
      "obblighi": 6033,
      "probably": 6034,
      "religi": 6035,
      "28": 6036,
      "King": 6037,
      "diti": 6038,
      "inaccettabile": 6039,
      "atteri": 6040,
      "lies": 6041,
      "complement": 6042,
      "chance": 6043,
      "preventi": 6044,
      "troviamo": 6045,
      "generali": 6046,
      "Alla": 6047,
      "definite": 6048,
      "simple": 6049,
      "dimostrare": 6050,
      "extend": 6051,
      "pronunci": 6052,
      "enorm": 6053,
      "wonder": 6054,
      "Ukraine": 6055,
      "petroli": 6056,
      "DA": 6057,
      "late": 6058,
      "rano": 6059,
      "iling": 6060,
      "abit": 6061,
      "coraggio": 6062,
      "travel": 6063,
      "geo": 6064,
      "scad": 6065,
      "idee": 6066,
      "integrated": 6067,
      "Afric": 6068,
      "appreci": 6069,
      "deriv": 6070,
      "scritto": 6071,
      "fenomeno": 6072,
      "Programme": 6073,
      "Allo": 6074,
      "cando": 6075,
      "rore": 6076,
      "dipen": 6077,
      "inge": 6078,
      "imporre": 6079,
      "trarre": 6080,
      "dish": 6081,
      "visit": 6082,
      "gendo": 6083,
      "matiche": 6084,
      "occhi": 6085,
      "discut": 6086,
      "recommendation": 6087,
      "methods": 6088,
      "Bi": 6089,
      "mato": 6090,
      "propon": 6091,
      "mobility": 6092,
      "portazione": 6093,
      "pito": 6094,
      "aging": 6095,
      "grate": 6096,
      "mainly": 6097,
      "caren": 6098,
      "funzione": 6099,
      "riferisco": 6100,
      "Ministers": 6101,
      "invito": 6102,
      "Rule": 6103,
      "circostanze": 6104,
      "Procedure": 6105,
      "IL": 6106,
      "ecu": 6107,
      "inv": 6108,
      "digit": 6109,
      "unable": 6110,
      "loss": 6111,
      "aries": 6112,
      "resping": 6113,
      "announ": 6114,
      "promotion": 6115,
      "membership": 6116,
      "strongly": 6117,
      "strict": 6118,
      "tecnolog": 6119,
      "energetico": 6120,
      "resolve": 6121,
      "Monetary": 6122,
      "contains": 6123,
      "regret": 6124,
      "delay": 6125,
      "exploit": 6126,
      "refugees": 6127,
      "Bosnia": 6128,
      "convinto": 6129,
      "ended": 6130,
      "hagen": 6131,
      "aboli": 6132,
      "irlandese": 6133,
      "prig": 6134,
      "fying": 6135,
      "meccanismi": 6136,
      "Agr": 6137,
      "Mo": 6138,
      "resta": 6139,
      "conform": 6140,
      "radi": 6141,
      "verranno": 6142,
      "atell": 6143,
      "mine": 6144,
      "oples": 6145,
      "tren": 6146,
      "faced": 6147,
      "opinioni": 6148,
      "compiuto": 6149,
      "locale": 6150,
      "dimension": 6151,
      "raccomandazione": 6152,
      "assai": 6153,
      "Go": 6154,
      "Nord": 6155,
      "RO": 6156,
      "astr": 6157,
      "jour": 6158,
      "esistenza": 6159,
      "opposition": 6160,
      "cret": 6161,
      "riceve": 6162,
      "economies": 6163,
      "ricostru": 6164,
      "improvement": 6165,
      "indipendenza": 6166,
      "safeguard": 6167,
      "consistent": 6168,
      "grateful": 6169,
      "bom": 6170,
      "egli": 6171,
      "reply": 6172,
      "ificazione": 6173,
      "Medio": 6174,
      "faccia": 6175,
      "ichiamo": 6176,
      "istituire": 6177,
      "potenziale": 6178,
      "consultation": 6179,
      "Even": 6180,
      "Oriente": 6181,
      "Tun": 6182,
      "wat": 6183,
      "onic": 6184,
      "pochi": 6185,
      "radio": 6186,
      "raggio": 6187,
      "esperti": 6188,
      "ilst": 6189,
      "sopra": 6190,
      "noon": 6191,
      "votes": 6192,
      "prio": 6193,
      "attamente": 6194,
      "situations": 6195,
      "Quanto": 6196,
      "continent": 6197,
      "scand": 6198,
      "consente": 6199,
      "costituire": 6200,
      "Nove": 6201,
      "surpris": 6202,
      "immediately": 6203,
      "renewable": 6204,
      "Christian": 6205,
      "exactly": 6206,
      "condann": 6207,
      "fre": 6208,
      "speri": 6209,
      "consiste": 6210,
      "Partito": 6211,
      "aiut": 6212,
      "submitted": 6213,
      "funzionari": 6214,
      "independence": 6215,
      "Italian": 6216,
      "mechanism": 6217,
      "mechanisms": 6218,
      "ferrovi": 6219,
      "sussidiarietà": 6220,
      "intergovernativa": 6221,
      "Organizzazione": 6222,
      "Ucra": 6223,
      "bac": 6224,
      "reali": 6225,
      "arvi": 6226,
      "comporta": 6227,
      "gian": 6228,
      "mann": 6229,
      "opposizione": 6230,
      "assenza": 6231,
      "fonte": 6232,
      "costre": 6233,
      "basata": 6234,
      "clauso": 6235,
      "speranza": 6236,
      "sugger": 6237,
      "starting": 6238,
      "trafficking": 6239,
      "soddisfazione": 6240,
      "odierna": 6241,
      "novembre": 6242,
      "Ucraina": 6243,
      "Hung": 6244,
      "male": 6245,
      "tando": 6246,
      "presi": 6247,
      "facile": 6248,
      "diretto": 6249,
      "thereby": 6250,
      "worked": 6251,
      "affatto": 6252,
      "fonda": 6253,
      "Rego": 6254,
      "sostenuto": 6255,
      "carefully": 6256,
      "chiediamo": 6257,
      "industriale": 6258,
      "protecting": 6259,
      "repeat": 6260,
      "official": 6261,
      "involvement": 6262,
      "totally": 6263,
      "substantial": 6264,
      "rifless": 6265,
      "risulta": 6266,
      "November": 6267,
      "Porto": 6268,
      "enjo": 6269,
      "arily": 6270,
      "leggi": 6271,
      "peoples": 6272,
      "peraltro": 6273,
      "maxim": 6274,
      "abbast": 6275,
      "trovano": 6276,
      "198": 6277,
      "capable": 6278,
      "migliaia": 6279,
      "classi": 6280,
      "influenza": 6281,
      "administration": 6282,
      "minimo": 6283,
      "enhance": 6284,
      "Portu": 6285,
      "binding": 6286,
      "abbastanza": 6287,
      "ER": 6288,
      "PSE": 6289,
      "iene": 6290,
      "soffer": 6291,
      "sebbene": 6292,
      "rid": 6293,
      "verde": 6294,
      "versione": 6295,
      "entially": 6296,
      "discusso": 6297,
      "persino": 6298,
      "sostiene": 6299,
      "conseguire": 6300,
      "causes": 6301,
      "complessi": 6302,
      "Belar": 6303,
      "Copenhagen": 6304,
      "perspective": 6305,
      "African": 6306,
      "dy": 6307,
      "tano": 6308,
      "orus": 6309,
      "existence": 6310,
      "acts": 6311,
      "umana": 6312,
      "penale": 6313,
      "continuing": 6314,
      "offre": 6315,
      "esterne": 6316,
      "deputato": 6317,
      "merely": 6318,
      "Balk": 6319,
      "Mediterraneo": 6320,
      "Greek": 6321,
      "uguagli": 6322,
      "disease": 6323,
      "plenary": 6324,
      "sensitive": 6325,
      "nemmeno": 6326,
      "Portugal": 6327,
      "GM": 6328,
      "Lam": 6329,
      "bureau": 6330,
      "vata": 6331,
      "signed": 6332,
      "rifu": 6333,
      "minori": 6334,
      "opposed": 6335,
      "approval": 6336,
      "debates": 6337,
      "Sea": 6338,
      "cristi": 6339,
      "consumo": 6340,
      "legislativa": 6341,
      "risolu": 6342,
      "technologies": 6343,
      "esaminare": 6344,
      "subsidiarity": 6345,
      "05": 6346,
      "cci": 6347,
      "flu": 6348,
      "ttere": 6349,
      "heart": 6350,
      "esattamente": 6351,
      "promis": 6352,
      "implic": 6353,
      "anian": 6354,
      "ottenuto": 6355,
      "employe": 6356,
      "leaders": 6357,
      "soddisfac": 6358,
      "specifici": 6359,
      "desire": 6360,
      "recognised": 6361,
      "destinati": 6362,
      "indipendente": 6363,
      "conciliazione": 6364,
      "ID": 6365,
      "Malta": 6366,
      "unilater": 6367,
      "vereign": 6368,
      "presup": 6369,
      "cast": 6370,
      "iranno": 6371,
      "attivo": 6372,
      "elevato": 6373,
      "includes": 6374,
      "entrata": 6375,
      "favorire": 6376,
      "cambiare": 6377,
      "bringing": 6378,
      "organismi": 6379,
      "innanzitutto": 6380,
      "detailed": 6381,
      "riserve": 6382,
      "secure": 6383,
      "obbligatori": 6384,
      "perfect": 6385,
      "MEPs": 6386,
      "Regolamento": 6387,
      "Her": 6388,
      "Im": 6389,
      "PMI": 6390,
      "vity": 6391,
      "degree": 6392,
      "prus": 6393,
      "attiva": 6394,
      "determinazione": 6395,
      "impiego": 6396,
      "consumatore": 6397,
      "inquinamento": 6398,
      "tourism": 6399,
      "Cyprus": 6400,
      "Kingdom": 6401,
      "Agric": 6402,
      "Cam": 6403,
      "Van": 6404,
      "vend": 6405,
      "wo": 6406,
      "sovereign": 6407,
      "forth": 6408,
      "urgenza": 6409,
      "export": 6410,
      "futura": 6411,
      "trasform": 6412,
      "proteggere": 6413,
      "board": 6414,
      "mittees": 6415,
      "commissario": 6416,
      "Alcun": 6417,
      "globalisation": 6418,
      "lunga": 6419,
      "payments": 6420,
      "annunci": 6421,
      "consultazione": 6422,
      "violazione": 6423,
      "expression": 6424,
      "regolamenti": 6425,
      "elenco": 6426,
      "cruciale": 6427,
      "Bro": 6428,
      "Stru": 6429,
      "bor": 6430,
      "sap": 6431,
      "unit": 6432,
      "dop": 6433,
      "previsti": 6434,
      "primi": 6435,
      "tedly": 6436,
      "getting": 6437,
      "obst": 6438,
      "dovremo": 6439,
      "persons": 6440,
      "numerose": 6441,
      "efficaci": 6442,
      "rapida": 6443,
      "minorities": 6444,
      "malattie": 6445,
      "discarico": 6446,
      "sve": 6447,
      "confirm": 6448,
      "Commun": 6449,
      "trut": 6450,
      "icht": 6451,
      "corrispon": 6452,
      "occupar": 6453,
      "Lei": 6454,
      "defined": 6455,
      "loyment": 6456,
      "organised": 6457,
      "estrema": 6458,
      "accogliere": 6459,
      "adopting": 6460,
      "satisfac": 6461,
      "conciliation": 6462,
      "vehicles": 6463,
      "Sarebbe": 6464,
      "failed": 6465,
      "fla": 6466,
      "pin": 6467,
      "lost": 6468,
      "accompag": 6469,
      "urgente": 6470,
      "prud": 6471,
      "approvare": 6472,
      "augu": 6473,
      "spend": 6474,
      "entrambe": 6475,
      "Chamber": 6476,
      "preparazione": 6477,
      "anziché": 6478,
      "naturally": 6479,
      "evidence": 6480,
      "essenziali": 6481,
      "original": 6482,
      "Amendments": 6483,
      "resolved": 6484,
      "keeping": 6485,
      "disastro": 6486,
      "metodi": 6487,
      "networks": 6488,
      "judi": 6489,
      "pillar": 6490,
      "nomin": 6491,
      "east": 6492,
      "rono": 6493,
      "sil": 6494,
      "segre": 6495,
      "vostra": 6496,
      "affairs": 6497,
      "adoper": 6498,
      "supports": 6499,
      "donna": 6500,
      "crescente": 6501,
      "territory": 6502,
      "privati": 6503,
      "giudizio": 6504,
      "Paesi": 6505,
      "figures": 6506,
      "ostacoli": 6507,
      "elettron": 6508,
      "esecuzione": 6509,
      "SMEs": 6510,
      "OS": 6511,
      "vance": 6512,
      "dizione": 6513,
      "percus": 6514,
      "accus": 6515,
      "ctural": 6516,
      "saving": 6517,
      "ell": 6518,
      "economie": 6519,
      "matic": 6520,
      "caratteri": 6521,
      "senz": 6522,
      "intend": 6523,
      "vicini": 6524,
      "significativo": 6525,
      "ratifica": 6526,
      "stanziamenti": 6527,
      "pollution": 6528,
      "cofin": 6529,
      "Pre": 6530,
      "aust": 6531,
      "easy": 6532,
      "gender": 6533,
      "incontro": 6534,
      "itable": 6535,
      "lam": 6536,
      "pote": 6537,
      "tivi": 6538,
      "mag": 6539,
      "elorus": 6540,
      "qualunque": 6541,
      "ruzione": 6542,
      "sicuro": 6543,
      "signal": 6544,
      "dita": 6545,
      "truly": 6546,
      "Maastr": 6547,
      "competence": 6548,
      "awareness": 6549,
      "meetings": 6550,
      "dubbi": 6551,
      "tasso": 6552,
      "embar": 6553,
      "targets": 6554,
      "Sweden": 6555,
      "provenienti": 6556,
      "enormous": 6557,
      "Maastricht": 6558,
      "Sappiamo": 6559,
      "tober": 6560,
      "diminu": 6561,
      "chair": 6562,
      "chieder": 6563,
      "volunt": 6564,
      "likely": 6565,
      "letter": 6566,
      "communities": 6567,
      "declare": 6568,
      "October": 6569,
      "separate": 6570,
      "permanente": 6571,
      "ruption": 6572,
      "consapevole": 6573,
      "OLAF": 6574,
      "obstac": 6575,
      "eventi": 6576,
      "là": 6577,
      "lon": 6578,
      "vamo": 6579,
      "assure": 6580,
      "macro": 6581,
      "impi": 6582,
      "riche": 6583,
      "obser": 6584,
      "margin": 6585,
      "Quindi": 6586,
      "continues": 6587,
      "iniziare": 6588,
      "tutelare": 6589,
      "credibilità": 6590,
      "disaster": 6591,
      "families": 6592,
      "condotta": 6593,
      "subsidies": 6594,
      "adapt": 6595,
      "expected": 6596,
      "Thirdly": 6597,
      "Cana": 6598,
      "Te": 6599,
      "catt": 6600,
      "geria": 6601,
      "sess": 6602,
      "enda": 6603,
      "ality": 6604,
      "isol": 6605,
      "deliber": 6606,
      "impossible": 6607,
      "advance": 6608,
      "impedire": 6609,
      "differenze": 6610,
      "substances": 6611,
      "grounds": 6612,
      "lingue": 6613,
      "drugs": 6614,
      "thousands": 6615,
      "95": 6616,
      "pha": 6617,
      "sentito": 6618,
      "tario": 6619,
      "entit": 6620,
      "severe": 6621,
      "utch": 6622,
      "movi": 6623,
      "piani": 6624,
      "risposte": 6625,
      "cuore": 6626,
      "Infatti": 6627,
      "cani": 6628,
      "esigenza": 6629,
      "ints": 6630,
      "cittadino": 6631,
      "prende": 6632,
      "entrambi": 6633,
      "employed": 6634,
      "mandate": 6635,
      "innovative": 6636,
      "famiglia": 6637,
      "Tunis": 6638,
      "Bra": 6639,
      "Sa": 6640,
      "gallo": 6641,
      "sentire": 6642,
      "itime": 6643,
      "interna": 6644,
      "monio": 6645,
      "actual": 6646,
      "rende": 6647,
      "centrali": 6648,
      "nessun": 6649,
      "taxation": 6650,
      "Funds": 6651,
      "shared": 6652,
      "famiglie": 6653,
      "palestinese": 6654,
      "manufacture": 6655,
      "Portogallo": 6656,
      "C5": 6657,
      "Many": 6658,
      "Nos": 6659,
      "Pi": 6660,
      "eb": 6661,
      "igno": 6662,
      "pest": 6663,
      "lease": 6664,
      "conn": 6665,
      "confini": 6666,
      "limin": 6667,
      "belling": 6668,
      "medit": 6669,
      "verse": 6670,
      "vivere": 6671,
      "goal": 6672,
      "arian": 6673,
      "presence": 6674,
      "election": 6675,
      "proprietà": 6676,
      "statuto": 6677,
      "interesting": 6678,
      "Cipro": 6679,
      "destro": 6680,
      "ragionevole": 6681,
      "honest": 6682,
      "Applause": 6683,
      "Applausi": 6684,
      "ottobre": 6685,
      "congratulo": 6686,
      "According": 6687,
      "Cuba": 6688,
      "Tho": 6689,
      "indeb": 6690,
      "vertice": 6691,
      "pian": 6692,
      "cazioni": 6693,
      "disporre": 6694,
      "esito": 6695,
      "presentate": 6696,
      "navi": 6697,
      "instance": 6698,
      "considerato": 6699,
      "treaty": 6700,
      "rimanere": 6701,
      "incidenti": 6702,
      "diseases": 6703,
      "plenaria": 6704,
      "Organ": 6705,
      "distribuzione": 6706,
      "Question": 6707,
      "encouraging": 6708,
      "esclusivamente": 6709,
      "parlando": 6710,
      "Structural": 6711,
      "Action": 6712,
      "Fis": 6713,
      "apo": 6714,
      "dac": 6715,
      "ked": 6716,
      "vazione": 6717,
      "income": 6718,
      "dep": 6719,
      "deser": 6720,
      "detti": 6721,
      "rient": 6722,
      "razioni": 6723,
      "committees": 6724,
      "mobili": 6725,
      "giunto": 6726,
      "expen": 6727,
      "attina": 6728,
      "prassi": 6729,
      "inty": 6730,
      "basi": 6731,
      "farma": 6732,
      "critiche": 6733,
      "afric": 6734,
      "harm": 6735,
      "lasciare": 6736,
      "elaborazione": 6737,
      "interpret": 6738,
      "certainty": 6739,
      "ribadire": 6740,
      "rinnovabili": 6741,
      "legitim": 6742,
      "):": 6743,
      "vation": 6744,
      "itarie": 6745,
      "perce": 6746,
      "perciò": 6747,
      "esseri": 6748,
      "hood": 6749,
      "undertaking": 6750,
      "gain": 6751,
      "consentito": 6752,
      "limitare": 6753,
      "approvvig": 6754,
      "assume": 6755,
      "immediatamente": 6756,
      "happening": 6757,
      "suffering": 6758,
      "dimenticare": 6759,
      "voluto": 6760,
      "Those": 6761,
      "Every": 6762,
      "hours": 6763,
      "nations": 6764,
      "condurre": 6765,
      "processi": 6766,
      "lower": 6767,
      "none": 6768,
      "anyone": 6769,
      "basso": 6770,
      "diversa": 6771,
      "costituzionale": 6772,
      "difendere": 6773,
      "benessere": 6774,
      "improvements": 6775,
      "sequently": 6776,
      "credibility": 6777,
      "annuale": 6778,
      "Balcani": 6779,
      "Eastern": 6780,
      "leadership": 6781,
      "distribut": 6782,
      "judicial": 6783,
      "approvvigion": 6784,
      "Uffici": 6785,
      "fit": 6786,
      "sac": 6787,
      "debito": 6788,
      "concent": 6789,
      "ampi": 6790,
      "metà": 6791,
      "terra": 6792,
      "Commissari": 6793,
      "apparen": 6794,
      "nie": 6795,
      "scala": 6796,
      "seeking": 6797,
      "series": 6798,
      "segnal": 6799,
      "lettera": 6800,
      "recenti": 6801,
      "associazione": 6802,
      "linked": 6803,
      "definitiva": 6804,
      "unanimità": 6805,
      "evoluzione": 6806,
      "Public": 6807,
      "Georgia": 6808,
      "Pact": 6809,
      "Ter": 6810,
      "ditors": 6811,
      "ammissi": 6812,
      "poca": 6813,
      "tagli": 6814,
      "attitude": 6815,
      "olan": 6816,
      "avremo": 6817,
      "indicato": 6818,
      "Qual": 6819,
      "fattori": 6820,
      "colletti": 6821,
      "favorevoli": 6822,
      "Poland": 6823,
      "disponibilità": 6824,
      "participate": 6825,
      "Poiché": 6826,
      "tecniche": 6827,
      "nucleari": 6828,
      "rimane": 6829,
      "criticism": 6830,
      "garanzie": 6831,
      "decisive": 6832,
      "explain": 6833,
      "easier": 6834,
      "arrangements": 6835,
      "weapons": 6836,
      "%.": 6837,
      "Er": 6838,
      "Tutto": 6839,
      "Western": 6840,
      "cendo": 6841,
      "epi": 6842,
      "mas": 6843,
      "reiter": 6844,
      "pet": 6845,
      "impresa": 6846,
      "adjust": 6847,
      "lui": 6848,
      "restri": 6849,
      "reasonable": 6850,
      "approvata": 6851,
      "modificare": 6852,
      "professionale": 6853,
      "obligation": 6854,
      "Gaza": 6855,
      "rejected": 6856,
      "Naturalmente": 6857,
      "mediter": 6858,
      "inspe": 6859,
      "isse": 6860,
      "labelling": 6861,
      "assolu": 6862,
      "proporre": 6863,
      "moving": 6864,
      "uris": 6865,
      "urare": 6866,
      "endorse": 6867,
      "volto": 6868,
      "buone": 6869,
      "spagno": 6870,
      "generally": 6871,
      "aperto": 6872,
      "ECU": 6873,
      "insist": 6874,
      "prevedere": 6875,
      "affect": 6876,
      "piacere": 6877,
      "sessu": 6878,
      "29": 6879,
      "Forse": 6880,
      "banche": 6881,
      "gap": 6882,
      "han": 6883,
      "wishes": 6884,
      "observ": 6885,
      "undred": 6886,
      "neither": 6887,
      "corretta": 6888,
      "reddito": 6889,
      "Maced": 6890,
      "stood": 6891,
      "adeguamento": 6892,
      "specifica": 6893,
      "crimes": 6894,
      "consenta": 6895,
      "learn": 6896,
      "formulare": 6897,
      "scorsa": 6898,
      "Sudan": 6899,
      "ricostruzione": 6900,
      "maximum": 6901,
      "Ara": 6902,
      "Stiamo": 6903,
      "gical": 6904,
      "mori": 6905,
      "rò": 6906,
      "ssero": 6907,
      "uo": 6908,
      "revis": 6909,
      "incontr": 6910,
      "ripresa": 6911,
      "dow": 6912,
      "prevista": 6913,
      "string": 6914,
      "explan": 6915,
      "umano": 6916,
      "rating": 6917,
      "ordinary": 6918,
      "fisher": 6919,
      "class": 6920,
      "break": 6921,
      "stock": 6922,
      "vicino": 6923,
      "Only": 6924,
      "regulatory": 6925,
      "Prima": 6926,
      "costruire": 6927,
      "harmonisation": 6928,
      "bilateral": 6929,
      "Ano": 6930,
      "sides": 6931,
      "comprendere": 6932,
      "imper": 6933,
      "imposed": 6934,
      "impressione": 6935,
      "luglio": 6936,
      "Commissioners": 6937,
      "completa": 6938,
      "followed": 6939,
      "planning": 6940,
      "trattati": 6941,
      "piccoli": 6942,
      "minority": 6943,
      "riconosciuto": 6944,
      "valid": 6945,
      "riguardanti": 6946,
      "started": 6947,
      "satisfactory": 6948,
      "Another": 6949,
      "04": 6950,
      "Apr": 6951,
      "Bu": 6952,
      "Sve": 6953,
      "hundred": 6954,
      "patto": 6955,
      "schi": 6956,
      "errore": 6957,
      "div": 6958,
      "arbit": 6959,
      "sop": 6960,
      "cele": 6961,
      "prelimin": 6962,
      "impossibile": 6963,
      "foot": 6964,
      "ctiveness": 6965,
      "attori": 6966,
      "continente": 6967,
      "compiti": 6968,
      "granted": 6969,
      "sincer": 6970,
      "recovery": 6971,
      "soddisfare": 6972,
      "sapete": 6973,
      "justified": 6974,
      "July": 6975,
      "millions": 6976,
      "perfettamente": 6977,
      "Belarus": 6978,
      "Ufficio": 6979,
      "April": 6980,
      "Ba": 6981,
      "CI": 6982,
      "Lan": 6983,
      "clar": 6984,
      "».": 6985,
      "rely": 6986,
      "realmente": 6987,
      "ilo": 6988,
      "voice": 6989,
      "atever": 6990,
      "tenendo": 6991,
      "serio": 6992,
      "Queste": 6993,
      "transatlant": 6994,
      "critica": 6995,
      "banks": 6996,
      "occasion": 6997,
      "concedere": 6998,
      "sensibili": 6999,
      "demonstrate": 7000,
      "North": 7001,
      "waiting": 7002,
      "evaluation": 7003,
      "rifugi": 7004,
      "employees": 7005,
      "accompagn": 7006,
      "Dutch": 7007,
      "Ener": 7008,
      "azia": 7009,
      "sfer": 7010,
      "veda": 7011,
      "utin": 7012,
      "vive": 7013,
      "cused": 7014,
      "fossero": 7015,
      "tribun": 7016,
      "socio": 7017,
      "relativamente": 7018,
      "comunicazioni": 7019,
      "hile": 7020,
      "naturali": 7021,
      "professional": 7022,
      "Swedish": 7023,
      "tackle": 7024,
      "previste": 7025,
      "Agriculture": 7026,
      "Canada": 7027,
      "C4": 7028,
      "heav": 7029,
      "anta": 7030,
      "esclus": 7031,
      "arle": 7032,
      "confir": 7033,
      "liamo": 7034,
      "vivono": 7035,
      "impression": 7036,
      "paralle": 7037,
      "privile": 7038,
      "operazioni": 7039,
      "pensa": 7040,
      "finanziare": 7041,
      "factor": 7042,
      "truth": 7043,
      "Devo": 7044,
      "cessive": 7045,
      "Auditors": 7046,
      "tornare": 7047,
      "Svezia": 7048,
      "oratori": 7049,
      "unded": 7050,
      "terre": 7051,
      "versal": 7052,
      "urs": 7053,
      "parlamento": 7054,
      "alia": 7055,
      "amoun": 7056,
      "aprile": 7057,
      "ttono": 7058,
      "feed": 7059,
      "equally": 7060,
      "contribuito": 7061,
      "fiscali": 7062,
      "compensation": 7063,
      "consumption": 7064,
      "floor": 7065,
      "From": 7066,
      "Mu": 7067,
      "PAC": 7068,
      "centi": 7069,
      "dine": 7070,
      "hop": 7071,
      "smo": 7072,
      "lect": 7073,
      "congiunta": 7074,
      "vegli": 7075,
      "importo": 7076,
      "ziale": 7077,
      "stake": 7078,
      "vest": 7079,
      "Protocol": 7080,
      "concreto": 7081,
      "courage": 7082,
      "designed": 7083,
      "contenuti": 7084,
      "investments": 7085,
      "amongst": 7086,
      "coerenza": 7087,
      "appears": 7088,
      "repeated": 7089,
      "voluntary": 7090,
      "75": 7091,
      "Zimb": 7092,
      "ya": 7093,
      "rein": 7094,
      "arms": 7095,
      "delic": 7096,
      "tidi": 7097,
      "codecisione": 7098,
      "Comitato": 7099,
      "abwe": 7100,
      "finding": 7101,
      "cure": 7102,
      "proposing": 7103,
      "scienza": 7104,
      "indub": 7105,
      "ification": 7106,
      "bank": 7107,
      "court": 7108,
      "agricolo": 7109,
      "decisionale": 7110,
      "concernente": 7111,
      "strad": 7112,
      "hands": 7113,
      "communications": 7114,
      "Market": 7115,
      "ottimo": 7116,
      "chiarire": 7117,
      "flexible": 7118,
      "demonstrated": 7119,
      "micro": 7120,
      "etichett": 7121,
      "Chiedo": 7122,
      "goslavia": 7123,
      "Zimbabwe": 7124,
      "Yet": 7125,
      "ersi": 7126,
      "condan": 7127,
      "ingi": 7128,
      "permesso": 7129,
      "neut": 7130,
      "ussemb": 7131,
      "essero": 7132,
      "places": 7133,
      "commissioni": 7134,
      "attack": 7135,
      "corretto": 7136,
      "artic": 7137,
      "opinions": 7138,
      "culturali": 7139,
      "welfare": 7140,
      "determination": 7141,
      "individuals": 7142,
      "contributions": 7143,
      "meaning": 7144,
      "migration": 7145,
      "quantità": 7146,
      "spieg": 7147,
      "Lux": 7148,
      "ethnic": 7149,
      "pazienti": 7150,
      "fallimento": 7151,
      "Macedonia": 7152,
      "ussembur": 7153,
      "ij": 7154,
      "mately": 7155,
      "recu": 7156,
      "enab": 7157,
      "isra": 7158,
      "deca": 7159,
      "ley": 7160,
      "secolo": 7161,
      "neppure": 7162,
      "votazioni": 7163,
      "preme": 7164,
      "bir": 7165,
      "aprire": 7166,
      "excessive": 7167,
      "trage": 7168,
      "otherwise": 7169,
      "caratter": 7170,
      "debt": 7171,
      "submit": 7172,
      "talvolta": 7173,
      "numerous": 7174,
      "assicura": 7175,
      "superiore": 7176,
      "quotidi": 7177,
      "speaker": 7178,
      "constitutional": 7179,
      "soggetti": 7180,
      "Luxemb": 7181,
      "fas": 7182,
      "hom": 7183,
      "tesi": 7184,
      "rive": 7185,
      "produrre": 7186,
      "noto": 7187,
      "forti": 7188,
      "verità": 7189,
      "exists": 7190,
      "ders": 7191,
      "sera": 7192,
      "Concor": 7193,
      "inevit": 7194,
      "assunto": 7195,
      "qualora": 7196,
      "ovvio": 7197,
      "richiesto": 7198,
      "entry": 7199,
      "campagna": 7200,
      "affrontato": 7201,
      "individuare": 7202,
      "utilizzati": 7203,
      "Polonia": 7204,
      "Riteniamo": 7205,
      "emphasis": 7206,
      "sovran": 7207,
      "threaten": 7208,
      "restrictions": 7209,
      "languages": 7210,
      "functioning": 7211,
      "monitoraggio": 7212,
      "High": 7213,
      "án": 7214,
      "revision": 7215,
      "topic": 7216,
      "sedi": 7217,
      "proseguire": 7218,
      "usare": 7219,
      "disting": 7220,
      "cura": 7221,
      "ritardo": 7222,
      "derog": 7223,
      "zze": 7224,
      "attacks": 7225,
      "differenza": 7226,
      "interested": 7227,
      "controllare": 7228,
      "eventuali": 7229,
      "path": 7230,
      "Fundamental": 7231,
      "engers": 7232,
      "delighted": 7233,
      "religious": 7234,
      "phase": 7235,
      "Organisation": 7236,
      "AID": 7237,
      "Kore": 7238,
      "Ring": 7239,
      "glad": 7240,
      "lung": 7241,
      "var": 7242,
      "yed": 7243,
      "erò": 7244,
      "arti": 7245,
      "rivel": 7246,
      "considerando": 7247,
      "aggiunto": 7248,
      "terrorist": 7249,
      "greatest": 7250,
      "respected": 7251,
      "britannico": 7252,
      "distribution": 7253,
      "Luxembour": 7254,
      "Att": 7255,
      "Man": 7256,
      "lat": 7257,
      "vate": 7258,
      "reso": 7259,
      "dedi": 7260,
      "unione": 7261,
      "size": 7262,
      "etto": 7263,
      "mbol": 7264,
      "century": 7265,
      "ventions": 7266,
      "farà": 7267,
      "fattore": 7268,
      "spending": 7269,
      "intendo": 7270,
      "fiscal": 7271,
      "straordin": 7272,
      "played": 7273,
      "ricorre": 7274,
      "comprensi": 7275,
      "inviare": 7276,
      "sovvenzioni": 7277,
      "sfruttamento": 7278,
      "Croati": 7279,
      "domestic": 7280,
      "Ringra": 7281,
      "Cze": 7282,
      "GUE": 7283,
      "Patten": 7284,
      "SV": 7285,
      "Sy": 7286,
      "While": 7287,
      "ream": 7288,
      "esor": 7289,
      "habit": 7290,
      "appare": 7291,
      "irsi": 7292,
      "option": 7293,
      "proposes": 7294,
      "gave": 7295,
      "1994": 7296,
      "limits": 7297,
      "interessate": 7298,
      "interessante": 7299,
      "compagnie": 7300,
      "compliance": 7301,
      "record": 7302,
      "uguaglianza": 7303,
      "forthcoming": 7304,
      "Luxembourg": 7305,
      "Czech": 7306,
      "Sco": 7307,
      "Tri": 7308,
      "Treati": 7309,
      "cking": 7310,
      "graph": 7311,
      "insiste": 7312,
      "unicamente": 7313,
      "conforme": 7314,
      "perpe": 7315,
      "permette": 7316,
      "dogan": 7317,
      "worse": 7318,
      "works": 7319,
      "spent": 7320,
      "continued": 7321,
      "limite": 7322,
      "thorough": 7323,
      "fighting": 7324,
      "ghese": 7325,
      "ONG": 7326,
      "mantenimento": 7327,
      "scandal": 7328,
      "neutr": 7329,
      "Treaties": 7330,
      "Biso": 7331,
      "Desp": 7332,
      "Here": 7333,
      "Mill": 7334,
      "bs": 7335,
      "ota": 7336,
      "ispe": 7337,
      "preca": 7338,
      "gible": 7339,
      "goals": 7340,
      "Medi": 7341,
      "proposti": 7342,
      "solve": 7343,
      "beni": 7344,
      "initial": 7345,
      "Tratt": 7346,
      "expectations": 7347,
      "appoggiare": 7348,
      "dinanzi": 7349,
      "mployment": 7350,
      "Resear": 7351,
      "vigilanza": 7352,
      "Innanzi": 7353,
      "dipende": 7354,
      "prigioni": 7355,
      "Balkans": 7356,
      "entitled": 7357,
      "israeli": 7358,
      "Despite": 7359,
      "DP": 7360,
      "OC": 7361,
      "camente": 7362,
      "gone": 7363,
      "mus": 7364,
      "win": 7365,
      "wine": 7366,
      "insurance": 7367,
      "tobacco": 7368,
      "oral": 7369,
      "quot": 7370,
      "bianco": 7371,
      "ultime": 7372,
      "politics": 7373,
      "diretta": 7374,
      "presentazione": 7375,
      "operare": 7376,
      "altrimenti": 7377,
      "competente": 7378,
      "purposes": 7379,
      "alizzato": 7380,
      "profess": 7381,
      "Intergovernmental": 7382,
      "normative": 7383,
      "immigrants": 7384,
      "popul": 7385,
      "tecnica": 7386,
      "contained": 7387,
      "conflicts": 7388,
      "officials": 7389,
      "NGOs": 7390,
      "experts": 7391,
      "Mer": 7392,
      "lation": 7393,
      "tool": 7394,
      "seven": 7395,
      "persegu": 7396,
      "util": 7397,
      "plant": 7398,
      "colgo": 7399,
      "hol": 7400,
      "clusion": 7401,
      "negotiating": 7402,
      "contrad": 7403,
      "naturale": 7404,
      "avete": 7405,
      "technological": 7406,
      "coinvolgimento": 7407,
      "enormi": 7408,
      "bourg": 7409,
      "lingua": 7410,
      "conduct": 7411,
      "americani": 7412,
      "palestinesi": 7413,
      "NGL": 7414,
      "disciplin": 7415,
      "Alcuni": 7416,
      "Energy": 7417,
      ")]": 7418,
      "Ta": 7419,
      "ev": 7420,
      "satell": 7421,
      "vesse": 7422,
      "omet": 7423,
      "rilasci": 7424,
      "tiene": 7425,
      "etn": 7426,
      "appieno": 7427,
      "corruzione": 7428,
      "Part": 7429,
      "Consu": 7430,
      "approve": 7431,
      "suppli": 7432,
      "liberali": 7433,
      "clan": 7434,
      "gestire": 7435,
      "requirement": 7436,
      "uniform": 7437,
      "burgo": 7438,
      "argomenti": 7439,
      "Such": 7440,
      "figure": 7441,
      "Strasbourg": 7442,
      "Bielorus": 7443,
      "ricevere": 7444,
      "Bielorussia": 7445,
      "37": 7446,
      "EI": 7447,
      "EM": 7448,
      "Fron": 7449,
      "fif": 7450,
      "tate": 7451,
      "vino": 7452,
      "enforce": 7453,
      "itano": 7454,
      "convenzione": 7455,
      "meat": 7456,
      "struction": 7457,
      "ficato": 7458,
      "changing": 7459,
      "qualified": 7460,
      "saremo": 7461,
      "contrari": 7462,
      "negoziato": 7463,
      "pagare": 7464,
      "passed": 7465,
      "appropriations": 7466,
      "preventing": 7467,
      "dimensioni": 7468,
      "consapevoli": 7469,
      "stabilito": 7470,
      "aspettative": 7471,
      "protocollo": 7472,
      "CAP": 7473,
      "risoluzioni": 7474,
      "AIDS": 7475,
      "Research": 7476,
      "Ov": 7477,
      "Ric": 7478,
      "heu": 7479,
      "esportazioni": 7480,
      "stia": 7481,
      "ils": 7482,
      "sosp": 7483,
      "perif": 7484,
      "imposte": 7485,
      "ristrut": 7486,
      "apparten": 7487,
      "geno": 7488,
      "pongono": 7489,
      "occor": 7490,
      "avrebbero": 7491,
      "centre": 7492,
      "teremo": 7493,
      "taluni": 7494,
      "favor": 7495,
      "costituzione": 7496,
      "passengers": 7497,
      "pagamenti": 7498,
      "Financial": 7499,
      "giuridici": 7500,
      "ratification": 7501,
      "dependent": 7502,
      "dignità": 7503,
      "solamente": 7504,
      "etichettatura": 7505,
      "Fer": 7506,
      "Other": 7507,
      "retribu": 7508,
      "ats": 7509,
      "tock": 7510,
      "diction": 7511,
      "verifica": 7512,
      "acknowledge": 7513,
      "impar": 7514,
      "aghen": 7515,
      "icabile": 7516,
      "feb": 7517,
      "considerazioni": 7518,
      "knows": 7519,
      "mettendo": 7520,
      "drast": 7521,
      "peso": 7522,
      "happens": 7523,
      "preparing": 7524,
      "offerta": 7525,
      "freedoms": 7526,
      "stretta": 7527,
      "avviato": 7528,
      "temporary": 7529,
      "abbandon": 7530,
      "identità": 7531,
      "Copenaghen": 7532,
      "riflettere": 7533,
      "45": 7534,
      "kin": 7535,
      "rich": 7536,
      "onde": 7537,
      "compared": 7538,
      "adatt": 7539,
      "irman": 7540,
      "attesa": 7541,
      "volti": 7542,
      "andosi": 7543,
      "navig": 7544,
      "somewhat": 7545,
      "allowing": 7546,
      "stimo": 7547,
      "Alban": 7548,
      "realistic": 7549,
      "fuel": 7550,
      "payment": 7551,
      "dinam": 7552,
      "patients": 7553,
      "dignity": 7554,
      "condemn": 7555,
      "arbitr": 7556,
      "Albania": 7557,
      "BSE": 7558,
      "Dis": 7559,
      "ril": 7560,
      "ombra": 7561,
      "accur": 7562,
      "tene": 7563,
      "corruption": 7564,
      "mersi": 7565,
      "continuano": 7566,
      "ctors": 7567,
      "drawing": 7568,
      "seriamente": 7569,
      "popolazioni": 7570,
      "White": 7571,
      "terior": 7572,
      "warm": 7573,
      "holding": 7574,
      "intraprendere": 7575,
      "dipendenza": 7576,
      "permanent": 7577,
      "accolto": 7578,
      "Tibet": 7579,
      "risparmi": 7580,
      "riflessione": 7581,
      "soddisfacente": 7582,
      "rientra": 7583,
      "vedasi": 7584,
      "Feb": 7585,
      "West": 7586,
      "fem": 7587,
      "enna": 7588,
      "dedic": 7589,
      "liance": 7590,
      "pilast": 7591,
      "allar": 7592,
      "treated": 7593,
      "trading": 7594,
      "bilmente": 7595,
      "operate": 7596,
      "ambigu": 7597,
      "ruary": 7598,
      "factors": 7599,
      "Alto": 7600,
      "competenti": 7601,
      "nership": 7602,
      "difference": 7603,
      "significato": 7604,
      "normal": 7605,
      "superare": 7606,
      "dipendenti": 7607,
      "elettorale": 7608,
      "Ringrazio": 7609,
      "February": 7610,
      "pilastro": 7611,
      "Ash": 7612,
      "Feder": 7613,
      "Ness": 7614,
      "epoca": 7615,
      "latter": 7616,
      "toler": 7617,
      "dimeno": 7618,
      "protest": 7619,
      "razz": 7620,
      "core": 7621,
      "lose": 7622,
      "alimenti": 7623,
      "withdraw": 7624,
      "tens": 7625,
      "contare": 7626,
      "exclusion": 7627,
      "merid": 7628,
      "worry": 7629,
      "operational": 7630,
      "itori": 7631,
      "aggiorn": 7632,
      "ultimately": 7633,
      "sindac": 7634,
      "richied": 7635,
      "privato": 7636,
      "emergenza": 7637,
      "emergency": 7638,
      "tasks": 7639,
      "manifesta": 7640,
      "urgently": 7641,
      "inclusion": 7642,
      "electric": 7643,
      "remarks": 7644,
      "penalty": 7645,
      "Tunisia": 7646,
      "CS": 7647,
      "Dan": 7648,
      "Fishe": 7649,
      "aero": 7650,
      "ki": 7651,
      "mità": 7652,
      "phen": 7653,
      "ama": 7654,
      "pertin": 7655,
      "noted": 7656,
      "vostro": 7657,
      "whilst": 7658,
      "pire": 7659,
      "therlands": 7660,
      "socialista": 7661,
      "maritime": 7662,
      "Legal": 7663,
      "potremmo": 7664,
      "violations": 7665,
      "Framework": 7666,
      "Verheu": 7667,
      "emerge": 7668,
      "property": 7669,
      "extended": 7670,
      "autent": 7671,
      "sfruttare": 7672,
      "verificare": 7673,
      "semplificazione": 7674,
      "trasferimento": 7675,
      "salvaguar": 7676,
      "Fisheries": 7677,
      "Verheugen": 7678,
      "300": 7679,
      "Bla": 7680,
      "EP": 7681,
      "mical": 7682,
      "ination": 7683,
      "tore": 7684,
      "ested": 7685,
      "convention": 7686,
      "tipi": 7687,
      "oub": 7688,
      "voti": 7689,
      "impose": 7690,
      "whatever": 7691,
      "prescin": 7692,
      "cercando": 7693,
      "nazioni": 7694,
      "formation": 7695,
      "guardo": 7696,
      "understood": 7697,
      "considering": 7698,
      "boo": 7699,
      "collective": 7700,
      "turned": 7701,
      "definito": 7702,
      "effectiveness": 7703,
      "examine": 7704,
      "agricoli": 7705,
      "contributi": 7706,
      "combust": 7707,
      "planned": 7708,
      "Netherlands": 7709,
      "eliminazione": 7710,
      "settle": 7711,
      "ottima": 7712,
      "reflect": 7713,
      "texts": 7714,
      "prosperity": 7715,
      "block": 7716,
      "Strasburgo": 7717,
      "declaration": 7718,
      "derivanti": 7719,
      "condanna": 7720,
      "Trattati": 7721,
      "Ovviamente": 7722,
      "Employment": 7723,
      "samente": 7724,
      "redi": 7725,
      "repu": 7726,
      "toller": 7727,
      "codecision": 7728,
      "chim": 7729,
      "verà": 7730,
      "verif": 7731,
      "corsi": 7732,
      "legati": 7733,
      "ift": 7734,
      "involves": 7735,
      "funzioni": 7736,
      "benché": 7737,
      "difficili": 7738,
      "helping": 7739,
      "rapido": 7740,
      "essenzialmente": 7741,
      "notevoli": 7742,
      "lieta": 7743,
      "compreso": 7744,
      "Baltic": 7745,
      "Socialist": 7746,
      "learning": 7747,
      "braio": 7748,
      "facilitate": 7749,
      "spoke": 7750,
      "patrimonio": 7751,
      "school": 7752,
      "febbraio": 7753,
      "%,": 7754,
      "Nonostante": 7755,
      "Oltre": 7756,
      "rurali": 7757,
      "space": 7758,
      "reques": 7759,
      "realise": 7760,
      "entità": 7761,
      "lifer": 7762,
      "ared": 7763,
      "perdere": 7764,
      "ets": 7765,
      "abstain": 7766,
      "cuse": 7767,
      "oppos": 7768,
      "umane": 7769,
      "energie": 7770,
      "atorio": 7771,
      "beings": 7772,
      "types": 7773,
      "democratiche": 7774,
      "evening": 7775,
      "iniziale": 7776,
      "pescatori": 7777,
      "coordinated": 7778,
      "sottolinea": 7779,
      "sorvegli": 7780,
      "guaranteed": 7781,
      "coherent": 7782,
      "Possiamo": 7783,
      "Colom": 7784,
      "allocated": 7785,
      "richiamare": 7786,
      "profughi": 7787,
      "legitimate": 7788,
      "ampiamente": 7789,
      "amounts": 7790,
      "Bisogna": 7791,
      "phenomen": 7792,
      "requested": 7793,
      "36": 7794,
      "Dar": 7795,
      "Del": 7796,
      "Solo": 7797,
      "Tim": 7798,
      "tel": 7799,
      "advis": 7800,
      "cercato": 7801,
      "matico": 7802,
      "figli": 7803,
      "zzati": 7804,
      "clean": 7805,
      "bound": 7806,
      "2012": 7807,
      "strategie": 7808,
      "highe": 7809,
      "introducing": 7810,
      "desiderio": 7811,
      "determinati": 7812,
      "peaceful": 7813,
      "trasparente": 7814,
      "moderni": 7815,
      "written": 7816,
      "felt": 7817,
      "substance": 7818,
      "convergenza": 7819,
      "scheme": 7820,
      "minacci": 7821,
      "Stability": 7822,
      "primarily": 7823,
      "abitanti": 7824,
      "impianti": 7825,
      "distingu": 7826,
      "highest": 7827,
      "TA": 7828,
      "frat": 7829,
      "incar": 7830,
      "icità": 7831,
      "perdita": 7832,
      "belong": 7833,
      "coast": 7834,
      "viaggi": 7835,
      "Common": 7836,
      "paper": 7837,
      "dispu": 7838,
      "presenta": 7839,
      "operations": 7840,
      "operators": 7841,
      "seguente": 7842,
      "Represent": 7843,
      "rappresentare": 7844,
      "donesi": 7845,
      "dibatt": 7846,
      "average": 7847,
      "politicians": 7848,
      "stronger": 7849,
      "immigrati": 7850,
      "Accolgo": 7851,
      "Given": 7852,
      "Vogliamo": 7853,
      "Posso": 7854,
      "soprav": 7855,
      "dynam": 7856,
      "clandest": 7857,
      "perifer": 7858,
      "ristruttura": 7859,
      "salvaguardia": 7860,
      "prescindere": 7861,
      "FI": 7862,
      "Kar": 7863,
      "Lon": 7864,
      "Women": 7865,
      "spen": 7866,
      "’.": 7867,
      "insta": 7868,
      "enz": 7869,
      "atmo": 7870,
      "itt": 7871,
      "esau": 7872,
      "unfair": 7873,
      "coni": 7874,
      "rian": 7875,
      "perfor": 7876,
      "tabacco": 7877,
      "memor": 7878,
      "prepare": 7879,
      "terin": 7880,
      "essendo": 7881,
      "exports": 7882,
      "opho": 7883,
      "creato": 7884,
      "please": 7885,
      "intesa": 7886,
      "esterna": 7887,
      "personalmente": 7888,
      "alizzati": 7889,
      "pagamento": 7890,
      "surve": 7891,
      "investire": 7892,
      "concreta": 7893,
      "principalmente": 7894,
      "taxpay": 7895,
      "collaborare": 7896,
      "argoment": 7897,
      "nevertheless": 7898,
      "reaching": 7899,
      "deliver": 7900,
      "respective": 7901,
      "ological": 7902,
      "fruit": 7903,
      "ciascuno": 7904,
      "approvvigionamento": 7905,
      "gam": 7906,
      "lʼ": 7907,
      "xed": 7908,
      "infr": 7909,
      "accento": 7910,
      "ptions": 7911,
      "specialmente": 7912,
      "seguenti": 7913,
      "overcome": 7914,
      "sphere": 7915,
      "esterno": 7916,
      "front": 7917,
      "processes": 7918,
      "ships": 7919,
      "ograph": 7920,
      "offers": 7921,
      "built": 7922,
      "uguese": 7923,
      "Portuguese": 7924,
      "customs": 7925,
      "errori": 7926,
      "ministers": 7927,
      "Dovremmo": 7928,
      "Concordo": 7929,
      "Nei": 7930,
      "Sing": 7931,
      "massa": 7932,
      "tanti": 7933,
      "xen": 7934,
      "herit": 7935,
      "deterior": 7936,
      "ribad": 7937,
      "prohi": 7938,
      "profond": 7939,
      "prevenire": 7940,
      "terrà": 7941,
      "importazioni": 7942,
      "usion": 7943,
      "interne": 7944,
      "legale": 7945,
      "legally": 7946,
      "operating": 7947,
      "approfond": 7948,
      "ishing": 7949,
      "scen": 7950,
      "sostanza": 7951,
      "occupi": 7952,
      "examples": 7953,
      "Prote": 7954,
      "organizzata": 7955,
      "determined": 7956,
      "utilizzato": 7957,
      "trattare": 7958,
      "associated": 7959,
      "brevemente": 7960,
      "materie": 7961,
      "rammar": 7962,
      "accettato": 7963,
      "inferiore": 7964,
      "vulnerable": 7965,
      "published": 7966,
      "indubbi": 7967,
      "B5": 7968,
      "HU": 7969,
      "affor": 7970,
      "card": 7971,
      "mobile": 7972,
      "aca": 7973,
      "tendenza": 7974,
      "debole": 7975,
      "medical": 7976,
      "durata": 7977,
      "personally": 7978,
      "nessuna": 7979,
      "evidentemente": 7980,
      "capitali": 7981,
      "esercit": 7982,
      "energetiche": 7983,
      "credito": 7984,
      "materials": 7985,
      "malattia": 7986,
      "briefly": 7987,
      "transizione": 7988,
      "quotas": 7989,
      "Pers": 7990,
      "Yu": 7991,
      "replace": 7992,
      "erog": 7993,
      "ional": 7994,
      "esportazione": 7995,
      "rima": 7996,
      "rientr": 7997,
      "chemical": 7998,
      "chiu": 7999
    },
    "merges": [
      [
        "o",
        "n"
      ],
      [
        "r",
        "e"
      ],
      [
        "i",
        "n"
      ],
      [
        "h",
        "e"
      ],
      [
        "e",
        "n"
      ],
      [
        "a",
        "n"
      ],
      [
        "a",
        "t"
      ],
      [
        "e",
        "r"
      ],
      [
        "a",
        "l"
      ],
      [
        "t",
        "o"
      ],
      [
        "i",
        "on"
      ],
      [
        "i",
        "s"
      ],
      [
        "t",
        "he"
      ],
      [
        "o",
        "r"
      ],
      [
        "d",
        "e"
      ],
      [
        "i",
        "t"
      ],
      [
        "e",
        "s"
      ],
      [
        "r",
        "o"
      ],
      [
        "d",
        "i"
      ],
      [
        "l",
        "a"
      ],
      [
        "en",
        "t"
      ],
      [
        "a",
        "r"
      ],
      [
        "l",
        "e"
      ],
      [
        "i",
        "c"
      ],
      [
        "s",
        "t"
      ],
      [
        "u",
        "n"
      ],
      [
        "o",
        "m"
      ],
      [
        "s",
        "i"
      ],
      [
        "i",
        "l"
      ],
      [
        "s",
        "e"
      ],
      [
        "t",
        "h"
      ],
      [
        "o",
        "f"
      ],
      [
        "c",
        "on"
      ],
      [
        "a",
        "m"
      ],
      [
        "ion",
        "e"
      ],
      [
        "an",
        "d"
      ],
      [
        "p",
        "o"
      ],
      [
        "l",
        "i"
      ],
      [
        "r",
        "i"
      ],
      [
        "de",
        "l"
      ],
      [
        "t",
        "i"
      ],
      [
        "t",
        "e"
      ],
      [
        "a",
        "s"
      ],
      [
        "v",
        "e"
      ],
      [
        "p",
        "e"
      ],
      [
        "in",
        "g"
      ],
      [
        "p",
        "ro"
      ],
      [
        "c",
        "he"
      ],
      [
        "a",
        "re"
      ],
      [
        "s",
        "o"
      ],
      [
        "p",
        "er"
      ],
      [
        "n",
        "o"
      ],
      [
        "q",
        "u"
      ],
      [
        "o",
        "u"
      ],
      [
        "r",
        "a"
      ],
      [
        "s",
        "u"
      ],
      [
        "b",
        "e"
      ],
      [
        "n",
        "e"
      ],
      [
        "c",
        "i"
      ],
      [
        "t",
        "a"
      ],
      [
        "z",
        "ione"
      ],
      [
        "f",
        "or"
      ],
      [
        "d",
        "o"
      ],
      [
        "c",
        "om"
      ],
      [
        "c",
        "o"
      ],
      [
        "l",
        "o"
      ],
      [
        "u",
        "ro"
      ],
      [
        "u",
        "t"
      ],
      [
        "c",
        "e"
      ],
      [
        "m",
        "o"
      ],
      [
        "m",
        "ent"
      ],
      [
        "th",
        "at"
      ],
      [
        "v",
        "o"
      ],
      [
        "m",
        "e"
      ],
      [
        "m",
        "a"
      ],
      [
        "c",
        "h"
      ],
      [
        "p",
        "re"
      ],
      [
        "t",
        "er"
      ],
      [
        "l",
        "y"
      ],
      [
        "uro",
        "pe"
      ],
      [
        "at",
        "ion"
      ],
      [
        "v",
        "er"
      ],
      [
        "w",
        "e"
      ],
      [
        "v",
        "i"
      ],
      [
        "g",
        "i"
      ],
      [
        "p",
        "or"
      ],
      [
        "at",
        "i"
      ],
      [
        "e",
        "d"
      ],
      [
        "a",
        "c"
      ],
      [
        "at",
        "o"
      ],
      [
        "h",
        "a"
      ],
      [
        "i",
        "m"
      ],
      [
        "g",
        "li"
      ],
      [
        "m",
        "is"
      ],
      [
        "u",
        "r"
      ],
      [
        "al",
        "e"
      ],
      [
        "ent",
        "e"
      ],
      [
        "C",
        "om"
      ],
      [
        "on",
        "o"
      ],
      [
        "mis",
        "s"
      ],
      [
        "p",
        "ar"
      ],
      [
        "b",
        "i"
      ],
      [
        "w",
        "h"
      ],
      [
        "p",
        "i"
      ],
      [
        "por",
        "t"
      ],
      [
        "qu",
        "es"
      ],
      [
        "at",
        "e"
      ],
      [
        "e",
        "t"
      ],
      [
        "a",
        "g"
      ],
      [
        "en",
        "to"
      ],
      [
        "a",
        "b"
      ],
      [
        "z",
        "a"
      ],
      [
        "si",
        "d"
      ],
      [
        "z",
        "i"
      ],
      [
        "del",
        "la"
      ],
      [
        "al",
        "l"
      ],
      [
        "u",
        "s"
      ],
      [
        "d",
        "a"
      ],
      [
        "g",
        "o"
      ],
      [
        "f",
        "f"
      ],
      [
        "n",
        "on"
      ],
      [
        "al",
        "i"
      ],
      [
        "u",
        "l"
      ],
      [
        "z",
        "ion"
      ],
      [
        "ar",
        "i"
      ],
      [
        "l",
        "d"
      ],
      [
        "es",
        "s"
      ],
      [
        "Com",
        "miss"
      ],
      [
        "t",
        "r"
      ],
      [
        "a",
        "d"
      ],
      [
        "th",
        "is"
      ],
      [
        "m",
        "i"
      ],
      [
        "d",
        "u"
      ],
      [
        "c",
        "t"
      ],
      [
        "p",
        "a"
      ],
      [
        "po",
        "s"
      ],
      [
        "am",
        "o"
      ],
      [
        "re",
        "s"
      ],
      [
        "E",
        "urope"
      ],
      [
        "ne",
        "l"
      ],
      [
        "un",
        "a"
      ],
      [
        "it",
        "h"
      ],
      [
        "m",
        "b"
      ],
      [
        "ic",
        "a"
      ],
      [
        "ic",
        "h"
      ],
      [
        "U",
        "n"
      ],
      [
        "it",
        "à"
      ],
      [
        "g",
        "h"
      ],
      [
        "c",
        "a"
      ],
      [
        "g",
        "n"
      ],
      [
        "no",
        "t"
      ],
      [
        "w",
        "ith"
      ],
      [
        "r",
        "is"
      ],
      [
        "d",
        "is"
      ],
      [
        "ou",
        "ld"
      ],
      [
        "il",
        "l"
      ],
      [
        "ha",
        "ve"
      ],
      [
        "re",
        "sid"
      ],
      [
        "T",
        "he"
      ],
      [
        "it",
        "i"
      ],
      [
        "P",
        "resid"
      ],
      [
        "a",
        "p"
      ],
      [
        "e",
        "urope"
      ],
      [
        "m",
        "an"
      ],
      [
        "t",
        "en"
      ],
      [
        "c",
        "or"
      ],
      [
        "i",
        "r"
      ],
      [
        "del",
        "l"
      ],
      [
        "po",
        "l"
      ],
      [
        "pre",
        "s"
      ],
      [
        "de",
        "i"
      ],
      [
        "f",
        "in"
      ],
      [
        "ou",
        "r"
      ],
      [
        "g",
        "u"
      ],
      [
        "it",
        "y"
      ],
      [
        "zion",
        "i"
      ],
      [
        "ic",
        "o"
      ],
      [
        "con",
        "t"
      ],
      [
        "g",
        "r"
      ],
      [
        "u",
        "p"
      ],
      [
        "wh",
        "ich"
      ],
      [
        "st",
        "r"
      ],
      [
        "Europe",
        "an"
      ],
      [
        "a",
        "zione"
      ],
      [
        "su",
        "l"
      ],
      [
        "k",
        "e"
      ],
      [
        "an",
        "o"
      ],
      [
        "ent",
        "i"
      ],
      [
        "s",
        "a"
      ],
      [
        "e",
        "x"
      ],
      [
        "al",
        "la"
      ],
      [
        "p",
        "ri"
      ],
      [
        "s",
        "h"
      ],
      [
        "e",
        "re"
      ],
      [
        "u",
        "st"
      ],
      [
        "c",
        "u"
      ],
      [
        "S",
        "t"
      ],
      [
        "ch",
        "i"
      ],
      [
        "v",
        "a"
      ],
      [
        "P",
        "ar"
      ],
      [
        "m",
        "in"
      ],
      [
        "b",
        "y"
      ],
      [
        "o",
        "p"
      ],
      [
        "w",
        "ill"
      ],
      [
        "b",
        "le"
      ],
      [
        "at",
        "a"
      ],
      [
        "l",
        "u"
      ],
      [
        "I",
        "n"
      ],
      [
        "r",
        "it"
      ],
      [
        "t",
        "to"
      ],
      [
        "ic",
        "i"
      ],
      [
        "m",
        "er"
      ],
      [
        "in",
        "ter"
      ],
      [
        "u",
        "re"
      ],
      [
        "at",
        "t"
      ],
      [
        "en",
        "d"
      ],
      [
        "am",
        "ente"
      ],
      [
        "s",
        "ono"
      ],
      [
        "m",
        "ento"
      ],
      [
        "del",
        "le"
      ],
      [
        "h",
        "as"
      ],
      [
        "is",
        "t"
      ],
      [
        "on",
        "e"
      ],
      [
        "M",
        "r"
      ],
      [
        "Commiss",
        "ion"
      ],
      [
        "e",
        "m"
      ],
      [
        "e",
        "l"
      ],
      [
        "v",
        "en"
      ],
      [
        "an",
        "t"
      ],
      [
        "f",
        "o"
      ],
      [
        "ion",
        "s"
      ],
      [
        "an",
        "no"
      ],
      [
        "d",
        "er"
      ],
      [
        "par",
        "t"
      ],
      [
        "the",
        "r"
      ],
      [
        "pol",
        "it"
      ],
      [
        "t",
        "re"
      ],
      [
        "0",
        "0"
      ],
      [
        "or",
        "i"
      ],
      [
        "it",
        "u"
      ],
      [
        "c",
        "an"
      ],
      [
        "com",
        "e"
      ],
      [
        "t",
        "ra"
      ],
      [
        "g",
        "gi"
      ],
      [
        "ou",
        "t"
      ],
      [
        "w",
        "or"
      ],
      [
        "s",
        "er"
      ],
      [
        "c",
        "ess"
      ],
      [
        "c",
        "re"
      ],
      [
        "re",
        "g"
      ],
      [
        "b",
        "il"
      ],
      [
        "mb",
        "er"
      ],
      [
        "t",
        "ut"
      ],
      [
        "g",
        "e"
      ],
      [
        "p",
        "l"
      ],
      [
        "am",
        "ent"
      ],
      [
        "gh",
        "t"
      ],
      [
        "c",
        "er"
      ],
      [
        "te",
        "d"
      ],
      [
        "a",
        "i"
      ],
      [
        "im",
        "port"
      ],
      [
        "le",
        "g"
      ],
      [
        "C",
        "on"
      ],
      [
        "co",
        "l"
      ],
      [
        "ques",
        "to"
      ],
      [
        "europe",
        "a"
      ],
      [
        "vo",
        "l"
      ],
      [
        "pi",
        "ù"
      ],
      [
        "h",
        "o"
      ],
      [
        "f",
        "a"
      ],
      [
        "an",
        "to"
      ],
      [
        "p",
        "r"
      ],
      [
        "n",
        "u"
      ],
      [
        "c",
        "es"
      ],
      [
        "en",
        "za"
      ],
      [
        "ar",
        "d"
      ],
      [
        "o",
        "l"
      ],
      [
        "Commiss",
        "ione"
      ],
      [
        "Un",
        "ione"
      ],
      [
        "e",
        "con"
      ],
      [
        "st",
        "a"
      ],
      [
        "or",
        "o"
      ],
      [
        "m",
        "on"
      ],
      [
        "t",
        "ri"
      ],
      [
        "p",
        "u"
      ],
      [
        "i",
        "f"
      ],
      [
        "es",
        "se"
      ],
      [
        "di",
        "re"
      ],
      [
        "so",
        "ci"
      ],
      [
        "si",
        "a"
      ],
      [
        "gn",
        "or"
      ],
      [
        "w",
        "ould"
      ],
      [
        "in",
        "e"
      ],
      [
        "r",
        "ic"
      ],
      [
        "al",
        "so"
      ],
      [
        "t",
        "ro"
      ],
      [
        "an",
        "che"
      ],
      [
        "v",
        "is"
      ],
      [
        "u",
        "se"
      ],
      [
        "u",
        "to"
      ],
      [
        "g",
        "en"
      ],
      [
        "s",
        "pe"
      ],
      [
        "ques",
        "t"
      ],
      [
        "the",
        "re"
      ],
      [
        "b",
        "ut"
      ],
      [
        "ment",
        "e"
      ],
      [
        "S",
        "i"
      ],
      [
        "es",
        "i"
      ],
      [
        "la",
        "zione"
      ],
      [
        "co",
        "un"
      ],
      [
        "T",
        "h"
      ],
      [
        "pres",
        "ent"
      ],
      [
        "la",
        "r"
      ],
      [
        "ro",
        "m"
      ],
      [
        "la",
        "mento"
      ],
      [
        "L",
        "a"
      ],
      [
        "in",
        "i"
      ],
      [
        "sh",
        "ould"
      ],
      [
        "ac",
        "t"
      ],
      [
        "at",
        "es"
      ],
      [
        "am",
        "ento"
      ],
      [
        "t",
        "ti"
      ],
      [
        "an",
        "te"
      ],
      [
        "p",
        "le"
      ],
      [
        "econ",
        "om"
      ],
      [
        "al",
        "ly"
      ],
      [
        "ari",
        "o"
      ],
      [
        "Presid",
        "ente"
      ],
      [
        "Presid",
        "ent"
      ],
      [
        "p",
        "on"
      ],
      [
        "W",
        "e"
      ],
      [
        "m",
        "it"
      ],
      [
        "gli",
        "o"
      ],
      [
        "z",
        "za"
      ],
      [
        "re",
        "vo"
      ],
      [
        "f",
        "rom"
      ],
      [
        "an",
        "s"
      ],
      [
        "m",
        "at"
      ],
      [
        "b",
        "l"
      ],
      [
        "v",
        "es"
      ],
      [
        "i",
        "re"
      ],
      [
        "m",
        "ust"
      ],
      [
        "bi",
        "amo"
      ],
      [
        "ion",
        "i"
      ],
      [
        "pos",
        "si"
      ],
      [
        "de",
        "re"
      ],
      [
        "al",
        "le"
      ],
      [
        "c",
        "is"
      ],
      [
        "M",
        "e"
      ],
      [
        "i",
        "a"
      ],
      [
        "ver",
        "y"
      ],
      [
        "g",
        "et"
      ],
      [
        "an",
        "ti"
      ],
      [
        "t",
        "t"
      ],
      [
        "esse",
        "re"
      ],
      [
        "o",
        "c"
      ],
      [
        "re",
        "n"
      ],
      [
        "r",
        "on"
      ],
      [
        "o",
        "b"
      ],
      [
        "ation",
        "s"
      ],
      [
        "and",
        "o"
      ],
      [
        "li",
        "ament"
      ],
      [
        "re",
        "e"
      ],
      [
        "f",
        "i"
      ],
      [
        "no",
        "st"
      ],
      [
        "b",
        "u"
      ],
      [
        "wor",
        "k"
      ],
      [
        "a",
        "v"
      ],
      [
        "I",
        "t"
      ],
      [
        "in",
        "te"
      ],
      [
        "il",
        "i"
      ],
      [
        "de",
        "ve"
      ],
      [
        "C",
        "o"
      ],
      [
        "n",
        "a"
      ],
      [
        "be",
        "en"
      ],
      [
        "for",
        "m"
      ],
      [
        "Me",
        "mber"
      ],
      [
        "as",
        "s"
      ],
      [
        "e",
        "ff"
      ],
      [
        "pro",
        "ble"
      ],
      [
        "ment",
        "s"
      ],
      [
        "re",
        "l"
      ],
      [
        "b",
        "er"
      ],
      [
        "om",
        "e"
      ],
      [
        "Un",
        "ion"
      ],
      [
        "w",
        "he"
      ],
      [
        "pro",
        "po"
      ],
      [
        "f",
        "er"
      ],
      [
        "to",
        "r"
      ],
      [
        "it",
        "s"
      ],
      [
        "Par",
        "lamento"
      ],
      [
        "o",
        "per"
      ],
      [
        "a",
        "ff"
      ],
      [
        "ul",
        "t"
      ],
      [
        "Par",
        "liament"
      ],
      [
        "com",
        "un"
      ],
      [
        "z",
        "z"
      ],
      [
        "mo",
        "re"
      ],
      [
        "in",
        "di"
      ],
      [
        "2",
        "00"
      ],
      [
        "c",
        "ti"
      ],
      [
        "re",
        "port"
      ],
      [
        "am",
        "bi"
      ],
      [
        "y",
        "ou"
      ],
      [
        "ic",
        "he"
      ],
      [
        "ou",
        "s"
      ],
      [
        "es",
        "t"
      ],
      [
        "at",
        "to"
      ],
      [
        "no",
        "w"
      ],
      [
        "en",
        "s"
      ],
      [
        "un",
        "d"
      ],
      [
        "an",
        "ce"
      ],
      [
        "ono",
        "revo"
      ],
      [
        "St",
        "ati"
      ],
      [
        "cu",
        "i"
      ],
      [
        "l",
        "l"
      ],
      [
        "fo",
        "re"
      ],
      [
        "ch",
        "é"
      ],
      [
        "c",
        "it"
      ],
      [
        "m",
        "ar"
      ],
      [
        "bi",
        "le"
      ],
      [
        "Si",
        "gnor"
      ],
      [
        "so",
        "l"
      ],
      [
        "ic",
        "e"
      ],
      [
        "at",
        "ti"
      ],
      [
        "ne",
        "cess"
      ],
      [
        "ab",
        "le"
      ],
      [
        "ar",
        "y"
      ],
      [
        "se",
        "d"
      ],
      [
        "dis",
        "c"
      ],
      [
        "me",
        "mb"
      ],
      [
        "an",
        "i"
      ],
      [
        "re",
        "lazione"
      ],
      [
        "w",
        "as"
      ],
      [
        "ct",
        "ion"
      ],
      [
        "b",
        "be"
      ],
      [
        "mo",
        "l"
      ],
      [
        "st",
        "e"
      ],
      [
        "o",
        "d"
      ],
      [
        "ap",
        "pro"
      ],
      [
        "la",
        "v"
      ],
      [
        "cont",
        "ro"
      ],
      [
        "en",
        "e"
      ],
      [
        "an",
        "zi"
      ],
      [
        "ra",
        "p"
      ],
      [
        "de",
        "gli"
      ],
      [
        "in",
        "t"
      ],
      [
        "E",
        "U"
      ],
      [
        "n",
        "i"
      ],
      [
        "ques",
        "ta"
      ],
      [
        "St",
        "ates"
      ],
      [
        "li",
        "ke"
      ],
      [
        "w",
        "a"
      ],
      [
        "E",
        "uro"
      ],
      [
        "si",
        "glio"
      ],
      [
        "di",
        "rit"
      ],
      [
        "ati",
        "ve"
      ],
      [
        "l",
        "lo"
      ],
      [
        "in",
        "ci"
      ],
      [
        "er",
        "s"
      ],
      [
        "un",
        "c"
      ],
      [
        "str",
        "u"
      ],
      [
        "su",
        "p"
      ],
      [
        "de",
        "cis"
      ],
      [
        "Con",
        "siglio"
      ],
      [
        "ri",
        "ght"
      ],
      [
        "wh",
        "o"
      ],
      [
        "the",
        "ir"
      ],
      [
        "ic",
        "al"
      ],
      [
        "b",
        "a"
      ],
      [
        "ere",
        "n"
      ],
      [
        "di",
        "ff"
      ],
      [
        "i",
        "d"
      ],
      [
        "g",
        "ra"
      ],
      [
        "Co",
        "unc"
      ],
      [
        "Counc",
        "il"
      ],
      [
        "sid",
        "er"
      ],
      [
        "an",
        "ci"
      ],
      [
        "nel",
        "la"
      ],
      [
        "I",
        "l"
      ],
      [
        "u",
        "man"
      ],
      [
        "e",
        "le"
      ],
      [
        "am",
        "e"
      ],
      [
        "e",
        "ar"
      ],
      [
        "europe",
        "o"
      ],
      [
        "memb",
        "ri"
      ],
      [
        "ne",
        "ed"
      ],
      [
        "qu",
        "al"
      ],
      [
        "z",
        "e"
      ],
      [
        "up",
        "po"
      ],
      [
        "k",
        "ing"
      ],
      [
        "a",
        "u"
      ],
      [
        "o",
        "ther"
      ],
      [
        "qu",
        "anto"
      ],
      [
        "f",
        "on"
      ],
      [
        "par",
        "te"
      ],
      [
        "c",
        "y"
      ],
      [
        "cti",
        "ve"
      ],
      [
        "p",
        "are"
      ],
      [
        "it",
        "ion"
      ],
      [
        "s",
        "itu"
      ],
      [
        "ation",
        "al"
      ],
      [
        "u",
        "ra"
      ],
      [
        "the",
        "se"
      ],
      [
        "ab",
        "il"
      ],
      [
        "e",
        "ve"
      ],
      [
        "polit",
        "ica"
      ],
      [
        "c",
        "lu"
      ],
      [
        "a",
        "do"
      ],
      [
        "d",
        "al"
      ],
      [
        "de",
        "d"
      ],
      [
        "m",
        "en"
      ],
      [
        "Th",
        "is"
      ],
      [
        "gr",
        "am"
      ],
      [
        "f",
        "ic"
      ],
      [
        "v",
        "al"
      ],
      [
        "in",
        "st"
      ],
      [
        "at",
        "ed"
      ],
      [
        "mo",
        "c"
      ],
      [
        "f",
        "e"
      ],
      [
        "pa",
        "esi"
      ],
      [
        "res",
        "pon"
      ],
      [
        "c",
        "ar"
      ],
      [
        "c",
        "ent"
      ],
      [
        "o",
        "s"
      ],
      [
        "it",
        "e"
      ],
      [
        "qu",
        "el"
      ],
      [
        "ti",
        "me"
      ],
      [
        "p",
        "la"
      ],
      [
        "sul",
        "la"
      ],
      [
        "the",
        "y"
      ],
      [
        "go",
        "ver"
      ],
      [
        "v",
        "ent"
      ],
      [
        "v",
        "il"
      ],
      [
        "de",
        "b"
      ],
      [
        "r",
        "u"
      ],
      [
        "es",
        "e"
      ],
      [
        "ca",
        "use"
      ],
      [
        "la",
        "re"
      ],
      [
        "or",
        "d"
      ],
      [
        "is",
        "h"
      ],
      [
        "Euro",
        "pa"
      ],
      [
        "i",
        "to"
      ],
      [
        "j",
        "e"
      ],
      [
        "pro",
        "gram"
      ],
      [
        "on",
        "g"
      ],
      [
        "onorevo",
        "le"
      ],
      [
        "wa",
        "y"
      ],
      [
        "tri",
        "es"
      ],
      [
        "do",
        "v"
      ],
      [
        "c",
        "ur"
      ],
      [
        "h",
        "anno"
      ],
      [
        "be",
        "t"
      ],
      [
        "ac",
        "cor"
      ],
      [
        "s",
        "ome"
      ],
      [
        "nu",
        "o"
      ],
      [
        "pro",
        "pos"
      ],
      [
        "coun",
        "tries"
      ],
      [
        "t",
        "ta"
      ],
      [
        "ne",
        "w"
      ],
      [
        "g",
        "no"
      ],
      [
        "wh",
        "at"
      ],
      [
        "tut",
        "ti"
      ],
      [
        "na",
        "zion"
      ],
      [
        "th",
        "an"
      ],
      [
        "ab",
        "out"
      ],
      [
        "pr",
        "inci"
      ],
      [
        "p",
        "t"
      ],
      [
        "co",
        "st"
      ],
      [
        "disc",
        "us"
      ],
      [
        "re",
        "at"
      ],
      [
        "gu",
        "ar"
      ],
      [
        "m",
        "y"
      ],
      [
        "Q",
        "u"
      ],
      [
        "f",
        "ar"
      ],
      [
        "m",
        "s"
      ],
      [
        "c",
        "le"
      ],
      [
        "s",
        "ione"
      ],
      [
        "r",
        "at"
      ],
      [
        "t",
        "à"
      ],
      [
        "f",
        "ut"
      ],
      [
        "iti",
        "es"
      ],
      [
        "P",
        "er"
      ],
      [
        "n",
        "ational"
      ],
      [
        "pro",
        "du"
      ],
      [
        "f",
        "ul"
      ],
      [
        "re",
        "i"
      ],
      [
        "op",
        "le"
      ],
      [
        "s",
        "en"
      ],
      [
        "c",
        "as"
      ],
      [
        "c",
        "un"
      ],
      [
        "de",
        "moc"
      ],
      [
        "l",
        "oro"
      ],
      [
        "p",
        "en"
      ],
      [
        "is",
        "te"
      ],
      [
        "et",
        "ti"
      ],
      [
        "ut",
        "ion"
      ],
      [
        "an",
[...]
